{"<|endoftext|>":0,"<|pad|>":1,"<|unk|>":2,"<|sep|>":3,"<|mask|>":4,"<|cls|>":5,"<|image|>":6,"<|audio|>":7,"<|user|>":8,"<|system|>":9,"<|assistant|>":10,"<|extra_id_0|>":11,"<|extra_id_1|>":12,"<|extra_id_2|>":13,"<|extra_id_3|>":14,"<|extra_id_4|>":15,"<|extra_id_5|>":16,"<|extra_id_6|>":17,"<|extra_id_7|>":18,"<|extra_id_8|>":19,"<|extra_id_9|>":20,"<|extra_id_10|>":21,"<|extra_id_11|>":22,"<|extra_id_12|>":23,"<|extra_id_13|>":24,"<|im_start|>":25,"<|im_sep|>":26,"<|im_end|>":27,"<|resident_reg|>":28,"<|foreigner_reg|>":29,"<|business_reg|>":30,"<|credit_card|>":31,"<|passport|>":32,"<|driver_license|>":33,"<|telephone|>":34,"<|health_insurance|>":35,"<|bank_account|>":36,"</tool_output>":37,"<tool_output>":38,"</tool_call>":39,"<tool_call>":40,"!":41,"\"":42,"#":43,"$":44,"%":45,"&":46,"'":47,"(":48,")":49,"*":50,"+":51,",":52,"-":53,".":54,"/":55,"0":56,"1":57,"2":58,"3":59,"4":60,"5":61,"6":62,"7":63,"8":64,"9":65,":":66,";":67,"<":68,"=":69,">":70,"?":71,"@":72,"A":73,"B":74,"C":75,"D":76,"E":77,"F":78,"G":79,"H":80,"I":81,"J":82,"K":83,"L":84,"M":85,"N":86,"O":87,"P":88,"Q":89,"R":90,"S":91,"T":92,"U":93,"V":94,"W":95,"X":96,"Y":97,"Z":98,"[":99,"\\":100,"]":101,"^":102,"_":103,"`":104,"a":105,"b":106,"c":107,"d":108,"e":109,"f":110,"g":111,"h":112,"i":113,"j":114,"k":115,"l":116,"m":117,"n":118,"o":119,"p":120,"q":121,"r":122,"s":123,"t":124,"u":125,"v":126,"w":127,"x":128,"y":129,"z":130,"{":131,"|":132,"}":133,"~":134,"¡":135,"¢":136,"£":137,"¤":138,"¥":139,"¦":140,"§":141,"¨":142,"©":143,"ª":144,"«":145,"¬":146,"®":147,"¯":148,"°":149,"±":150,"²":151,"³":152,"´":153,"µ":154,"¶":155,"·":156,"¸":157,"¹":158,"º":159,"»":160,"¼":161,"½":162,"¾":163,"¿":164,"À":165,"Á":166,"Â":167,"Ã":168,"Ä":169,"Å":170,"Æ":171,"Ç":172,"È":173,"É":174,"Ê":175,"Ë":176,"Ì":177,"Í":178,"Î":179,"Ï":180,"Ð":181,"Ñ":182,"Ò":183,"Ó":184,"Ô":185,"Õ":186,"Ö":187,"×":188,"Ø":189,"Ù":190,"Ú":191,"Û":192,"Ü":193,"Ý":194,"Þ":195,"ß":196,"à":197,"á":198,"â":199,"ã":200,"ä":201,"å":202,"æ":203,"ç":204,"è":205,"é":206,"ê":207,"ë":208,"ì":209,"í":210,"î":211,"ï":212,"ð":213,"ñ":214,"ò":215,"ó":216,"ô":217,"õ":218,"ö":219,"÷":220,"ø":221,"ù":222,"ú":223,"û":224,"ü":225,"ý":226,"þ":227,"ÿ":228,"Ā":229,"ā":230,"Ă":231,"ă":232,"Ą":233,"ą":234,"Ć":235,"ć":236,"Ĉ":237,"ĉ":238,"Ċ":239,"ċ":240,"Č":241,"č":242,"Ď":243,"ď":244,"Đ":245,"đ":246,"Ē":247,"ē":248,"Ĕ":249,"ĕ":250,"Ė":251,"ė":252,"Ę":253,"ę":254,"Ě":255,"ě":256,"Ĝ":257,"ĝ":258,"Ğ":259,"ğ":260,"Ġ":261,"ġ":262,"Ģ":263,"ģ":264,"Ĥ":265,"ĥ":266,"Ħ":267,"ħ":268,"Ĩ":269,"ĩ":270,"Ī":271,"ī":272,"Ĭ":273,"ĭ":274,"Į":275,"į":276,"İ":277,"ı":278,"Ĳ":279,"ĳ":280,"Ĵ":281,"ĵ":282,"Ķ":283,"ķ":284,"ĸ":285,"Ĺ":286,"ĺ":287,"Ļ":288,"ļ":289,"Ľ":290,"ľ":291,"Ŀ":292,"ŀ":293,"Ł":294,"ł":295,"Ń":296,"Ġì":297,"ĠĠ":298,"Ġë":299,"ìĿ":300,"íķ":301,"ëĭ":302,"Ġê":303,"ĠĠĠĠ":304,"Ġt":305,"ìĹ":306,"in":307,"ìĿ´":308,"Ġa":309,"ëĬ":310,"er":311,"ê³":312,"ëĭ¤":313,"on":314,"ëĬĶ":315,"ê°":316,"Ġí":317,"he":318,"re":319,"ìĦ":320,"ì§":321,"at":322,"ìĹĲ":323,"íķĺ":324,"ìł":325,"ìŀ":326,"ìļ":327,"ê³ł":328,"ìĿĦ":329,"ë¡":330,"en":331,"or":332,"Ġìŀ":333,"Ġs":334,"ìĭ":335,"Ġthe":336,"ëı":337,"ìķ":338,"ê¸":339,"Ġc":340,"ë¡ľ":341,"ë¦":342,"es":343,"ê°Ģ":344,"ê²":345,"ì§Ģ":346,"it":347,"ĠìĿ":348,"ìĿĺ":349,"al":350,"is":351,"ìĸ":352,"íķľ":353,"ë¥":354,"an":355,"ìĦľ":356,"ìľ":357,"Īëĭ¤":358,"ë§":359,"ëĵ":360,"Ġw":361,"ou":362,"ar":363,"ëĤ":364,"ion":365,"ìĿĢ":366,"ëıĦ":367,"Ġf":368,"le":369,"ĠĠĠ":370,"Ġìķ":371,"ìĬ":372,"Ġìł":373,"Ġp":374,"ê¸°":375,"ing":376,"Ĥ¬":377,"Ġê°":378,"ìĸ´":379,"Ġo":380,"ĠĠĠĠĠĠĠĠ":381,"ë¦¬":382,"ed":383,"Ġb":384,"Ġë§":385,"nd":386,"ìļĶ":387,"ë¥¼":388,"ic":389,"ë©":390,"íķ´":391,"Ġë°":392,"êµ":393,"as":394,"Ġm":395,"ëĿ":396,"Ġin":397,"Īĺ":398,"Ġd":399,"ëł":400,"ro":401,"et":402,"ĮĢ":403,"ëĿ¼":404,"·¸":405,"ìľ¼":406,"Ġto":407,"ëį":408,"ct":409,"Ġof":410,"ìĭľ":411,"³´":412,"ĠìĿ´":413,"ĠìĹ":414,"Ġê²":415,"ëĭĪëĭ¤":416,"ìĽ":417,"ë°":418,"ë¬":419,"Ġìĭ":420,"ë¶":421,"Ġand":422,"ëŀ":423,"ê²Į":424,"ĠëĤ":425,"£¼":426,"ìĿ¸":427,"ent":428,"ìĥ":429,"ìĺ":430,"ìķĦ":431,"el":432,"st":433,"ëĤĺ":434,"ĠìŀĪ":435,"ëĵ¤":436,"Ġth":437,"ìĬ¤":438,"Ġì§":439,"Ġëĭ":440,"Ġh":441,"ë©´":442,"ĊĊ":443,"om":444,"Ġê³":445,"ëŁ":446,"ìŀĲ":447,"Ġìĺ":448,"Ġn":449,"Ġre":450,"il":451,"am":452,"ìľ¼ë¡ľ":453,"ìĤ¬":454,"ĠìĦ":455,"ì²":456,"ĠìĤ¬":457,"Ġíķĺ":458,"ig":459,"íĸ":460,"id":461,"Ġê·¸":462,"ë§Į":463,"Ġl":464,"Ġe":465,"ì¹":466,"im":467,"ë²":468,"ac":469,"Ġ(":470,"ê³¼":471,"ĠìĪĺ":472,"íĻ":473,"Ġ\\":474,"ation":475,"Ġìĥ":476,"ĠĠĠĠĠĠĠ":477,"Ġê¸":478,"ìŀ¥":479,"Ġëª":480,"Ġë¶":481,"ot":482,"ì£¼":483,"Ġ$":484,"ìĹĲìĦľ":485,"Ġê°Ģ":486,"ĠìķĦ":487,"ìĻ":488,"ê±":489,"ol":490,"ëĮĢ":491,"ìłķ":492,"íĺ":493,"ìĨ":494,"ëĭĪ":495,"se":496,"Ġ=":497,"ëª":498,"Ġis":499,"ë³´":500,"ìĽĲ":501,"ëį°":502,"Ġëĵ":503,"ve":504,"ìĿ¼":505,"**":506,"Ġíķ":507,"êµ¬":508,"ur":509,"ut":510,"¹Ħ":511,"ĠT":512,"Ġg":513,"íĬ":514,"íĥ":515,"ë¶Ģ":516,"ëĲ":517,"ìĥģ":518,"ìĪĺ":519,"ì°":520,"ëħ":521,"Ġìĸ":522,"ĠS":523,"Ġìľ":524,"od":525,"ad":526,"Ġê²ĥ":527,"ul":528,"ĉĉ":529,"if":530,"Ġfor":531,"ìłľ":532,"ce":533,"ĠI":534,"Ġë³´":535,"ë³":536,"ow":537,"ìĬµ":538,"ver":539,"ê¹":540,"Ġy":541,"Ġêµ":542,"00":543,"Ġëı":544,"Ġ<":545,"ìłģ":546,"ag":547,"ĠëĮĢ":548,"íĬ¸":549,"Ġë¬":550,"ìļ©":551,"tr":552,"ay":553,"ë¯":554,"¡°":555,"Ġê¸°":556,"Ġëĭ¤":557,"ĠC":558,"¤ĳ":559,"Ġu":560,"Ġíķľ":561,"ab":562,"ìĦ±":563,"our":564,"ëĵľ":565,"ìłĦ":566,");":567,"ìĹ¬":568,"Ġìļ":569,"ly":570,"Ġìĭľ":571,"ĠA":572,"Ġbe":573,"ëıĻ":574,"Ġon":575,"âĢ":576,"th":577,"ĠëĤĺ":578,"Ġì§Ģ":579,"qu":580,"Ġ{":581,"ith":582,"--":583,"Ġì°":584,"ìĻĢ":585,"ch":586,"ê·¸":587,"=\"":588,"ĠìĨ":589,"pe":590,"Ġ\"":591,"ìĤ":592,"ĠëĲ":593,"ate":594,"ë¬¸":595,"ter":596,"ëŁ¬":597,"Ġì¢":598,"um":599,"´Ģ":600,"ìĬµëĭĪëĭ¤":601,"íķĺëĬĶ":602,"em":603,"ëĦ":604,"ê°Ħ":605,"íĶ":606,"ĠìŀĲ":607,"ìķ¼":608,"Ġê±":609,"ĠìłĦ":610,"Ġ'":611,"íĮ":612,"íĻĶ":613,"čĊ":614,"ë¬´":615,"ìĭł":616,"Ġv":617,"ë£":618,"ìļ°":619,"ìĦ¸":620,"ê±°":621,"ì¹ĺ":622,"ê¹Į":623,"Ġìłķ":624,"Ġthat":625,"Ġcon":626,"ĠíĻ":627,"ì§Ħ":628,"ap":629,"ht":630,"Ġì£¼":631,"íķĺê³ł":632,"//":633,"Ġìłľ":634,"</":635,"Ġst":636,"íĦ":637,"ë§Ī":638,"ë¹Ħ":639,"ëł¤":640,"ë¶Ħ":641,"ìŀħ":642,"ìĨĮ":643,"20":644,"ex":645,"est":646,"ir":647,"Ġwith":648,"ì¶":649,"ķĮ":650,"un":651,"ìĿĮ":652,"ction":653,"ĠĠĠĠĠĠĠĠĠĠĠ":654,"êµŃ":655,"Ġ*":656,"ìĺ¤":657,"ess":658,"oc":659,"íļ":660,"end":661,"íĦ°":662,"ìĹĪ":663,"Ġpro":664,"ĠM":665,"íŀ":666,"Ġëª¨":667,"ass":668,"Ġíĺ":669,"Ġas":670,"iv":671,"ëŀĺ":672,"íķł":673,"Ġë³":674,"ĠP":675,"pt":676,"ëĬĶëį°":677,"Ġal":678,"Ġëį":679,"íģ":680,"ë©°":681,"íı":682,"Ġìĸ´":683,"Ġan":684,"Ġë¶Ģ":685,"íĨ":686,"ìĤ°":687,"_{":688,"ãħ":689,"res":690,"ëĲĺ":691,"ĠëĦ":692,"Ġì²":693,"ĠìĿ¼":694,"Ġë§Ī":695,"ers":696,"..":697,"Ġìĺ¤":698,"Ġíķ´":699,"ìĹħ":700,"Ġit":701,"us":702,"íŀĪ":703,"ew":704,"ĠìĹĨ":705,"ëħĦ":706,"ë¯¸":707,"ìĭĿ":708,"ê¸Ī":709,"ì¦":710,"ĠëĤ´":711,"Ġwh":712,"ĠìĿ¸":713,"ĠìķĬ":714,"Ġì¶":715,"Ġë²":716,"ĠB":717,"ìĭ¤":718,"Ġ}":719,"ame":720,"Ġìĥģ":721,"Ġì¢ĭ":722,"and":723,"ìļ´":724,"ĽĦ":725,"íĸī":726,"ĠìĻ":727,"pl":728,"Ġex":729,"ĳĲ":730,"ĠìľĦ":731,"Ġare":732,"ëĤ´":733,"ain":734,"Ġì¹":735,"ĠìĥĿ":736,"Ġyou":737,"ë¬¼":738,"Ġíĸ":739,"ì§Ģë§Į":740,"ath":741,"ist":742,"ort":743,"Ġor":744,"íļĮ":745,"Ġì¤ĳ":746,"Ġë°Ķ":747,"ub":748,"ê·":749,"ë¥´":750,"ê³µ":751,"ê³Ħ":752,"ê°ľ":753,"Ġê³ł":754,"ĠìķĪ":755,"ĠìĤ":756,"ì¡°":757,"ĠìĬ":758,"ke":759,"age":760,"ëªħ":761,"ue":762,"ĠìŀĪëĬĶ":763,"Ġcom":764,"Ġê²½":765,"Ġ-":766,"ìķĪ":767,"ore":768,"Ġ:":769,"out":770,"ê²½":771,"ĠF":772,"ĠD":773,"íĴ":774,"ĠìĨĮ":775,"Ġr":776,"os":777,"Ġde":778,"Ġë¨":779,"ëĶ":780,"op":781,"ill":782,"ìľł":783,"ere":784,"ĠëĲĺ":785,"ĠìĹ¬":786,"Ġë§Į":787,"Ġthis":788,"Ġcl":789,"ìĥĿ":790,"ĠìŀĪëĭ¤":791,"ëįĺ":792,"ìħ":793,"Ġê³µ":794,"ment":795,"ì°¨":796,"ity":797,"Ġë¯":798,"ri":799,"ine":800,"ëĭ¨":801,"Ġíı":802,"ect":803,"ìĿ´ëĭ¤":804,"ê°ģ":805,"ight":806,"Ġwe":807,"Ġë§İ":808,"ĠëķĮ":809,"Ġëĵ±":810,"Ġê°Ļ":811,"ĠëĶ":812,"ìľĦ":813,"íķĻ":814,"ĠíĮ":815,"ĠR":816,"ĠW":817,"ĠL":818,"ìĸ´ìļĶ":819,"\">":820,"art":821,"!!":822,"ìĦł":823,"ĠìĽ":824,"ure":825,"rom":826,"©ëĭĪëĭ¤":827,"íİ":828,"Ġë§Ĳ":829,"ĠH":830,"Ġ&":831,"ì²´":832,"ê´Ģ":833,"ëįĶ":834,"ĠĠĠĠĠĠĠĠĠĠĠĠĠĠĠĠ":835,"Ġë¹Ħ":836,"íĥĢ":837,"íķĺê²Į":838,"10":839,"nt":840,"Ġì¡°":841,"ëĦ¤":842,"per":843,"ĠThe":844,"ëŀĮ":845,"eg":846,"{\\":847,"ĠĠĠĠĠ":848,"Ġìľł":849,"Ġêµ¬":850,"ìĪ":851,"ĠíĶ":852,"ìĿ´ëĿ¼":853,"ë°©":854,"iz":855,"able":856,"ì¤ĳ":857,"ìłĢ":858,"ìĹ°":859,"ëĭ¹":860,"íĴĪ":861,"()":862,"ìŀĪ":863,"ĠE":864,"Ġat":865,"ant":866,"íģ¬":867,"ĠN":868,"ext":869,"urn":870,"íħ":871,"ì¤":872,"ë§¤":873,"êµĲ":874,"ëĵ¤ìĿ´":875,"Ġíĥ":876,"ê±´":877,"âĢĻ":878,"ìŀħëĭĪëĭ¤":879,"Ġìĭł":880,"Ġëĵ¤":881,"ë²Ī":882,"ìŀ¬":883,"ì¡":884,"ìĸĳ":885,"ĠG":886,"ial":887,"ive":888,"Ġby":889,"og":890,"ìķĺ":891,"Ġë¬´":892,"ĠëįĶ":893,"ëł¥":894,"ack":895,"ĠíĨ":896,"cl":897,"ìĽĶ":898,"ave":899,"ìĺģ":900,"Ġìļ°":901,"íĺ¸":902,"all":903,"Ġtr":904,"ëĭĺ":905,"íĸĪ":906,"ult":907,"ies":908,"Ġse":909,"ld":910,"201":911,"ìĭ¬":912,"Ġ$\\":913,"ëª¨":914,"port":915,"ĠìĹ°":916,"íĸĪëĭ¤":917,"Ġë¶Ħ":918,"ĠìĬ¤":919,"ëĲľ":920,"Ġê´Ģ":921,"Ġif":922,"ìłĲ":923,"ê»":924,"Ġê±°":925,"ib":926,"de":927,"ref":928,"ge":929,"ĠëıĦ":930,"ëłĪ":931,"Ġë¨¹":932,"ê²ł":933,"ìĹĪëĭ¤":934,"Ġfrom":935,"íĹ":936,"Ġê¹":937,"con":938,"ìŀĳ":939,"Ġë¯¸":940,"ĠìĦł":941,"Ġcan":942,"av":943,"ìĹŃ":944,"ite":945,"ëŀĳ":946,"ê¹Įì§Ģ":947,"Ġë°©":948,"***":949,"act":950,"ë¥¸":951,"ĠìłĢ":952,"ì¢":953,"sp":954,"Ġsh":955,"ĠëĬ":956,"ĳľ":957,"orm":958,"µľ":959,"Ġnot":960,"ë£Į":961,"Ġch":962,"ëŁ°":963,"ype":964,"½Ķ":965,"ust":966,"Ġì§Ħ":967,"ĠìĺĪ":968,"turn":969,"ì²ľ":970,"ëĬ¥":971,"ind":972,"ĠO":973,"íĭ":974,"ĠìķĮ":975,"ans":976,"ĠìĿĺ":977,"----":978,"ff":979,"ĠìĦ¸":980,"math":981,"Ġëħ":982,"ĺĲ":983,"==":984,"ĠëĨ":985,"get":986,"com":987,"íĤ":988,"Ġhe":989,"ìĹĲê²Į":990,"Ġë©":991,"ë§Ĳ":992,"int":993,"rou":994,"Ġê·":995,"ë©´ìĦľ":996,"ĠëıĻ":997,"ë£¨":998,"Ġíģ":999,"ode":1000,"ëĳĲ":1001,"ë²ķ":1002,"ìĺĢ":1003,"Ġhave":1004,"Ġclass":1005,"Ġë°ľ":1006,"Ġìĺģ":1007,"ase":1008,"ile":1009,"ëĶĶ":1010,"íķ´ìĦľ":1011,"Ġìŀħ":1012,"ĠìĦľ":1013,"),":1014,"are":1015,"Ġyour":1016,"ë¨":1017,"Ġìŀĺ":1018,"Ġ/":1019,"ê²ĥ":1020,"ë¦¬ê³ł":1021,"Ġë¹":1022,"ë¸":1023,"ë¡Ŀ":1024,"ìĹĲëĬĶ":1025,"íĶĦ":1026,"ë¯¼":1027,"Ġê°ľ":1028,"ëĵł":1029,"19":1030,"ĠìĤ¬ëŀĮ":1031,"ip":1032,"ë°Ķ":1033,"Ġus":1034,"ìĶ":1035,"Ġle":1036,"´Ī":1037,"ace":1038,"ell":1039,"ê²©":1040,"ì²ĺ":1041,"íĨµ":1042,"ìļ¸":1043,"oo":1044,"ëĤľ":1045,"ë°ľ":1046,"ì§ĳ":1047,"ê°Ĳ":1048,"íĮĮ":1049,"ëĭ¤ê³ł":1050,"ìŀĦ":1051,"ê»ĺ":1052,"ë²Ħ":1053,"íķĺìĹ¬":1054,"ìĨį":1055,"pro":1056,"ma":1057,"ë°ĺ":1058,"ide":1059,"ëłĩ":1060,"ime":1061,"Ġsu":1062,"ph":1063,"ption":1064,"íĶ¼":1065,"ĠíĨµ":1066,"ard":1067,"ost":1068,"ice":1069,"ĠìĦ±":1070,"ì²Ń":1071,"ë¹":1072,"ĠíĬ":1073,"íı¬":1074,"ì§ģ":1075,"íĽĦ":1076,"ĠìĥĿê°ģ":1077,"ign":1078,"Ġë¬¸":1079,"ëĭ¤ëĬĶ":1080,"Ġìŀ¥":1081,"ì£":1082,"ì§Ī":1083,"ë¦Ħ":1084,"ëĥ":1085,"Ġíķł":1086,"Ġwill":1087,"ition":1088,"Ġë§¤":1089,"ë³¸":1090,"ĠëĶ°":1091,"ì¸":1092,"}\\":1093,"ata":1094,"Ġìĭ¤":1095,"ì¹´":1096,").":1097,"ĠíĽĦ":1098,"Ġall":1099,"ĠëĪ":1100,"ë¦°":1101,"Ġwas":1102,"ft":1103,"ëģ":1104,"ak":1105,"Ġë°Ľ":1106,"str":1107,"ì¶ľ":1108,"íĺķ":1109,"ire":1110,"ìĽĮ":1111,"ated":1112,"ĠĠĠĠĠĠĠĠĠĠĠĠĠĠĠ":1113,"Ġcomp":1114,"Ġ[":1115,"Â·":1116,"ìĸ´ìĦľ":1117,"ast":1118,"Ġíİ":1119,"}$":1120,"¶Į":1121,"ìłģìĿ¸":1122,"ud":1123,"Ġê³Ħ":1124,"ĠìĽĲ":1125,"to":1126,"Ġì¤":1127,"Ġj":1128,"^{":1129,"ork":1130,"Ġìµľ":1131,"íĿ":1132,"ì¼":1133,"Ġíļ":1134,"ject":1135,"Ġì°¨":1136,"Ġê°Ĳ":1137,"In":1138,"ë´":1139,"ĠëĤ¨":1140,"Ġë§Ľ":1141,"Ġë¬¼":1142,"ìĦ¸ìļĶ":1143,"12":1144,"Ġ+":1145,"The":1146,"Ġë¶Ī":1147,"ĠëĦĪ":1148,"ould":1149,"ë¶ĢíĦ°":1150,"ĠĊ":1151,"ê°ķ":1152,"ëĬĺ":1153,"ê·¼":1154,"ìĦĿ":1155,"ĠëĺĲ":1156,"ì¤Ģ":1157,"ord":1158,"cc":1159,"ãħł":1160,"ens":1161,"Ġk":1162,"ĠìĪ":1163,"Ġê°ķ":1164,"Ġim":1165,"alue":1166,"Ġì¶Ķ":1167,"Ġì¦":1168,"ang":1169,"Ġ//":1170,"ĠU":1171,"ich":1172,"ary":1173,"Ġë°°":1174,"unction":1175,"text":1176,"ical":1177,"Ġab":1178,"ìķ½":1179,"li":1180,"Ġì±":1181,"Ġìŀĳ":1182,"form":1183,"Ġad":1184,"íķĺê¸°":1185,"Ġê±´":1186,"Ġìŀ¬":1187,"Ġíı¬":1188,"Ġë°ĺ":1189,"ps":1190,"Ġreturn":1191,"íĨł":1192,"Ġres":1193,"ĠêµŃ":1194,"ëĸ":1195,"ëĦ¤ìļĶ":1196,"ìłģìľ¼ë¡ľ":1197,"ber":1198,"íķ¨":1199,"Ġëª»":1200,"ĠTh":1201,"íĳľ":1202,"ance":1203,"ì¢ħ":1204,"ëķĮ":1205,"Ġê²°":1206,"ìĦ¤":1207,"ĠêµĲ":1208,"200":1209,"one":1210,"íķľëĭ¤":1211,"->":1212,"íĹĺ":1213,"Ġpl":1214,"íĭ°":1215,"ĠëĳĲ":1216,"ê¸ī":1217,"ence":1218,"Ġìĺ¬":1219,"íĺĦ":1220,"ĠìķĦëĭĪ":1221,"ĢìĿ´":1222,"Ī¬":1223,"íķ©ëĭĪëĭ¤":1224,"ëĿ¼ê³ł":1225,"ì»":1226,"ë³µ":1227,"ser":1228,"ëĵ±":1229,"^^":1230,"Ġìłģ":1231,"ong":1232,"Ġ#":1233,"ĠíĿ":1234,"lic":1235,"ĉĉĉĉ":1236,"Ġnew":1237,"ì¦Ī":1238,"Ġëħ¸":1239,"ë¦¼":1240,"ĠìĤ´":1241,"ìĪł":1242,"ãģ":1243,"ach":1244,"ĠìļĶ":1245,"íĥľ":1246,"ì±":1247,"hen":1248,"ations":1249,"fr":1250,"Ġë°ı":1251,"ĠíĻķ":1252,"Ġ.":1253,"íĤ¤":1254,"ĠíĺĦ":1255,"Ġdo":1256,"Ġëĭ¨":1257,"Ġap":1258,"ëłĩê²Į":1259,"Ġhas":1260,"du":1261,"tring":1262,"11":1263,"´ĳ":1264,"ëĭ¬":1265,"ĠJ":1266,"ĠìŀĪìĬµëĭĪëĭ¤":1267,"ĠìĤ¬ìļ©":1268,"ome":1269,"ìł¸":1270,"ë°°":1271,"}}":1272,"ì¦Ŀ":1273,"Ġíķ¨":1274,"ĠíĶ¼":1275,"Ġne":1276,"::":1277,"ëĤł":1278,"íħĮ":1279,"Ġëģ":1280,"ëĤ¨":1281,"ì£ł":1282,"ëĵ¤ìĿĢ":1283,"cal":1284,"row":1285,"Ġen":1286,"Ġëĵ¤ìĸ´":1287,"fer":1288,"ìĺĪ":1289,"ì½Ķ":1290,"ê¶Į":1291,"30":1292,"ëĭµ":1293,"Ġìļ°ë¦¬":1294,"aram":1295,"Ġì»":1296,"ple":1297,"ĠIn":1298,"ëŀĢ":1299,"Ġ@":1300,"Con":1301,"(\\":1302,"ëŁī":1303,"ĠíķĺëĬĶ":1304,"Ġ</":1305,"ĠìĦ¤":1306,"ther":1307,"ĠëĬĲ":1308,"ĠëķĮë¬¸":1309,"ource":1310,"Ġëĭ¹":1311,"so":1312,"Ġì°¸":1313,"ĠíķĺëĤĺ":1314,"ê²°":1315,"ob":1316,"ëŁ¼":1317,"ta":1318,"ock":1319,"ê¸¸":1320,"ìłĪ":1321,"ĠâĢ":1322,"equ":1323,"ĠK":1324,"Ġëĵľ":1325,"Ġdis":1326,"ize":1327,"Ġme":1328,"ĠV":1329,"Ġì§ĳ":1330,"ress":1331,"ents":1332,"egin":1333,"ì¡±":1334,"set":1335,"ĠíķĦ":1336,"Ġcont":1337,"íĥĿ":1338,"Ġout":1339,"Ġëĭ¬":1340,"../":1341,"ëĦĪ":1342,"Ġwhich":1343,"Ġê²ĥìĿ´":1344,"ild":1345,"ĠëĦĪë¬´":1346,"ll":1347,"elf":1348,"15":1349,"ook":1350,"begin":1351,"ous":1352,"ìľ¡":1353,"ublic":1354,"êµ°":1355,"ake":1356,"ãĢ":1357,"íİĺ":1358,"ĠíĬ¹":1359,"Ġë§İìĿ´":1360,"\",":1361,"Ġìĭ¶":1362,"fig":1363,"íķ©":1364,"Ġar":1365,"íİ¸":1366,"ull":1367,"Ġê²½ìļ°":1368,"ĠëĮĢíķľ":1369,"ëª©":1370,"Ġget":1371,"Ġê³¼":1372,"St":1373,"ĠíĮĮ":1374,"ail":1375,"Ġqu":1376,"ì¶Ķ":1377,"êµ¬ìļĶ":1378,"',":1379,"ëĭ´":1380,"Ġun":1381,"cri":1382,"ĠíĸĪ":1383,"Ġup":1384,"ë¦½":1385,"íķĺì§Ģ":1386,"Ġpr":1387,"Ġso":1388,"ëĨ":1389,"ê¸°ë¥¼":1390,"Ġgo":1391,"ë¡ł":1392,"ĠìķĦìĿ´":1393,"ĠíĻĶ":1394,"ëħ¸":1395,"Ġone":1396,"Ġbut":1397,"ìĺ¨":1398,"'s":1399,"Ġíķĺê³ł":1400,"ory":1401,"ml":1402,"ear":1403,"ìĻ¸":1404,"Ġour":1405,"íĸ¥":1406,"ëł¨":1407,"ìĿ´ëĤĺ":1408,"ual":1409,"Ġì¶ľ":1410,"ë³Ħ":1411,")$":1412,"ë¥ĺ":1413,"Ġê°Ħ":1414,"íĮĲ":1415,"ìĥī":1416,"íķŃ":1417,"ë°ķ":1418,"ree":1419,"Ġâ":1420,"gh":1421,"(\"":1422,"ĠíķĻ":1423,"put":1424,"_{\\":1425,"ĠìĹ´":1426,"very":1427,"own":1428,"ë³´ëĭ¤":1429,"Ġfunction":1430,"();":1431,"te":1432,"ëĵ¤ìĿĺ":1433,"ë¦¬ëĬĶ":1434,"},":1435,"ë¸Į":1436,"000":1437,"ĠíĹ":1438,"****":1439,"ink":1440,"abel":1441,"·¨":1442,"ì§ĢëĬĶ":1443,"íĻĺ":1444,"ĠìĹŃ":1445,"ef":1446,"Ġë¸":1447,"ep":1448,"ck":1449,"Ġmore":1450,"Ġíĸī":1451,"Ġíŀ":1452,"Ġì§ģ":1453,"Ġper":1454,"ī´":1455,"ark":1456,"Ġìĸĳ":1457,"ound":1458,"eth":1459,"ëĵ¤ìĿĦ":1460,"div":1461,"ì´Ī":1462,"ìĹĲëıĦ":1463,"ors":1464,"up":1465,"Ġíķ¨ê»ĺ":1466,"ìĨ¡":1467,"Ġíķľëĭ¤":1468,"ëįĶëĿ¼":1469,"essage":1470,"Ġëĸ":1471,"erv":1472,"Ġsp":1473,"ª½":1474,"Ġev":1475,"Ġë§ŀ":1476,"ia":1477,"íıī":1478,"Ġíİ¸":1479,"ìľ¼ë©´":1480,"ely":1481,"ĠëĲľ":1482,"Ġê³³":1483,"yst":1484,"ions":1485,"ìħĺ":1486,"ìĸµ":1487,"Ġset":1488,"}{":1489,"right":1490,"ĠëĤł":1491,"ount":1492,"Ġì¹´":1493,"Ġê°ĢëĬ¥":1494,"ĠìĥĪ":1495,"ener":1496,"16":1497,"--------":1498,"~~":1499,"Ġìĸ´ëĸ":1500,"ëĪ":1501,"ĠíĶĦ":1502,"ĠëĿ":1503,"ĠìĨĲ":1504,"iew":1505,"ra":1506,"Ġê¹Ģ":1507,"low":1508,"eld":1509,"Ġì¢ĭìķĦ":1510,"Ġë³¸":1511,"ëĿ½":1512,"ĠìłĲ":1513,"Ġë§Įëĵ¤":1514,"ĠíļĮ":1515,"pect":1516,"ray":1517,"Ġì¹ĺ":1518,"Ġìļ´":1519,"Ġì°¾":1520,"cre":1521,"ê¸°ëıĦ":1522,"line":1523,"Ġtheir":1524,"Ġob":1525,"Ġinter":1526,"50":1527,"Ġìĭľê°Ħ":1528,"ove":1529,"Ġtime":1530,"://":1531,"ose":1532,"err":1533,"ëĮĢë¡ľ":1534,"old":1535,"ìĭľëĬĶ":1536,"ê²¨":1537,"Ġê°ĻìĿĢ":1538,"ë³Ģ":1539,"ĵ°":1540,"ĠëıĮ":1541,"ë§Ŀ":1542,"Ġdef":1543,"íķĺë©´":1544,"Ġpart":1545,"ĠíĴ":1546,"Ġ*/":1547,"ĠìĤ°":1548,"ìĹĨ":1549,"Ġíıī":1550,"Ġint":1551,"18":1552,"vers":1553,"oth":1554,"íķĺëĭ¤":1555,"íĶĮ":1556,"eq":1557,"Ġany":1558,"Ķëĭ¤":1559,"tp":1560,"Ġwork":1561,"ield":1562,"Ġì¢ĭìĿĢ":1563,"Ġvar":1564,"Ġíģ¬":1565,"che":1566,"ìĭľê°Ħ":1567,"></":1568,"Ġê±¸":1569,"100":1570,"íĿ¬":1571,"ĠY":1572,"ë©Ķ":1573,"Ġë¦":1574,"frac":1575,"pec":1576,"ĠìĹĲ":1577,"ĠìĻ¸":1578,"Ġì´Ī":1579,"...":1580,"ëħĢ":1581,"Ġëª©":1582,"Ex":1583,"Ġalso":1584,"odel":1585,"ER":1586,"span":1587,"ec":1588,"Ġthey":1589,"Ġman":1590,"vel":1591,"lect":1592,"ry":1593,"ĠëĪĪ":1594,"ĠíĥĢ":1595,"Ġë´":1596,"sum":1597,"Ġ!":1598,"ystem":1599,"14":1600,"lo":1601,"Ġê²Į":1602,"Ġì²ĺ":1603,"íĻ©":1604,"ëĬĲ":1605,"ĠìĿĮ":1606,"ick":1607,"ìľ¼ë©°":1608,"ìĶ¨":1609,"Ġë³Ģ":1610,"Ġìĭľìŀĳ":1611,"Ġì½Ķ":1612,"au":1613,"íĻľ":1614,"ìģ":1615,"ëĭĪê¹Į":1616,"ings":1617,"ĠëķĮë¬¸ìĹĲ":1618,"><":1619,"ëĲĺìĸ´":1620,"íĮħ":1621,"Ġëĭ¤ë¥¸":1622,"we":1623,"ty":1624,"Ġstr":1625,"ìĬ¹":1626,".\"":1627,"Ġname":1628,"Ġë§İìĿĢ":1629,"ĠìľĦíķ´":1630,"oint":1631,"ìħ¨":1632,"irst":1633,"ê¸°ê°Ģ":1634,"Ġìķŀ":1635,"ì½":1636,"Ġìķ½":1637,"ĠìĭĿ":1638,"Ġìĭ¬":1639,"ĠìĤ¬ì§Ħ":1640,"Ġmy":1641,"ĠìĨį":1642,"ë¨¸":1643,"Ġpublic":1644,"Th":1645,"ê¸°ìĹĲ":1646,"13":1647,"ê´ĳ":1648,"Ġpre":1649,"ĉĉĉ":1650,"))":1651,"Ġì¢ħ":1652,"ì§Ģê³ł":1653,"led":1654,"ĠëĶ°ëĿ¼":1655,"ëĿ¼ëĬĶ":1656,"cite":1657,"ë¸Ķ":1658,"ìħĶ":1659,"tain":1660,"ìª½":1661,"ì§ľ":1662,"ix":1663,"Ġê¸Ī":1664,"ìłĳ":1665,"label":1666,"ìĿ´ëĿ¼ê³ł":1667,"Ġì´":1668,"ĠìĻĦ":1669,"ë¶Ī":1670,"ë¨¹":1671,"the":1672,"ë¦¬ë¥¼":1673,"ìŀĪëĬĶ":1674,"Ġli":1675,"ĠĠĠĠĠĠĠĠĠ":1676,"ê¸Ģ":1677,"Ġì¤Ģ":1678,"enc":1679,"ĠëĿ¼":1680,"('":1681,"ëĲĺëĬĶ":1682,"ãħĭ":1683,"Ġ|":1684,"Ġwhen":1685,"Ġì¹ľ":1686,"ĠWe":1687,"oid":1688,"ëıĦë¡Ŀ":1689,"ates":1690,"ĠíĻľ":1691,"ìķĦìļĶ":1692,"app":1693,"Ġíķ©ëĭĪëĭ¤":1694,"ë§ī":1695,"Ġover":1696,"Ġë©Ķ":1697,"ì´":1698,"Ġìłķë§Ĳ":1699,"ìĹĶ":1700,"sh":1701,"ìĺĢëĭ¤":1702,"ĠíķĦìļĶ":1703,"ìĤ´":1704,"====":1705,"Ġcol":1706,"ë°±":1707,"Ġë§ĪìĿĮ":1708,"Ġíĺ¸":1709,"ne":1710,"ĠĠĠĠĠĠĠĠĠĠĠĠĠĠĠĠĠĠĠ":1711,"igh":1712,"ie":1713,"this":1714,"../../":1715,"Ġadd":1716,"Ġë¦¬":1717,"inal":1718,"name":1719,"Ġëªħ":1720,"Ġabout":1721,"ĠëĨĴ":1722,"ê°Ļ":1723,"ì¹¨":1724,"eta":1725,"į¼":1726,"Ġdes":1727,"Ġê¼":1728,"over":1729,"ax":1730,"Ġother":1731,"Pro":1732,"ëł¹":1733,"ìĿ´ëĬĶ":1734,"ìĬ¤íĬ¸":1735,"Ġìĸ¼":1736,"ON":1737,"ìĹĲìĦľëĬĶ":1738,"Ġthere":1739,"ìķĺëĭ¤":1740,"ov":1741,"nder":1742,"ool":1743,"25":1744,"!!!":1745,"Ġì²Ń":1746,"Ġi":1747,"IN":1748,"ëŀľ":1749,"ĠìŀĪìĹĪ":1750,"ĠëĴ":1751,"ĠìłķëıĦ":1752,"erm":1753,"ì²ĺëŁ¼":1754,"ĠThis":1755,"ëł¸":1756,"Ġ_":1757,"Ġì²´":1758,"reat":1759,"pon":1760,"ìĸ¸":1761,"ì¸µ":1762,"Ġíŀĺ":1763,"mathb":1764,"Ġì¦Ŀ":1765,"ì³":1766,"Ġë°Ķë¡ľ":1767,"rap":1768,"cess":1769,"Ġê°Ģìŀ¥":1770,"umber":1771,"Ġë¡":1772,"ìĿ¸ëį°":1773,"pr":1774,"left":1775,"trib":1776,"Ġro":1777,"ĠëĪĦ":1778,"ange":1779,"ator":1780,"17":1781,"Name":1782,"Ġê·¼":1783,"Ġíĳľ":1784,"ĠìŀĲìĭł":1785,"Ġê°ģ":1786,"Ġê·¸ëŁ°":1787,"ays":1788,"ê³³":1789,"ëıħ":1790,"ë³ĳ":1791,"ë¦¬ê°Ģ":1792,"ì±ħ":1793,"key":1794,"Ġsome":1795,"ì¶ķ":1796,"ëŁ½":1797,"ict":1798,"wo":1799,"Ġvalue":1800,"íĪ¬":1801,"Ġëį°":1802,"Ġë²Ħ":1803,"ĠëŃ":1804,"ĠìĿ´ìĥģ":1805,"Ġuse":1806,"ëĵĿ":1807,"ìĿ´ê³ł":1808,"rm":1809,"ĠëĦĺ":1810,"âĸ":1811,"Ġdata":1812,"ĠIt":1813,"Ġtype":1814,"html":1815,"ĠíĮĲ":1816,"ss":1817,"ëī´":1818,"ics":1819,"ìķĦìĦľ":1820,"ê¹Ģ":1821,"ì¡Į":1822,"ê±¸":1823,"Ġê²ĥìĿ´ëĭ¤":1824,"$.":1825,"$,":1826,"ĠëĬĲëĤ":1827,"íķĺë©°":1828,"***-":1829,",\\":1830,"param":1831,"Ġneed":1832,"tribut":1833,"ì°©":1834,"atch":1835,"ĠíĪ¬":1836,"ĠìĹĦ":1837,"of":1838,"ĠìĪľ":1839,"ì§¸":1840,"lement":1841,"ê±°ëĤĺ":1842,"Ġìĸ¸":1843,"ethod":1844,"ë§Ľ":1845,"ì°½":1846,"uct":1847,"ient":1848,"Ġë²Ī":1849,"ug":1850,"Type":1851,"ram":1852,"Ġ)":1853,"ë¦´":1854,"Ġte":1855,"ëĭµëĭĪëĭ¤":1856,"ìķħ":1857,"Ġìī":1858,"ĠíķľêµŃ":1859,"ĠëĶĶ":1860,"ê¸´":1861,"ĠSt":1862,"Ġì¤Ħ":1863,"Ġhref":1864,"Ġì¢Ģ":1865,"ê·¸ëŀĺ":1866,"les":1867,"Ġëĭ´":1868,"source":1869,"ìķł":1870,"Ġthan":1871,"Ġì§Ħíĸī":1872,"pos":1873,"ìĪľ":1874,"mb":1875,"40":1876,"ĠíĨµíķ´":1877,"ìĽĢ":1878,"ĠìĹĨëĬĶ":1879,"})":1880,"Ġacc":1881,"Ġëĭ¤ìĭľ":1882,"ìĺ¬":1883,"Ġê¸¸":1884,"ê°ĢëĬĶ":1885,"ific":1886,"ãħłãħł":1887,"Ġëł":1888,"ëĥ¥":1889,"Ġê·¸ë¦¬ê³ł":1890,"lation":1891,"ì¹ľ":1892,"ular":1893,"ĠCh":1894,"round":1895,"Ġrequ":1896,"ê¸°ëĬĶ":1897,"ise":1898,"Ġbeen":1899,"message":1900,"Ġê²ĥìĿĦ":1901,"import":1902,"tern":1903,"ìĿ´íĬ¸":1904,"Ġag":1905,"Ġonly":1906,"equation":1907,"trans":1908,"Ġresult":1909,"ish":1910,"Ġìĺ¨":1911,"Ġì±ħ":1912,"Ġits":1913,"}.":1914,"Ġê²ĥìĿĢ":1915,"ĠíĻĺ":1916,"Ġprov":1917,"mathcal":1918,"ìĭľë©´":1919,"ê°Ī":1920,"Ġìĵ°":1921,"ìĥĪ":1922,"RE":1923,"Ġë³¼":1924,"Ġëª¨ìĬµ":1925,"Ġfe":1926,"ĠìĿ´ìļ©":1927,"ëĵ¯":1928,"ì°°":1929,"Ġì»¤":1930,"Ġno":1931,"Ġdif":1932,"col":1933,"return":1934,"ST":1935,"íķ´ìķ¼":1936,"arg":1937,"į¨":1938,"ĠìłľíĴĪ":1939,"Ġthem":1940,"Ġë¬¸ìłľ":1941,"String":1942,"ater":1943,"dd":1944,"Ġkn":1945,"roup":1946,"ëįĶëĿ¼êµ¬ìļĶ":1947,"ĠìķĦëĭ":1948,"Ġwho":1949,"ĠëģĿ":1950,"ë¶ģ":1951,"ë°Ľ":1952,"Ġcomm":1953,"vent":1954,"alse":1955,"ys":1956,"ê·¸ë¦¬ê³ł":1957,"âĶ":1958,"ally":1959,"¾¸":1960,"ox":1961,"def":1962,"Ġíģ°":1963,"Ġbu":1964,"Ġëª¨ëĳĲ":1965,"ìĿ´ìĹĲ":1966,"eng":1967,"Ġë°ķ":1968,"urre":1969,"Id":1970,"td":1971,"Ġ,":1972,"var":1973,"atic":1974,"ning":1975,"Ġê²Ģ":1976,"ëĭ¤ê°Ģ":1977,"io":1978,"Ġinto":1979,"24":1980,"Ġline":1981,"ied":1982,"ache":1983,"Ġyear":1984,"ices":1985,"Ġíħ":1986,"ľ´":1987,"ìķ¡":1988,"ëĬĶëį°ìļĶ":1989,"Ġ>":1990,"ìĿ´ì§Ģ":1991,"Â·Â·":1992,"ì¸ł":1993,"Ġform":1994,"Ġê²ĥìľ¼ë¡ľ":1995,"code":1996,"Ġì±Ħ":1997,"ĠìŀĪìĸ´":1998,"ê°Ģì§Ģ":1999,"ëłĪìĿ´":2000,"ì»¤":2001,"202":2002,"ĠíĨł":2003,"co":2004,"Ġpos":2005,"Ġë¹ł":2006,"Ġreg":2007,"Ġbl":2008,"Ġ=>":2009,"Ġmay":2010,"ĠìŀĦ":2011,"½ĥ":2012,"ë²ł":2013,"ĠëĴ¤":2014,"Ġíĺķ":2015,"ëĥĲ":2016,"imes":2017,"įëĭĪëĭ¤":2018,"Ġì£":2019,"ĠìŀĪìĿĦ":2020,"ëĳ":2021,"ont":2022,"rit":2023,"anc":2024,"ìŀĲê°Ģ":2025,"der":2026,"ìĹ´":2027,"}(":2028,"Ġbet":2029,"Ġfirst":2030,"ìī":2031,"Ġì¡":2032,"ility":2033,"Ġê·¸ëŁ¬":2034,"ible":2035,"Ġsub":2036,"ious":2037,"ìĺ¤ëĬĺ":2038,"Ġì·¨":2039,"als":2040,"Ġtwo":2041,"ĠëĲł":2042,"idth":2043,"cript":2044,"AT":2045,"fter":2046,"plic":2047,"??":2048,"Ġoff":2049,"ĠìĤ¬ëŀĳ":2050,"clud":2051,"ble":2052,"ĠìķĬëĬĶ":2053,"ê²¬":2054,"Ġíĸ¥":2055,"ues":2056,"Ġì¶©":2057,"cent":2058,"Ġself":2059,"iss":2060,"ian":2061,"Ġë³µ":2062,"Ġlike":2063,"__":2064,"sub":2065,"ng":2066,"ì³Ĳ":2067,"ìľ¼ëĭĪ":2068,"Ġìº":2069,"aw":2070,"Ġwould":2071,"Ġel":2072,"ĠìĿ´ëłĩê²Į":2073,"ãĤ":2074,"ëĭ¤ë©´":2075,"ative":2076,"}^":2077,"Ġ`":2078,"ating":2079,"ì±Ħ":2080,"Ġëª¨ëĵł":2081,"čĊčĊ":2082,"Ġìķł":2083,"Ġì°į":2084,"Ġtrans":2085,"ìľ¨":2086,"Ġph":2087,"amb":2088,"pha":2089,"ë´ī":2090,"ìĻĶ":2091,"ê°Ŀ":2092,"##":2093,"ëģ¼":2094,"Ġconst":2095,"Ġë¸Ķ":2096,"let":2097,"fo":2098,"Ġë²ķ":2099,"Ġend":2100,"ëĤĺëĬĶ":2101,"/>":2102,"Ģë¡ľ":2103,"íģ¼":2104,"íķ´ì£¼":2105,"Ġwere":2106,"Ġwhere":2107,"Ġê·¸ëŀĺ":2108,"read":2109,"raph":2110,"~\\":2111,"Com":2112,"Ġê°Ī":2113,"ì¿":2114,"ì¡´":2115,"ë¡ľê·¸":2116,"ĠìĿ´ëŁ°":2117,"ĠíĻķìĿ¸":2118,"ìĿµ":2119,"ìĤ¬ë¥¼":2120,"Ġhow":2121,"Ġthen":2122,"ĠëĬĲëĤĮ":2123,"}_":2124,"ade":2125,"Ġë³´ê³ł":2126,"Ġíļ¨":2127,"íĬ¹":2128,"ons":2129,"ìµľ":2130,"Ġid":2131,"ĠëĦ£":2132,"Ġhis":2133,"íļį":2134,"da":2135,"Ġìŀ¡":2136,"Ġx":2137,"Res":2138,"To":2139,"http":2140,"its":2141,"âĢ¦":2142,"22":2143,"ìĭľê³ł":2144,"ures":2145,"Ġì§Ģê¸Ī":2146,"Ġë¡ľ":2147,"ì§Ģë¥¼":2148,"ault":2149,"ĠëłĪ":2150,"Ġback":2151,"âĢĿ":2152,"We":2153,"ĠìĤ¼":2154,"ĠëĦ¤":2155,"type":2156,"ception":2157,"hat":2158,"ĠíĸĪëĭ¤":2159,"ider":2160,"ĠìķĦëĭĪëĿ¼":2161,"Ġwhat":2162,"ert":2163,"ðŁ":2164,"Ġëĭ¤ìĸĳ":2165,"Ġpe":2166,"Ġinst":2167,"Ġì¤Ģë¹Ħ":2168,"Ġsim":2169,"ollow":2170,"alpha":2171,"ĠìĹħ":2172,"Ġspec":2173,"Ġcre":2174,"yn":2175,"Ġthese":2176,"ëĺĲ":2177,"ĠìĹ¬ëŁ¬":2178,"Ġsup":2179,"val":2180,"Ġì¦Ĳ":2181,"Ġìļ©":2182,"ting":2183,"ë³¼":2184,"Ġsuch":2185,"add":2186,"Ġjust":2187,"ë§ĮìĽĲ":2188,"ĠìłĪ":2189,"class":2190,"ìĿ´ëĿ¼ëĬĶ":2191,"íķĻêµĲ":2192,"rough":2193,"Ġì²ľ":2194,"ities":2195,"ash":2196,"Ġì§Ī":2197,"ery":2198,"Ġunder":2199,"arch":2200,"Ġë¿":2201,"Ġê·Ģ":2202,"ê·¹":2203,"ĠìľĦíķľ":2204,"ĠëĤ´ê°Ģ":2205,"oy":2206,"\"/>":2207,"ĠëĤĺìĺ¤":2208,"urrent":2209,"Ġìłĳ":2210,"Ġì§ĢëĤľ":2211,"bl":2212,"Ġì¡°ê¸Ī":2213,"ead":2214,"LE":2215,"Ġloc":2216,"íķĺë©´ìĦľ":2217,"íĺ¼":2218,"Ġdiffer":2219,"¶ģ":2220,"Ġprodu":2221,"íį¼":2222,"ìĿ´ìĹĪ":2223,"Ġë²ł":2224,"ëĵ¤ìĹĲê²Į":2225,"Ġmake":2226,"Ġop":2227,"Ġê´ĳ":2228,"ì¦ĺ":2229,"ause":2230,"Ġê°ĻìĿ´":2231,"íķĺìĦ¸ìļĶ":2232,"ĠìŀĪìĸ´ìĦľ":2233,"Ġrel":2234,"Ġserv":2235,"ĠìŀĪê³ł":2236,"ner":2237,"Ġval":2238,"ĠìĿ´ìķ¼":2239,"OR":2240,"Ġë°©ë²ķ":2241,"Ġìĺ¤ëĬĺ":2242,"Ġcons":2243,"Ġam":2244,"Ġ==":2245,"60":2246,"ìĦ¼":2247,"not":2248,"Ġíĥľ":2249,"ê¼":2250,"íķĺì§Ģë§Į":2251,"Ġact":2252,"íĺĢ":2253,"Ġëĭ¤ìĿĮ":2254,"pend":2255,"ëľ":2256,"Ġused":2257,"Ġëĳ":2258,"olut":2259,"Ġë¶Ģë¶Ħ":2260,"ë§ģ":2261,"Ġëľ":2262,"Ġhigh":2263,"Ġind":2264,"ĠëĲĺìĸ´":2265,"ëħĲ":2266,"ptions":2267,"bar":2268,"23":2269,"lp":2270,"Ġë¨¸":2271,"List":2272,"AR":2273,"ì°¬":2274,"fore":2275,"ìŀĲëĬĶ":2276,"âĳ":2277,"elta":2278,"ments":2279,"Ġerr":2280,"Ġrem":2281,"ĠíķŃ":2282,"air":2283,"íĻķ":2284,"translation":2285,"ê·ľ":2286,"ìĿ´ê°Ģ":2287,"Ġnull":2288,"resent":2289,"Ġì°½":2290,"ages":2291,"ê²łìĬµëĭĪëĭ¤":2292,"Ġìŀł":2293,"ì²ł":2294,"Ġcase":2295,"ased":2296,"ì¤Ħ":2297,"Ġwell":2298,"ë¹ł":2299,"Ġsm":2300,"ì¼Ģ":2301,"Ġshould":2302,"Ġmost":2303,"Ġshow":2304,"ames":2305,"21":2306,"oun":2307,"ìļ±":2308,"ude":2309,"Ġmodel":2310,"ëĪĦ":2311,"Ġfollow":2312,"íı°":2313,"ambda":2314,"Ġent":2315,")\\":2316,"Ġë§ī":2317,"Ġgener":2318,"Ġëıħ":2319,"ë°¥":2320,"ful":2321,"self":2322,"Ġì¤ĳìļĶ":2323,"ĠìŀĪìĸ´ìļĶ":2324,"Ch":2325,"ë¡Ģ":2326,"Ġhad":2327,"Ġë°±":2328,"Ġsee":2329,"Ġë§Įëĵ¤ìĸ´":2330,"Ġëª¸":2331,"Ġë§ĽìŀĪ":2332,"ined":2333,"Ġeach":2334,"Ġthrough":2335,"Ġë³Ħ":2336,"ĠìĤ¬ìĭ¤":2337,"formation":2338,"Ġë¯¼":2339,"Ġco":2340,"ĠëĤľ":2341,"ë¹ĦìĬ¤":2342,"êµ´":2343,"Ġê°Ģê²©":2344,"item":2345,"¨ìĸ´":2346,"ìĸ¼":2347,"ëł¤ê³ł":2348,"Ġtest":2349,"ĠìĻĢ":2350,"âĺ":2351,"ìŀ¥ìĿĦ":2352,"Ġë¸Į":2353,"ĠâĢľ":2354,"Ġcor":2355,"ĠIf":2356,"yle":2357,"íķĦ":2358,"):":2359,"ì¼ľ":2360,"Ġë°Ŀ":2361,"ivate":2362,"Ġvoid":2363,"Ġê´Ģëł¨":2364,"ìŁ":2365,"ĠìķĬê³ł":2366,"íĮ¨":2367,"ë¡ľìļ´":2368,"ì°¸":2369,"ask":2370,"Ġsystem":2371,"Ġ~":2372,"Ġeff":2373,"min":2374,"EN":2375,"ìĦ±ìĿĦ":2376,"ë³´ê³ł":2377,"irect":2378,"Ġevery":2379,"Ġíķ©":2380,"ho":2381,"ots":2382,"32":2383,"ĠíĹĪ":2384,"ìĨĲ":2385,"ature":2386,"ID":2387,"ĠëĲĺëĬĶ":2388,"$\\":2389,"loc":2390,"ĠíĤ":2391,"pre":2392,"ower":2393,"íķĳ":2394,"Ġì´Ŀ":2395,"Ġorg":2396,"Ġsc":2397,"íģ´":2398,"ĠìĿ´ìľł":2399,"ength":2400,"Ġ--":2401,"ĠìĦľìļ¸":2402,"Ġì¹ľêµ¬":2403,"ank":2404,"ê³¡":2405,"Ġdet":2406,"ëĵ¤ëıĦ":2407,"Ġtrue":2408,"'t":2409,"back":2410,"Ġì°¾ìķĦ":2411,"ule":2412,"ton":2413,"ìĿĳ":2414,"ms":2415,"ĠëĤ´ìļ©":2416,"Ġê¸Ģ":2417,"Ĳëĭ¤":2418,"Ġëª¨ë¥´":2419,"Cl":2420,"ĠëĮĢíķ´":2421,"ĠëıĮìķĦ":2422,"ople":2423,"cond":2424,"://***":2425,"ument":2426,"ctions":2427,"ample":2428,"íĥĦ":2429,"und":2430,"Ġê·ľ":2431,"Ġnumber":2432,"Ġìķ¼":2433,"ëĲł":2434,"Ġusing":2435,"AL":2436,"ëĵ¤ê³¼":2437,"Ġì½":2438,"ìķĦìĿ´":2439,"ì£¼ëĬĶ":2440,"ìŀĲìĿĺ":2441,"ĳ¸":2442,"ĠëĤĺíĥĢ":2443,"ough":2444,"Ġì²ĺìĿĮ":2445,"ìĦ±ìĿ´":2446,"amma":2447,"par":2448,"ì·¨":2449,"Ġíĭ":2450,"Ġìĸ´ëĸ¤":2451,"Ġknow":2452,"ìłķìĿĦ":2453,"ë¦Ń":2454,"rr":2455,"ìĿ¸ìĿ´":2456,"ëĿ¼ìĿ´":2457,"Ġstart":2458,"íĥģ":2459,"itle":2460,"ts":2461,"Ġíķľë²Ī":2462,"perty":2463,"ìĶ©":2464,"ily":2465,"ê¸°ë¡ľ":2466,"ë¦¬ìĬ¤":2467,"Ġlook":2468,"Ġexper":2469,"ìĤ¼":2470,"Ġem":2471,"ĠìķĦëĭĮ":2472,"Ġstud":2473,"Ġac":2474,"Ġì£½":2475,"Ġíģ´":2476,"ĊĊĊ":2477,"ized":2478,"ĠPro":2479,"ëıĮ":2480,"Ġbr":2481,"heck":2482,"ê³¨":2483,"Ġgiv":2484,"hed":2485,"ìĹ¼":2486,"SS":2487,"view":2488,"ìķĮ":2489,"olog":2490,"_\\":2491,"ìĥģìĿĦ":2492,"»ê²Į":2493,"ĠìŀħëĭĪëĭ¤":2494,"ìĹĨìĿ´":2495,"Ġíķĺì§Ģë§Į":2496,"Ġgr":2497,"Ġequ":2498,"mu":2499,"ëĲľëĭ¤":2500,"=\\":2501,"ãħİ":2502,"ìĹĪìĬµëĭĪëĭ¤":2503,"));":2504,"ì§ĢëıĦ":2505,"ĠĠĠĠĠĠĠĠĠĠĠĠĠĠĠĠĠĠĠĠĠĠĠĠĠĠĠĠĠĠĠĠ":2506,"Ġsa":2507,"ĠíĮ¨":2508,"ìŁģ":2509,"ìº":2510,"ëĲĺê³ł":2511,"ëĤ¬":2512,";;":2513,"28":2514,"ĠíħĮ":2515,"Ġ\\\\":2516,"íħĶ":2517,"Ġìłķë³´":2518,"Ġhelp":2519,"ìŀ¥ìĿ´":2520,"Ġfl":2521,"Ġelse":2522,"ĠëĨĢ":2523,"ì§ķ":2524,"for":2525,"Ġê¼Ń":2526,"bject":2527,"ëģĶ":2528,"ìĬ¤íĥĢ":2529,"ier":2530,"Ġfalse":2531,"ìį¨":2532,"ody":2533,"27":2534,"yp":2535,"It":2536,"ĠìĹ°êµ¬":2537,"ĠìĦłíĥĿ":2538,"ëł¥ìĿĦ":2539,"ĠíĬ¸":2540,"Ar":2541,"Ġê°ĸ":2542,"sert":2543,"\"><":2544,"pi":2545,"ëŀ¨":2546,"ëħķ":2547,"ĠìĥģíĻ©":2548,"ince":2549,"----------------":2550,"ìĤ¬ì§Ħ":2551,"Ġfind":2552,"ĠíĽ":2553,"Ġmin":2554,"string":2555,"mathbb":2556,"Ġëĸł":2557,"Ġinv":2558,"Ġlist":2559,"Ġì§ĢìĹŃ":2560,"Ġì¶Ķì²ľ":2561,"199":2562,"ì¢ĭ":2563,"ìģĺ":2564,"ĠìŀĪìĹĪëĭ¤":2565,"Ġher":2566,"ween":2567,"Tr":2568,"ìĹĦ":2569,"íķ´ìļĶ":2570,"Ġvery":2571,"ë²Ķ":2572,"Ġëĭ¤ìĸĳíķľ":2573,"press":2574,"Ġwant":2575,"igma":2576,"íĸĪëįĺ":2577,"ìłķëıĦ":2578,"be":2579,"ĠX":2580,"âĹ":2581,"Ġread":2582,"ì§Ŀ":2583,"Ġaut":2584,"wh":2585,"ĠĠĠĠĠĠĠĠĠĠĠĠĠ":2586,"ĠìłĦë¬¸":2587,"Ġê´":2588,"ĠìĿ´ë²Ī":2589,"Ġê³¨":2590,"ĠëŃĲ":2591,"br":2592,"ational":2593,"ĠëĤĺëĬĶ":2594,"Ġpeople":2595,"íħľ":2596,"}^{":2597,"ĠìĶ":2598,"Ġrec":2599,"ê²Ģ":2600,"ë´Ĳ":2601,"wn":2602,"ĠìĻľ":2603,"}_{":2604,"ëĨĵ":2605,"ì¶©":2606,"âĶĢ":2607,"ë²Į":2608,"uch":2609,"íĥķ":2610,"Ġright":2611,"Ġstring":2612,"data":2613,"ä¸":2614,"ĠíĤ¤":2615,"sc":2616,"Ġpoint":2617,"ëŀľëĵľ":2618,"********":2619,"Ġë©´":2620,"26":2621,"ëŀįëĭĪëĭ¤":2622,"ìĹĲìĦľëıĦ":2623,"Ġdifferent":2624,"ë°Ģ":2625,"ëłĮ":2626,"any":2627,"ë¦¬ìĹĲ":2628,"Ġê°ĻìķĦìļĶ":2629,"Ġë³´ìĹ¬":2630,"ê·¸ëŁ¬":2631,"aramet":2632,"arget":2633,"////":2634,"ĠëĬĺ":2635,"Ġê·¸ëĥ¥":2636,"80":2637,"ë¶Ģë¶Ħ":2638,"ward":2639,"Ġëĥ":2640,"part":2641,"ìļ°ë¦¬":2642,"ë¥ł":2643,"ĠìĿ½":2644,"ĠìĿĢ":2645,"íĻĶë¥¼":2646,"ìĹĪëĬĶëį°":2647,"work":2648,"ĠYou":2649,"Ġëªĩ":2650,"day":2651,"ë³´ëĭĪ":2652,"ĠìĹĨëĭ¤":2653,"Ġë¯¸êµŃ":2654,"Ġê²°ê³¼":2655,"lean":2656,"ĠìĦ¤ëªħ":2657,"Ġì§ĢìĽĲ":2658,"ets":2659,"ega":2660,"ĠâĢĵ":2661,"ìĿ¸ì§Ģ":2662,"º¼":2663,"Ġmethod":2664,"-\\":2665,"ìĹĩ":2666,"Data":2667,"Value":2668,"ĠêµĲìľ¡":2669,"amp":2670,"Ġchar":2671,"Ġwor":2672,"ĠQ":2673,"ĩ¼":2674,"¼ìłĢ":2675,"ĠCom":2676,"ìĭŃ":2677,"íĬ¼":2678,"IT":2679,"ãħľ":2680,"ĠìĤ¬íļĮ":2681,"AN":2682,"Ġlong":2683,"ream":2684,"ĠFor":2685,"Ġmany":2686,"ë²½":2687,"ìĭĿìĿĦ":2688,"ĠìĿ´ë¯¸":2689,"ĠíĦ":2690,"Ġmod":2691,"ĠëĲľëĭ¤":2692,"ym":2693,"Ġstate":2694,"ĠëĲ©ëĭĪëĭ¤":2695,"Ġafter":2696,"ĠìĤ¬ìĿ´":2697,"ê²łëĭ¤":2698,"Ġnow":2699,"Ġì§Ħì§ľ":2700,"ĠìĦ¸ê³Ħ":2701,"Ġhand":2702,"ìłľê°Ģ":2703,"ĠëĺĲëĬĶ":2704,"Ġbec":2705,"CT":2706,"Ġêµ¬ë§¤":2707,"vert":2708,"Ġbetween":2709,"ëĶ©":2710,"ĠìľĦì¹ĺ":2711,"\");":2712,"new":2713,"ìĸ´ëĤĺ":2714,"ustom":2715,"íĤ¨":2716,"ë¿":2717,"section":2718,"29":2719,"Ġ^^":2720,"ìķĶ":2721,"Ġì²«":2722,"ãĥ":2723,"Ġë³ĳ":2724,"ê¾¸":2725,"ote":2726,"Ġê³ĦìĨį":2727,"ever":2728,"ĠëĨĵ":2729,"ĠìĿ´ìłľ":2730,"Ġë¨¹ê³ł":2731,"Ġfil":2732,"Ġì§ģìłĳ":2733,"Ġway":2734,"ĠUn":2735,"log":2736,"Ġass":2737,"ĠĠĠĠĠĠ":2738,"ĠíĶĮ":2739,"Ġav":2740,"ization":2741,"Ġìłľê³µ":2742,"ee":2743,"ìŀĲìĿ¸":2744,"ines":2745,"velop":2746,"ood":2747,"^{\\":2748,"ĠìĹ¬íĸī":2749,"value":2750,"clude":2751,"ëįķ":2752,"ĠìĹĨìĿ´":2753,"ĠìķĦë¬´":2754,"phi":2755,"ey":2756,"ric":2757,"ê·ł":2758,"ava":2759,"Ġì¼":2760,"date":2761,"ê·¸ëŀĺìĦľ":2762,"Ġëĵ¯":2763,"Ġ/**":2764,"son":2765,"Ġì¡´":2766,"Col":2767,"aut":2768,"Ġprocess":2769,"Ġëĳĺ":2770,"·°":2771,"ĠìĤ¬ìĹħ":2772,"Ġcould":2773,"SE":2774,"ê·Ģ":2775,"comm":2776,"ĠìķĦì£¼":2777,"ĠAs":2778,"lambda":2779,"ëĭĺìĿĺ":2780,"iness":2781,"serv":2782,"ality":2783,"Ġê¶Į":2784,"This":2785,"ĠìķĬìĿĢ":2786,"Ġdoes":2787,"ced":2788,"Ġinformation":2789,"Ġëª°":2790,"Ġsame":2791,"ë¦½ëĭĪëĭ¤":2792,"Ġìĺ¬ëĿ¼":2793,"ìŀ¡":2794,"Ġeven":2795,"Ġê¿":2796,"Ġ&&":2797,"Ġíĺ¼":2798,"íĮĮíĬ¸":2799,"ìĽł":2800,"ìłĦìĹĲ":2801,"ĠĠĠĠĠĠĠĠĠĠĠĠĠĠĠĠĠĠĠĠĠĠĠ":2802,"ì§Ģë§ī":2803,"ëįĶëĭĪ":2804,"Ġìĥģíĥľ":2805,"ired":2806,"Ġsign":2807,"ìŀ¥ìĿĢ":2808,"bf":2809,"Ġìī½":2810,"Ġfinal":2811,"arent":2812,"nb":2813,"Ġë°ľìĥĿ":2814,"Ġíķĺë£¨":2815,"ë´¤":2816,"ìī¬":2817,"Ġë³´ë©´":2818,"Ġfield":2819,"Ġìĸ´ëĸ»ê²Į":2820,"rol":2821,"Ġinclud":2822,"Ġgood":2823,"apt":2824,"ann":2825,"Ġ{\\":2826,"erg":2827,"ify":2828,"Ġcal":2829,"Ġ?":2830,"org":2831,"Ġìĥī":2832,"ìĻķ":2833,"ĠìĨĮê°ľ":2834,"ential":2835,"ĠìķĮìķĦ":2836,"ĠCon":2837,"Ġext":2838,"ìĿ´ë©°":2839,"Ġëķ":2840,"ìĬ¬":2841,"íļ¨":2842,"íĥĪ":2843,"ĠëĺĲíķľ":2844,"til":2845,"Ġpol":2846,"ìĿ´ìĸ´":2847,"As":2848,"red":2849,"lection":2850,"erson":2851,"uring":2852,"ê¹ĮìļĶ":2853,"Set":2854,"ĠìĿ´íĽĦ":2855,"uild":2856,"play":2857,"ĠìĿ´ìĸ´":2858,"ember":2859,"âĻ":2860,"array":2861,"***-***-":2862,"Re":2863,"ìļĶìĿ¼":2864,"Ġë²Į":2865,"Ġappro":2866,"Ġê´Ģê³Ħ":2867,"itt":2868,"ìĪĻ":2869,"ĠìĹŃìĭľ":2870,"ë§Īëĭ¤":2871,"aking":2872,"')":2873,"ĠìĿ´ë¦Ħ":2874,"ĠìķĮëł¤":2875,"ìŀĲë¥¼":2876,"ìĹĪìĸ´ìļĶ":2877,"oad":2878,"ìĬ¤ë¥¼":2879,"ìģľ":2880,"ement":2881,"face":2882,"Ġì¤ĳêµŃ":2883,"ĠíĴį":2884,"Ġht":2885,"Ġshe":2886,"ĠìĬ¹":2887,"ë²¤":2888,"indow":2889,"70":2890,"ĠEx":2891,"Ġê¹¨":2892,"Ġrep":2893,"Ġobject":2894,"ê»ĺìĦľ":2895,"version":2896,"Ġcall":2897,"ĠíĶ¼ë¶Ģ":2898,"ï¼":2899,"Ġkey":2900,"Ġë°ĽìķĦ":2901,"her":2902,"ically":2903,"other":2904,"width":2905,"];":2906,"Ġê±´ê°ķ":2907,"ww":2908,"íĸĪìĬµëĭĪëĭ¤":2909,"Ġser":2910,"íķĺìĺĢ":2911,"Ġì£¼ë¬¸":2912,"ìĹĪëįĺ":2913,"Ġoper":2914,"ĠëıĪ":2915,"ars":2916,"Ġorder":2917,"ife":2918,"align":2919,"ì°®":2920,"ì§Ģê°Ģ":2921,"Ġê¸°ëĮĢ":2922,"DE":2923,"Ġíļ¨ê³¼":2924,"ìĤ¬ê°Ģ":2925,"ìĬ¨":2926,"ek":2927,"Ġë°©ë¬¸":2928,"Ġdec":2929,"Ġìµľê³ł":2930,"Ġì§ĢëĤĺ":2931,"ëĶ°":2932,"action":2933,"Ġìłľê°Ģ":2934,"Ġgreat":2935,"ccess":2936,"ìĪĺê°Ģ":2937,"ĠìĿ¼ë³¸":2938,"ĠìĺģíĻĶ":2939,"ience":2940,"try":2941,"Ġimport":2942,"ìĬ¤íģ¬":2943,"Ġíķ´ìĦľ":2944,"ëĿ¼ìĿ¸":2945,"íĹĪ":2946,"***-***-***":2947,"Ġbest":2948,"ì¿ł":2949,"ëĭĺìĿ´":2950,"mer":2951,"ĠìŀĪëĬĶëį°":2952,"file":2953,"Ġbecause":2954,"íĴį":2955,"px":2956,"ìĿ´ìĹĲìļĶ":2957,"ìĻĦ":2958,"Ġìļ¸":2959,"ìķĻ":2960,"Exception":2961,"íķ´ë³´":2962,"Ġed":2963,"For":2964,"ited":2965,"Ġbus":2966,"Ġsur":2967,"ĠìķĬìķĺ":2968,"($":2969,"Ġbel":2970,"íķĺëĤĺ":2971,"nbsp":2972,"Ġwhile":2973,"Ġatt":2974,"========":2975,"âĶĢâĶĢ":2976,"ìĶĢ":2977,"En":2978,"Ġíľ´":2979,"ins":2980,"ĠëĮĢíĳľ":2981,"ëĭ¥":2982,"ĠíĺĦìŀ¬":2983,"umn":2984,"ĠìĹ¬ê¸°":2985,"ìĿ´ìĹĪëĭ¤":2986,"90":2987,"Ġdown":2988,"cm":2989,"rror":2990,"ìĿ´ë²Ī":2991,"Ġê°Ģì§Ģê³ł":2992,"\")":2993,"500":2994,"ten":2995,"ĠíĮĲë§¤":2996,"Ġë¶ģ":2997,"íĺĳ":2998,"êµĲìľ¡":2999,"Ġëĵ±ìĿĦ":3000,"?\"":3001,"ë¯Ģë¡ľ":3002,"ìĿ¸ê°Ģ":3003,"Ġvis":3004,"mathbf":3005,"At":3006,"Ġ%":3007,"ĠíĻį":3008,"ified":3009,"ĠHe":3010,"33":3011,"gram":3012,"Ġsupport":3013,"load":3014,"],":3015,"Ġmat":3016,"ilon":3017,"ìķĪëħķ":3018,"Ġìĸ¼ë§Ī":3019,"Ġhere":3020,"Object":3021,"Ġå":3022,"psilon":3023,"Ġêµ°":3024,"cd":3025,"cont":3026,"ê°ĻìĿĢ":3027,"Ġì¸":3028,"ì£¼ìĿĺ":3029,"Ġëĵ¤ìĸ´ê°Ģ":3030,"íĽ":3031,"cept":3032,"Ġz":3033,"ĠíĴĢ":3034,"ì¸¡":3035,"atus":3036,"ĠìĿĺë¯¸":3037,"me":3038,"ë¶ĦìĿ´":3039,"net":3040,"inter":3041,"ëıĻìķĪ":3042,"ì°Į":3043,"ìĥģìĿ´":3044,"Ġrun":3045,"Ġíķ´ìķ¼":3046,"ì§ĢìļĶ":3047,"Ġê°ľìĿ¸":3048,"ĠìĽĶ":3049,"requ":3050,"ì¹ĺëĬĶ":3051,"ession":3052,"\\\\":3053,"Ġê¸ī":3054,"Ġ///":3055,"Ġcurrent":3056,"Ġstatic":3057,"ë§İ":3058,"Ġprivate":3059,"ãħĭãħĭ":3060,"Ġpartic":3061,"ĠìŀĪëĭ¤ëĬĶ":3062,"ok":3063,"Ġtop":3064,"Ġdesign":3065,"Ġgl":3066,"uff":3067,"Ġyears":3068,"Ġbefore":3069,"ĠìĤ¬ëŀĮìĿ´":3070,"ces":3071,"ev":3072,"ply":3073,"Ġ!=":3074,"ateg":3075,"Ġboth":3076,"Ġë¯¿":3077,"ìĬ¤ëŁ¬":3078,"ĸìĹĲ":3079,"ĠTr":3080,"._":3081,"ĠìĪĺëıĦ":3082,"Ġplay":3083,"struct":3084,"ĠëĶ±":3085,"ìħĶìĦľ":3086,"Ġprovid":3087,"íķĺìĭľ":3088,"ger":3089,"ëł¥ìĿ´":3090,"ĠëįĶìļ±":3091,"Ġmon":3092,"size":3093,"ĠëĨį":3094,"Ġmark":3095,"Ġì²ł":3096,"íķľêµŃ":3097,"ĠìĹĦì²Ń":3098,"íĺľ":3099,"Ġfact":3100,"Ġgu":3101,"Ġnon":3102,"Ġê¸°ìĹħ":3103,"mary":3104,"roid":3105,"ME":3106,"Ġë¨¹ìĸ´":3107,"chn":3108,"sigma":3109,"angle":3110,"roll":3111,"beta":3112,"ĠìĤ¶":3113,"Ġìħ":3114,"ished":3115,"test":3116,"Ġmuch":3117,"ì©":3118,"35":3119,"ëŃ":3120,"ëĦĲ":3121,"CO":3122,"ëĵľëĬĶ":3123,"ëĦĪë¬´":3124,"ency":3125,"Ġì¶ķ":3126,"ìłķìĿ´":3127,"ê°ĳ":3128,"ê½ĥ":3129,"Ġfile":3130,"Ġë³´ëĤ´":3131,"arn":3132,"ìĽĥ":3133,"Ġë¶Ļ":3134,"Test":3135,"ists":3136,"dis":3137,"Ġtake":3138,"Ġ(\\":3139,"ense":3140,"que":3141,"rite":3142,"Ġdisc":3143,"ĠString":3144,"ren":3145,"Ġìĸ´ëĬĲ":3146,"ë¦¬ìķĦ":3147,"Ġìĸ´ëł¤":3148,"location":3149,"olution":3150,"Get":3151,"ìĿ´ìĬ¤":3152,"ĠìĥģíĴĪ":3153,"ìŀĪëĭ¤":3154,"Ġíı¬íķ¨":3155,"Ġexpect":3156,"ĠíĮĶ":3157,"ëıĻìĿĦ":3158,"Ġë§ĲìĶĢ":3159,"íķĺëĬĶëį°":3160,"Ġdon":3161,"ìĭľìĹĲ":3162,"Ġ***":3163,"Ġë¹¨":3164,"Ġproduct":3165,"Ġìļ´ìĺģ":3166,"ually":3167,"ê´Ģë¦¬":3168,"Ġresp":3169,"Ġfr":3170,"ĠìķĦì§ģ":3171,"ë·°":3172,"ìľ¼ëĤĺ":3173,"Ġê°Ļëĭ¤":3174,"ìļķ":3175,"function":3176,"Ġfound":3177,"ëıĦë¥¼":3178,"}{\\":3179,"45":3180,"ìĬ¤íĮħ":3181,"ott":3182,"bs":3183,"ê±°ë¦¬":3184,"ĠìĿ¼ë°ĺ":3185,"Ġê¶ģ":3186,"Ġê²ĥëıĦ":3187,"Ġíĸīë³µ":3188,"ëĤĺëĿ¼":3189,"ë¡Ń":3190,"Ġíĺĳ":3191,"ases":3192,"Ġgiven":3193,"Ġëĸ¨ìĸ´":3194,"().":3195,"Ġlast":3196,"Ġëħ¼":3197,"^{-":3198,"ìŀĶ":3199,"Ġì¶Ķê°Ģ":3200,"Ġsmall":3201,"Ġë§ĮëĤĺ":3202,"raw":3203,"Ġdevelop":3204,"ĠAl":3205,"ĠíıŃ":3206,"ĠëĤ´ëł¤":3207,"Ġâĸ":3208,"ĠìĬ¤íĥĢ":3209,"Ġê½ĥ":3210,"ëŀµ":3211,"dition":3212,"());":3213,"ë¬¼ìĿĦ":3214,"Ġown":3215,"order":3216,"Cont":3217,"ìķĪëħķíķĺìĦ¸ìļĶ":3218,"Ġê°Ģì§Ģ":3219,"ëį¸":3220,".,":3221,"ared":3222,"ĠìĦľë¹ĦìĬ¤":3223,"31":3224,"Ġbeing":3225,"ìłķë³´":3226,"ĩ´":3227,"ì¡Įëĭ¤":3228,"time":3229,"Ġday":3230,"ĠAr":3231,"Ġê¸°ìĸµ":3232,"ĠìŀĲìĭłìĿĺ":3233,"64":3234,"Ġë¿Ĳ":3235,"Ġíķĺë©´":3236,"Ġë¨¼ìłĢ":3237,"ìĤ¬ëŀĮ":3238,"util":3239,"ouse":3240,"anag":3241,"ĠìĻĶ":3242,"ìĬ¤ë¡ľ":3243,"ern":3244,"ì§ĢìĹŃ":3245,"Ġë°Ģ":3246,"Ġë¬´ìĹĩ":3247,"Ġê¸°ëĭ¤":3248,"Ġêµ¬ìĦ±":3249,"figure":3250,"ĠìŀĪëĭ¤ê³ł":3251,"Ġeffect":3252,"lease":3253,"ë¥´ê²Į":3254,"âĺħ":3255,"ĠãĢ":3256,"ailable":3257,"Ġë§ĲíĸĪëĭ¤":3258,"Ġì¹´íİĺ":3259,"uss":3260,"ush":3261,"Ġfin":3262,"Im":3263,"ĠëĤ®":3264,"ìĤ¬ìĿĺ":3265,"Ġsize":3266,"êµ¬ëĤĺ":3267,"Ġê·¸ê²ĥ":3268,"alth":3269,"lear":3270,"ĠAn":3271,"ability":3272,"ension":3273,"ëĪĪ":3274,"Ġthose":3275,"ĠìŀĲìĹ°":3276,"mod":3277,"top":3278,"Ġê°Ģì¡±":3279,"ìĤ¬ìĹħ":3280,"Ġê³µê°Ħ":3281,"Ġcar":3282,"Ġest":3283,"by":3284,"head":3285,"Error":3286,"Ġê¸°ìĪł":3287,"Ġê·¸ëłĩ":3288,"mathrm":3289,"ĠìľĦíķ´ìĦľ":3290,"ëħģ":3291,"ìĿĮìĿĦ":3292,"ì£¼ê³ł":3293,"Ġì°¨ëŁī":3294,"reak":3295,"Ġíķĺì§Ģ":3296,"ĠìŀĳìĹħ":3297,"ĠëıĻìķĪ":3298,"Ġê´ľ":3299,"less":3300,"ëĦ·":3301,"LL":3302,"fl":3303,"Ġperform":3304,"*}":3305,"Ġconsider":3306,"ëĬĶì§Ģ":3307,"ìĿ¸ìĿĺ":3308,"ĠìŀĪìľ¼ë©°":3309,"script":3310,"Ġterm":3311,"ëĵ¤ìĸ´":3312,"ìĺĪìļĶ":3313,"Ġhome":3314,"íħĲ":3315,"ĠìĿ´íķ´":3316,"ë¨¸ëĭĪ":3317,"ì´Ŀ":3318,"ìĹĲìļĶ":3319,"lete":3320,"Ġvari":3321,"ìķĬ":3322,"Ġê´Ģìĭ¬":3323,"ëĤĺìļĶ":3324,"ìĤ¬ëĬĶ":3325,"ìĽĲìĿ´":3326,"Ġê¸°ì¤Ģ":3327,"ìĭľíĤ¤":3328,"IC":3329,"Ġallow":3330,"Ġê²ĥìŀħëĭĪëĭ¤":3331,"ìķŀ":3332,"ED":3333,"ëıĦë¡ľ":3334,"uc":3335,"ê°Ģê²©":3336,"opy":3337,"+\\":3338,"alk":3339,"gamma":3340,"ĠìĿ´ë£¨":3341,"RO":3342,"Ġmust":3343,"ìĿ´ëłĩê²Į":3344,"ĠìºĲ":3345,"ëĬĶëĭ¤":3346,"Ġfam":3347,"rc":3348,"ì¹ł":3349,"ĠìĽĥ":3350,"ĠìķĮê³ł":3351,"ë§ĪíĬ¸":3352,"Ġì°©":3353,"ë§Įíģ¼":3354,"Ġê³Ħíļį":3355,"arge":3356,"ĠìĿ´ìķ¼ê¸°":3357,"Ġê¸°ë³¸":3358,"Ľ°":3359,"Ġê·¸ëŀĺìĦľ":3360,"ĠìĹĦë§Ī":3361,"ëıĻì°¨":3362,"ìĪĺë¥¼":3363,"AC":3364,"ìĭ¶":3365,"Ġcontain":3366,"ond":3367,"ik":3368,"cription":3369,"ĠìĿĮìĭĿ":3370,"ants":3371,"ĠíĹ¤":3372,"ason":3373,"Ġbusiness":3374,"ë¥´ëĬĶ":3375,"ather":3376,"oci":3377,"ĠíķĻìĥĿ":3378,"ê·¸ëŁ°":3379,"ĠSe":3380,"Ġsk":3381,"Ġmain":3382,"Ġeas":3383,"ness":3384,"ìĭľìķĦ":3385,"íľ´":3386,"table":3387,"Ġê¹Ķ":3388,"ì£¼ìĦ¸ìļĶ":3389,"ìĽĲìĿĦ":3390,"Ġãħłãħł":3391,"Ġmade":3392,"link":3393,"ĠíĶĦë¡ľ":3394,"Ġê´Ģë¦¬":3395,"Un":3396,"ĠìķĦëŀĺ":3397,"Ġlet":3398,"Ġmed":3399,"ëª»":3400,"Ġposs":3401,"ê¿":3402,"ĠìŀĲê¸°":3403,"ìĿ´ë¥¼":3404,"]{":3405,"ĠRe":3406,"ê³¤":3407,"ected":3408,"Class":3409,"Ġë£":3410,"rop":3411,"By":3412,"Ġdi":3413,"ĠZ":3414,"Įĵ":3415,"ë¦¬ìĸ´":3416,"íķĺìĺĢëĭ¤":3417,"ĠCl":3418,"Â·Â·Â·Â·":3419,"gr":3420,"Ġagain":3421,"Ġíİĺ":3422,"Ġproble":3423,"Ġsaid":3424,"akes":3425,"ìłľë¡ľ":3426,"');":3427,"ìĵ°":3428,"ëĮĢíķľ":3429,"way":3430,"ëıĦê°Ģ":3431,"hip":3432,"An":3433,"ocument":3434,"oot":3435,"ĠìĦ¤ì¹ĺ":3436,"ìĿ´íģ¬":3437,"Ġlead":3438,"ìłĢëĬĶ":3439,"^\\":3440,"Ġê¸°ë¡Ŀ":3441,"ìĦľìļ¸":3442,"Ġëī´":3443,"Ġê·¸ëłĩê²Į":3444,"ler":3445,"ìĺ¤ëĬĶ":3446,"Ġcheck":3447,"ìŀĲê¸°":3448,"ĠìĥĪë¡ľìļ´":3449,"ë¡ľê·¸ëŀ¨":3450,"ĉĉĉĉĉ":3451,"ĠìĿĳ":3452,"Ġê¹Į":3453,"respon":3454,"ìŀ¥ìĹĲ":3455,"url":3456,"Ġìĸ»":3457,"íķĺìĭľëĬĶ":3458,"Ġë³´ëĭĪ":3459,"ëı¼":3460,"ìłķë§Ĳ":3461,"rem":3462,"delta":3463,"index":3464,"ĠêµŃëĤ´":3465,"list":3466,"Ġìĸ¼êµ´":3467,"Ġê°ĲìĤ¬":3468,"ral":3469,"íĶĪ":3470,"ross":3471,"Ġìĸ´ëĶĶ":3472,"pace":3473,"Ġparamet":3474,"36":3475,"ĠìĤ´ìķĦ":3476,"Ġbuild":3477,"ìĦ¼íĦ°":3478,"ĠìķĬìĿĦ":3479,"Ind":3480,"Ġê½":3481,"ë¬¼ìĿ´":3482,"Ġpass":3483,"Ġins":3484,"Ġelement":3485,"['":3486,"Ġarg":3487,"fe":3488,"Ġìĵ":3489,"ìļ´ëį°":3490,"ĠìĻķ":3491,"Ġëĭµ":3492,"ĠìĥĿíĻľ":3493,"ê»´":3494,"Ġê³łë¯¼":3495,"ken":3496,"View":3497,"Ġincre":3498,"ëįĶëĿ¼ê³ł":3499,"go":3500,"ĠíĻľìļ©":3501,"itial":3502,")}":3503,"Ġperson":3504,"ì¤ĳìĹĲ":3505,"pm":3506,"ëĤ´ê°Ģ":3507,"ìĬ¤ëŁ½":3508,"ê¸°ìĹħ":3509,"ëĿ¼ëıĦ":3510,"ister":3511,"ì²Ļ":3512,"Ġê°ľë°ľ":3513,"ì§Ģê¸Ī":3514,"ìŀ¥ìĹĲìĦľ":3515,"ê°ľìĽĶ":3516,"Ġevent":3517,"theta":3518,"ìĽĢìĿ´":3519,"Ġchild":3520,"med":3521,"íķĺëĭĪ":3522,"Ġresults":3523,"Ġì¹¨":3524,"na":3525,"ĠAnd":3526,"01":3527,"ĠìŀĪëıĦë¡Ŀ":3528,"ìĬ¤íĦ°":3529,"íĸĪìĸ´ìļĶ":3530,"ground":3531,"uration":3532,"empl":3533,"rho":3534,"ë¡ľëĤĺ":3535,"ëł´":3536,"Ġëĵ±ìĿĺ":3537,"íķĺìĭł":3538,"Ġìĭ¸":3539,"ìĽĢìĿĦ":3540,"public":3541,"Ġpost":3542,"ĠìĻĦìłĦ":3543,"Ġdirect":3544,"\";":3545,"ë£Įë¥¼":3546,"Ġ||":3547,"Ġìľ¡":3548,"Ġreal":3549,"Key":3550,"Ġdid":3551,"ively":3552,"az":3553,"ĠSh":3554,"].":3555,"Ġê¸°ëĬ¥":3556,"Ġê°ĢëĬĶ":3557,"Requ":3558,"Ġlocal":3559,"reg":3560,"Ġì°¸ìĹ¬":3561,"ware":3562,"Ġhttp":3563,"ë§ĮìĹĲ":3564,"Ġke":3565,"};":3566,"ĠíĬ¹íŀĪ":3567,"05":3568,"irc":3569,"etwork":3570,"ì°į":3571,"Ġìĭ¶ìĿĢ":3572,"ute":3573,"ervice":3574,"íĮĢ":3575,"ëĨį":3576,"ìĥģìľ¼ë¡ľ":3577,"Ġcent":3578,"ĠëĨĴìĿĢ":3579,"ëł¸ëĭ¤":3580,"search":3581,"Ġê³łê°Ŀ":3582,"ëŁ¬íķľ":3583,"Ġcustom":3584,"js":3585,"ĠìłĦì²´":3586,"Ġìķī":3587,"ĠíĻĪ":3588,"Ġê¾¸":3589,"ë»":3590,"ways":3591,"ision":3592,"ëĭĿ":3593,"ìĬ¤íħľ":3594,"bers":3595,"summary":3596,"ë¬¸ìĹĲ":3597,"arm":3598,"ĠìĺĨ":3599,"Ġë°¥":3600,"Ġerror":3601,"(),":3602,"ĠíĦ°":3603,"come":3604,"Ġart":3605,"Ġê²½íĹĺ":3606,"ëłµ":3607,"ĠìĬ¬":3608,"Ġë¨¹ìĿĦ":3609,"íĸĪëĬĶëį°":3610,"íĽĪ":3611,"ĠíĥĦ":3612,"leq":3613,"ìĬ¤ê°Ģ":3614,"íĬ¸ë¥¼":3615,"íĭĢ":3616,".</":3617,"ì¹ĺë¥¼":3618,"Ġìĺģíĸ¥":3619,"ĠìķĪìłĦ":3620,"Ġì¿":3621,"Ġproject":3622,"Sh":3623,"Ġsecond":3624,"ron":3625,"Ġíķ´ëĭ¹":3626,"ê°ĢëĬ¥":3627,"Ġìī¬":3628,"ì¼ĵ":3629,"ĠìŀĳíĴĪ":3630,"ê±°ëĵł":3631,"ĠëĤĺìĺ¨":3632,"ì§Ĳ":3633,"Ġê±°ìĿĺ":3634,"ìĭ¬íŀĪ":3635,"$-":3636,"ë¦¬ì§Ģ":3637,"Ġtry":3638,"Ġworld":3639,"Ġëĵ£":3640,"Ġfree":3641,"\"></":3642,"ends":3643,"ĠëĤĺìĻĢ":3644,"Ġlevel":3645,"ology":3646,"Ġì¸¡":3647,"ĠíĻ©":3648,"ëįĶëĿ¼ê³łìļĶ":3649,"vious":3650,"Ġê³µë¶Ģ":3651,"ìĿ´ìłľ":3652,"Ġë¬¼ë¡ł":3653,"Ġthink":3654,"PE":3655,"Ġìķħ":3656,"ĠìĿ¸ê°Ħ":3657,"ľĺ":3658,"tau":3659,"Ġfollowing":3660,"hor":3661,"ì£½":3662,"ëıĻìĤ°":3663,"sec":3664,"Ġë´Ĳ":3665,"ĠìĺĪìłķ":3666,"ION":3667,"ë²Īíĺ¸":3668,"chool":3669,"Ġcontin":3670,"Ġavailable":3671,"Ġstruct":3672,"íĳ¸":3673,"īìŀ¥":3674,"Ġê·¹":3675,"ĠìŀĳìĿĢ":3676,"ëŀĻ":3677,"ĠëĬ¥":3678,"ght":3679,"big":3680,"Ġê²°ìłķ":3681,"Ġìĸ¸ìłľ":3682,"íĻį":3683,"Ġaround":3684,"ëĶĶìĸ´":3685,"Ġservice":3686,"ìĺ¥":3687,"ackage":3688,"Ġìłķë¶Ģ":3689,"nav":3690,"plication":3691,"Ġdr":3692,"Ġsom":3693,"ift":3694,"ê²ĥëıĦ":3695,"tribute":3696,"ìľĦìĽĲ":3697,"ĠíĳľíĺĦ":3698,"ĠìĹ¬ìĦ±":3699,"ural":3700,"ëķ":3701,"ĠĠĠĠĊ":3702,"ãħ¡":3703,"Ġnext":3704,"Ġmem":3705,"Ġë¶ĦìľĦ":3706,"LA":3707,"arrow":3708,"Ġê±±":3709,"lex":3710,"If":3711,"300":3712,"ogle":3713,"íĦ´":3714,"ìĹĺ":3715,"Ġve":3716,"Ġdel":3717,"Ġê²½ìłľ":3718,"Ġë§Īì§Ģë§ī":3719,"Ġmult":3720,"êº¼":3721,"}$,":3722,"ĠNew":3723,"Ġtechn":3724,"Ġë°¤":3725,"ëĿ¼ìĦľ":3726,"Ġë³´ìĿ´":3727,"times":3728,"ĠíķĻêµĲ":3729,"}$.":3730,"ĠìĿ¸íĦ°":3731,"File":3732,"Ġcr":3733,"ĠíķĦìļĶíķľ":3734,"Ġë©Ķëī´":3735,"path":3736,"Ġrequest":3737,"ëĲ©ëĭĪëĭ¤":3738,"ìĭ±":3739,"Ġmet":3740,"pert":3741,"PI":3742,"unc":3743,"sm":3744,"Ġê´ľì°®":3745,"ives":3746,"ħëĭĪëĭ¤":3747,"Ġë§¤ìļ°":3748,"êµ°ìļĶ":3749,"ë³´ëĬĶ":3750,"Ġcondition":3751,"ymb":3752,"ì¹Ļ":3753,"Ġë°Ŀíĺ":3754,"Ġæ":3755,"ved":3756,"ë¨¼":3757,"Se":3758,"34":3759,"TE":3760,"Ġíĭ°":3761,"ĠëıĦì°©":3762,"rix":3763,"Ġprogram":3764,"tract":3765,"']":3766,"ĠìĤ¬ëŀĮëĵ¤ìĿ´":3767,"Ġthree":3768,"ĠíĪ¬ìŀĲ":3769,"Ġopen":3770,"Ġíı¬ìĬ¤íĮħ":3771,"fil":3772,"ê²¼":3773,"ìľµ":3774,"Ġimage":3775,"ĠëĲĺê³ł":3776,"ìĭ¸":3777,"ĠìŀĶ":3778,"ape":3779,"ìĿ´ëĵľ":3780,"De":3781,"ĠìķĦì¹¨":3782,"ãİ":3783,"els":3784,"Ġanal":3785,"Ġê¸°ìŀĲ":3786,"Ġíĺ¹":3787,"ism":3788,"space":3789,"ĠìĪĻ":3790,"ëĵľë¦¬":3791,"Ġgroup":3792,"ìĬĪ":3793,"ĠëŁ":3794,"íĨµëł¹":3795,"ì¼ĢìĿ´":3796,"Ġê·¸ëŁ¬ëĤĺ":3797,"ĠìłĢëĬĶ":3798,"sl":3799,"Ġë¶ĦìĦĿ":3800,"ìĹ¬íĸī":3801,"ivers":3802,"Ġë¹ĦêµĲ":3803,"Time":3804,"On":3805,"Ġweek":3806,"íıŃ":3807,"itive":3808,"vir":3809,"Ġtyp":3810,"const":3811,"ìŀĺ":3812,"ymbol":3813,"Ġë°ĶëĿ¼":3814,"mm":3815,"Ġë©ĭ":3816,"Ġë³´ëĬĶ":3817,"Ġê¿Ī":3818,"ĠëĽ°":3819,"Ġcreate":3820,"ì¤ĺ":3821,"ìļĶì¦ĺ":3822,"Ġëľ»":3823,"State":3824,"ë°Ķë¡ľ":3825,"Ġìłģìļ©":3826,"lay":3827,"}(\\":3828,"Ġlife":3829,"ë¥´ë©´":3830,"ìĸ´ëıĦ":3831,"ĠìĨ¡":3832,"ë³´ê¸°":3833,"Element":3834,"ë°©ë²ķ":3835,"Ġpresent":3836,"Ġê²¨":3837,"Ĩį":3838,"Ġìĥģëĭ´":3839,"umer":3840,"aining":3841,"Ġstand":3842,"eqref":3843,"tps":3844,"Ġ);":3845,"Ġwithout":3846,"ĠëĬĲê»´":3847,"Ġstill":3848,"ëĤ¸":3849,"Ġref":3850,"ê´":3851,"ë¥´ê³ł":3852,"ìĿ´ëŀĳ":3853,"Ġcommun":3854,"Ġpat":3855,"Ġìľłëªħ":3856,"Ġìµľê·¼":3857,"/*":3858,"ëłĪìĬ¤":3859,"ìľ¤":3860,"ĠëĮĢíķ´ìĦľ":3861,"ìĥģìĿĺ":3862,"ë¡ľìĦľ":3863,"ĠìĿµ":3864,"Ġë²Ķ":3865,"ëĭ¤ìĿĮ":3866,"With":3867,"ĠThere":3868,"ãĦ":3869,"Ġê°ĳ":3870,"itor":3871,"Ġìļ´ëıĻ":3872,"partial":3873,"Ġcoun":3874,"75":3875,"Ġplace":3876,"ails":3877,"ior":3878,"ĠíĿĲ":3879,"ference":3880,"íķ´ëıĦ":3881,"Ġ$(":3882,"ìĻĶëĭ¤":3883,"Ġìı":3884,"Int":3885,"Event":3886,"Ġview":3887,"ìłĲìĿĦ":3888,"Ġìĭľê°ĦìĿ´":3889,"Ġplan":3890,"Ġsing":3891,"ĠíĿ¬":3892,"use":3893,"ĠêµŃê°Ģ":3894,"Ġpur":3895,"Ġì¢ĭìķĺ":3896,"ĠRes":3897,"ãĨį":3898,"Ġsince":3899,"99":3900,"met":3901,"Ġ/>":3902,"Add":3903,"ven":3904,"\":":3905,"ters":3906,"field":3907,"Ġë°°ìļ°":3908,"node":3909,"Ġì¡´ìŀ¬":3910,"Node":3911,"TR":3912,"point":3913,"Ġë§Įì¡±":3914,"ë²Īì§¸":3915,"Ġthrow":3916,"Ġê²ĮìŀĦ":3917,"Ġìľłì§Ģ":3918,"ering":3919,"ëĭ¤ë¥¸":3920,"Ġlim":3921,"length":3922,"Ġspace":3923,"íķĻìĥĿ":3924,"ĠëĶĶìŀĲìĿ¸":3925,"ctor":3926,"Ġcontent":3927,"ĠìĿ¼ìĿ´":3928,"ĠìŀĪì§Ģë§Į":3929,"ëª°":3930,"Ġlog":3931,"Ġì¦Ŀê°Ģ":3932,"ë³´ë©´":3933,"Ġì¢ĭìķĦíķĺëĬĶ":3934,"ĠíĻľëıĻ":3935,"Ġë°ĶëŀĮ":3936,"ì»¨":3937,"sw":3938,"ĠDe":3939,"cale":3940,"íĺ¹":3941,"Ġê·¸ë¦¼":3942,"55":3943,"ìķķ":3944,"Text":3945,"Ġì¤ĳìļĶíķľ":3946,"ĠìĥĿê°ģìĿ´":3947,"ìĬ´":3948,"Ġíŀĺëĵ¤":3949,"Qu":3950,"198":3951,"Ġê°Ķ":3952,"UR":3953,"Ġìĭłì²Ń":3954,"ìĭľìĦ¤":3955,"íĿ¥":3956,"Ġìį¨":3957,"Ġtext":3958,"ìĸ´ìķ¼":3959,"04":3960,"ëĤĺë¬´":3961,"box":3962,"ë¿Ĳ":3963,"ì´Į":3964,"ê¶ģ":3965,"Request":3966,"Ġì¦ī":3967,"!--":3968,"ale":3969,"ĠHow":3970,"ait":3971,"ems":3972,"nu":3973,"Ġë§Įëĵł":3974,"Ġhead":3975,"Ġuser":3976,"ĠìłĦìĹĲ":3977,"Ġë¨¹ëĬĶ":3978,"ĠìŀĪìľ¼":3979,"=\"../../":3980,"Ġíģ¬ê²Į":3981,"ĠíĥĪ":3982,"lock":3983,"fty":3984,"Ġëĭ¤ëħĢ":3985,"ìĽĲìĿĺ":3986,"ĠìĿ´ê²ĥ":3987,"ëıĪ":3988,"¯¤":3989,"ĠìŀĲìĦ¸":3990,"sq":3991,"ìŀĸ":3992,"ìłľíĴĪ":3993,"ìĥĿíĻľ":3994,"Ġwrit":3995,"word":3996,"08":3997,"ission":3998,"':":3999,"ences":4000,"38":4001,"ification":4002,"Ġvalues":4003,"ê²łì§Ģë§Į":4004,"where":4005,"color":4006,"ĠíĻĺê²½":4007,"ìŀ¥ìĿĺ":4008,"ëľ»":4009,"Ġcour":4010,"íļĮìĿĺ":4011,"aving":4012,"ëª¬":4013,"ëŁ´":4014,"Ġë§Įíģ¼":4015,"ëĵľë¦½ëĭĪëĭ¤":4016,"ĠìļĶì¦ĺ":4017,"``":4018,"ê¸°ê°Ħ":4019,"ìĪĺëĬĶ":4020,"Ġbook":4021,"ĠìķĶ":4022,"Ġaddition":4023,"íķľíħĮ":4024,"ĠìķĦë¦Ħ":4025,"pp":4026,"Ġide":4027,"Ġë§Ľì§ĳ":4028,"Ġassert":4029,"ìĿ¸ìĿĦ":4030,"aces":4031,"ocus":4032,"Ġsl":4033,"Ġëĭ¹ìĭł":4034,"lem":4035,"09":4036,"oolean":4037,"ĠëĦĵ":4038,"Ġtitle":4039,"Ġì»¤íĶ¼":4040,"ëĮĢë¥¼":4041,"user":4042,"att":4043,"ĠìĿ´ëıĻ":4044,"ê³łì°¨":4045,"ìłľë¥¼":4046,"/**":4047,"ê°ĲìĿĦ":4048,"ital":4049,"ah":4050,"=\"+":4051,"Ġëħ¸ëŀĺ":4052,"Ġarray":4053,"ìĬ¤ëĬĶ":4054,"ì§Ħëĭ¤":4055,"group":4056,"ĠëĬĲëģ¼":4057,"Ġìĺ¤ëŀĺ":4058,"ë¹Ľ":4059,"oard":4060,"\"\"":4061,"äº":4062,"ìĿ´íĦ°":4063,"Ġìĺ¤íĽĦ":4064,"Ġadv":4065,"infty":4066,"Ġê°Ģìł¸":4067,"|\\":4068,"ĠìĦ±ê³µ":4069,"pty":4070,"Ph":4071,"Ġíıīê°Ģ":4072,"ident":4073,"tilde":4074,"ìĹ°êµ¬":4075,"Ġrece":4076,"ë¹Į":4077,"ë¬¸íĻĶ":4078,"ìĹĪê³ł":4079,"omega":4080,"ĠíĬ¹ë³Ħ":4081,"Ġê´Ģíķľ":4082,"âĸ¶":4083,"abl":4084,"Ġìŀ¬ë¯¸":4085,"ĠêµŃë¯¼":4086,"Ġíķ´ê²°":4087,"Ġìĸ´ë¦°":4088,"stand":4089,"Ġoffer":4090,"aj":4091,"ì½ĺ":4092,"Ġìłľìŀĳ":4093,"Ġwithin":4094,"39":4095,"Ġì¢ĭìĿĦ":4096,"ique":4097,"Ġëŀ":4098,"Ġreally":4099,"Path":4100,"Ġobtain":4101,"Ġëħ¹":4102,"ormal":4103,"ìľĦë¥¼":4104,"Ġaccess":4105,"ĠíĶĦë¡ľê·¸ëŀ¨":4106,"Ġsol":4107,"Ġinterest":4108,"ìĿ´ìķ¼":4109,"Ġë¬¸íĻĶ":4110,"Ġìĸĺ":4111,"Ġë³´ìĿ´ëĬĶ":4112,"ĠOn":4113,"asure":4114,"Ġlarge":4115,"Info":4116,"ĠìĪł":4117,"Ġì¤ĳìĭ¬":4118,"Ġë°ĿíĺĶëĭ¤":4119,"Ġtarget":4120,"¬ìĺģ":4121,"ertain":4122,"IS":4123,"oss":4124,"ëªħìĿ´":4125,"obal":4126,"MA":4127,"ĠìĿ´ë¥¼":4128,"ì´ī":4129,"ëĲĺì§Ģ":4130,"ê²ģ":4131,"Ġprot":4132,"Equ":4133,"ê°Ķ":4134,"ves":4135,"Ġ/*":4136,"Ġì°¸ê³ł":4137,"map":4138,"Ġfew":4139,"Ġalways":4140,"ìĿ´ë²Ħ":4141,"ìłģìĿ´":4142,"ĠìŀĲì£¼":4143,"ë§¨":4144,"perties":4145,"ients":4146,"Index":4147,"ĠìķĬìķĦ":4148,"ì¹ľêµ¬":4149,"fin":4150,"Ġtoo":4151,"Ġê¶ģê¸Ī":4152,"Ġprovide":4153,"íķĻìĽĲ":4154,"02":4155,"Field":4156,"ì£¼ìĭľ":4157,"ìĤ¬ìļ©":4158,"Ġêµ¬ìŀħ":4159,"06":4160,"ê±°ëĵłìļĶ":4161,"ìĤ¬ìĭ¤":4162,"Context":4163,"Ġì¹ĺë£Į":4164,"ë²¤íĬ¸":4165,"Ġë´¤":4166,"íĤ¹":4167,"Ġê·¸ëĬĶ":4168,"ëĲĲëĭ¤":4169,"37":4170,"no":4171,"tab":4172,"ety":4173,"AD":4174,"ĠëĶ°ë¥¸":4175,"Ġtri":4176,"ĠìĤ¬ê±´":4177,"Ġë©Ģ":4178,"ĠìłĢíĿ¬":4179,"ĠíĿĶ":4180,"07":4181,"Ġleft":4182,"Ġteam":4183,"Ġduring":4184,"Config":4185,"ouble":4186,"ĠìĤ¬ê³ł":4187,"ĠìŀĲì²´":4188,"ìĿ´ëŁ°":4189,"Ġexpl":4190,"aster":4191,"enu":4192,"Delta":4193,"())":4194,"®¤":4195,"des":4196,"ĠíĴĪ":4197,"ĠëıĦìĭľ":4198,"stance":4199,"ium":4200,"Ġê°Ģê¹Į":4201,"ìĨĶ":4202,"ìĸ´ê°Ģ":4203,"ìĿ¼ìĿ´":4204,"ì»¬":4205,"Ġíķ´ìļĶ":4206,"ë¡¯":4207,"Ġë°©ìĨ¡":4208,"ëĴ":4209,"Ġpower":4210,"Ġrequire":4211,"Ġmax":4212,"%)":4213,"Ġdev":4214,"olds":4215,"Ġê¸´":4216,"Def":4217,"ë§ŀ":4218,"Ġë§ĲìĿĦ":4219,"ê¹¨":4220,"ì£¼íĥĿ":4221,"Ġìī½ê²Į":4222,"ived":4223,"íĮĶ":4224,"Ġfull":4225,"ìĺ¤ëĬĺìĿĢ":4226,"ploy":4227,"Ġë°ĶëŀįëĭĪëĭ¤":4228,"Ġì»¨":4229,"ê°ĲìĿ´":4230,"Ġê²½ê¸°":4231,"ìĹŃìĭľ":4232,"Ġìĺ·":4233,"ì¶°":4234,"ĠëĮĢíĨµëł¹":4235,"Ġenerg":4236,"ì¦Į":4237,"ĠíķĺìĹ¬":4238,"ìĿ¸ëĭ¤":4239,"ivity":4240,"Map":4241,"ì½¤":4242,"Array":4243,"eqn":4244,"Ġpar":4245,"Ġê·¸ìĿĺ":4246,"quad":4247,"utton":4248,"amespace":4249,"ately":4250,"off":4251,"ë³´íĹĺ":4252,"ination":4253,"ui":4254,"land":4255,"Ġimportant":4256,"aterial":4257,"ì¹Ń":4258,"IG":4259,"Ġoptions":4260,"aper":4261,"Ġ:)":4262,"Ġpath":4263,"Ġmap":4264,"ĠìłĢëħģ":4265,"Ġ},":4266,"ources":4267,"position":4268,"íĨ¡":4269,"ê³łê¸°":4270,"Ġopt":4271,"man":4272,"rt":4273,"Ġê¹Ĭ":4274,"gg":4275,"Ġìľ¤":4276,"por":4277,"ìĽĲìĿĢ":4278,"quot":4279,"Ġë°ľíĳľ":4280,"Ġ(!":4281,"ats":4282,"ternal":4283,"result":4284,"ìĦłìĿĦ":4285,"Ġíĳ¸":4286,"ĠìĹ´ìĭ¬íŀĪ":4287,"Ġident":4288,"Ġdefault":4289,"ĠíķĺëĬĶëį°":4290,"Ġbound":4291,"ride":4292,"ĠìłĦíĻĶ":4293,"ĠìķĦíĮĮíĬ¸":4294,"Ġë¶Ģëĭ´":4295,"++":4296,"Ġë°Ľê³ł":4297,"ensure":4298,"anager":4299,"Ġhapp":4300,"idd":4301,"ĠìłľëĮĢë¡ľ":4302,"ìĩ¼":4303,"Ġëĵ±ìĿ´":4304,"iver":4305,"atures":4306,"ë§¥":4307,"iving":4308,"void":4309,"ĠìĽĢ":4310,"Ġcode":4311,"Ġê³¼ìłķ":4312,"Ġê¹ĶëģĶ":4313,"LO":4314,"Ġë³´ëĭ¤":4315,"ĠëĮĢë¶Ģë¶Ħ":4316,"Ġhim":4317,"Ġexample":4318,"ëŁŃ":4319,"ĠìŀĲë¦¬":4320,"ì¹´íİĺ":4321,"Ġbased":4322,"Ġincluding":4323,"All":4324,"ë¦¿":4325,"ĠíķŃìĥģ":4326,"Ġlove":4327,"íĹ¤":4328,"ìłĢíĿ¬":4329,"ulation":4330,"íĬ¹íŀĪ":4331,"íĻĺê²½":4332,"ĠíĸĪëĬĶëį°":4333,"Ġdist":4334,"ê·¸ëŀĺëıĦ":4335,"ë¬´ë¦¬":4336,"urs":4337,"ĠìĦľë¡ľ":4338,"ìĥģìĹĲ":4339,"ĠìĹ°ê²°":4340,"íĺģ":4341,"Ġì£¼ë³Ģ":4342,"ĠìĹĨìĸ´":4343,"ports":4344,"ê°ĻìĿ´":4345,"ì½ľ":4346,"lang":4347,"íİ´":4348,"ë£¸":4349,"ì¯¤":4350,"ĠìĪĺìĹħ":4351,"Ġgoing":4352,"Ġìĺ¬ëł¤":4353,"ples":4354,"Ġet":4355,"ĠÐ":4356,"48":4357,"íĤ¬":4358,"Ġë´ī":4359,"Ġ:=":4360,"api":4361,"Ġchange":4362,"ilar":4363,"ĠìĥģìĬ¹":4364,"Over":4365,"ê¹Ĳ":4366,"UT":4367,"ãĢį":4368,"';":4369,"ĠìŀĪìľ¼ëĭĪ":4370,"Ġê°Ģìļ´ëį°":4371,"Ġë³ĢíĻĶ":4372,"Ġlight":4373,"ĠThey":4374,"ittle":4375,"Ġiss":4376,"ìĿ´ì§Ģë§Į":4377,"ìĨĮë¥¼":4378,"Ġbetter":4379,"ĠìĽĮ":4380,"ĠìĨĶ":4381,"ìłĦë¬¸":4382,"xi":4383,"Ġrepresent":4384,"ìĭĿìľ¼ë¡ľ":4385,"ì§ĢìĽĲ":4386,"Ġíį¼":4387,"ëĮĢìĿĺ":4388,"ìĿĦëķĮ":4389,"ëį°ìļĶ":4390,"iter":4391,"ìĦľëĬĶ":4392,"ING":4393,"Ġchang":4394,".)":4395,"ìĿ¸íĬ¸":4396,"Ġpay":4397,"íıĲ":4398,"ĠìĪĺì¤Ģ":4399,"Ġì£¼ëĬĶ":4400,"ëĺĲíķľ":4401,"Ķê°Ģ":4402,"ë¹Ī":4403,"gl":4404,"ê·¼ëį°":4405,"Ġcolor":4406,"ables":4407,"Ġ});":4408,"ari":4409,"Ġë¿Į":4410,"Ġabove":4411,"uf":4412,"ì¹ĺê³ł":4413,"ìĽĮìĦľ":4414,"####":4415,"ĠìĿ´ëŁ¬íķľ":4416,"ET":4417,"ìĭĿìĿ´":4418,"ĠìłľìĿ¼":4419,"tra":4420,"Ġbreak":4421,"ìĤ¬ëŀĳ":4422,"Ġìĩ¼":4423,"Ġexp":4424,"Ġcost":4425,"ĠìŀĪê²Į":4426,"ĠCol":4427,"ĠëĤ¨ìŀĲ":4428,"Service":4429,"Ġsure":4430,"Ġë¹¼":4431,"true":4432,"íļĮë¥¼":4433,"ĠĠĠĠĠĠĠĠĠĠĠĠĠĠĠĠĠĠĠĠĠĠĠĠĠĠĠ":4434,"Ġê·¸ëĮĢë¡ľ":4435,"Ġmarket":4436,"Ġì¶©ë¶Ħ":4437,"max":4438,"emplate":4439,"acter":4440,"ìłķíķľ":4441,"Ġ***-***-***":4442,"ì¶ĺ":4443,"depend":4444,"ê¸°ê´Ģ":4445,"ĵ¨":4446,"Ġëħ¸ëł¥":4447,"Ġinput":4448,"ìĹĨëĬĶ":4449,"ìĭľìŀ¥":4450,"config":4451,"Ġê·¸ëħĢ":4452,"Ġëª¨ìĬµìĿĦ":4453,"Ġdistribut":4454,"apache":4455,"Ġëı¼":4456,"ump":4457,"ëŀĲ":4458,"ags":4459,"ëĳĺ":4460,"~!":4461,"////////":4462,"íĺĪ":4463,"íİĺìĿ´ì§Ģ":4464,"Ġìĸ¼ë§ĪëĤĺ":4465,"Ġrange":4466,"ĠìĪľê°Ħ":4467,"ë¡ľëĬĶ":4468,"block":4469,"cdot":4470,"Ġë¸Ķë¡ľê·¸":4471,"odes":4472,"ĠìĹ¬ìŀĲ":4473,"Ġíķ´ëıĦ":4474,"ĠìŀĳìĦ±":4475,"ĠìŀĲìľł":4476,"Ġìłķìĭł":4477,"ĠAll":4478,"ĠBut":4479,"ĠìĿ¼ë¶Ģ":4480,"ĠInd":4481,"ĠTo":4482,"iled":4483,"Ġpossible":4484,"ìĤ¬ìĿ´":4485,"object":4486,"ì¢Į":4487,"ìľĦìĹĲ":4488,"ĺĳ":4489,"\\,":4490,"Ġdepend":4491,"ëĮĢê°Ģ":4492,"Ġinteg":4493,"ì§Ģì§Ģ":4494,"Ġë¬¸ìĿĺ":4495,"ê¸°ìĿĺ":4496,"icon":4497,"Ġ===":4498,"ìĬ·":4499,"ĊĊĊĊ":4500,"Ġ]":4501,"ê²ĮìļĶ":4502,"íĸĪê³ł":4503,"Ġposition":4504,"ĠìĶ¨":4505,"ES":4506,"Ġsuper":4507,"ê±°ìļ´":4508,"ëĲĺìĹĪëĭ¤":4509,"ëĭ¤ìļ´":4510,"Ġnetwork":4511,"uck":4512,"Ġbeg":4513,"MP":4514,"Ġphot":4515,"orem":4516,"mail":4517,"inition":4518,"ìĿ¸ìĿĢ":4519,"Des":4520,"ìĿ´ëŀĢ":4521,"AS":4522,"ches":4523,"íĨ¤":4524,"ĠëĲĺìĹĪëĭ¤":4525,"BS":4526,"Ġbas":4527,"FF":4528,"Ġquest":4529,"Ġkeep":4530,"Ġorgan":4531,"body":4532,"Ġê°ĢëĵĿ":4533,"ì§ĢìĹĲ":4534,"Ġcontrol":4535,"ĠWh":4536,"¨ìĿ´":4537,"Ġë¶ĢìĤ°":4538,"OT":4539,"CH":4540,"Ġë¶Ģì¡±":4541,"ìĭľì¼ľ":4542,"Ġblock":4543,"ë§İìĿĢ":4544,"ìĿ¼ìĿĦ":4545,"Ġìļķ":4546,"sim":4547,"ĠìĹ¬ë¦Ħ":4548,"Ġcompany":4549,"Ġold":4550,"Code":4551,"$$":4552,"viron":4553,"ëĿ¼ë§Ī":4554,"Al":4555,"Ġì¹¼":4556,"IP":4557,"thing":4558,"ĠëĤĺìĻĶ":4559,"Ġcare":4560,"ë³´ëĭ¤ëĬĶ":4561,"Ġë§¥":4562,"Ġear":4563,"Ġsit":4564,"dt":4565,"íķĺëĭ¤ê³ł":4566,"ane":4567,"Ġfamily":4568,"Ġ-->":4569,"ëįĶëĿ¼ëıĦ":4570,"Ġë½":4571,"ìį":4572,"Ġmanag":4573,"Ġë§Ŀ":4574,"Ġgrow":4575,"ffic":4576,"Ġspecial":4577,"íķĺìĭ¤":4578,"ìĿ¸ëį°ìļĶ":4579,"Ġanother":4580,"stru":4581,"input":4582,"ëļ":4583,"ëıĦìĿĺ":4584,"Ġenergy":4585,"ìĽĲìĹĲ":4586,"ponent":4587,"ìĮ":4588,"ì¥":4589,"Ġproperty":4590,"Ġê²°êµŃ":4591,"Ġmonth":4592,"Ġnode":4593,"ìŀĦìĿĦ":4594,"Ġgive":4595,"Form":4596,"ĠìĺĪìķ½":4597,"ML":4598,"ìłł":4599,"Ġëįķ":4600,"Ġíķ´ì£¼":4601,"ĠìĿĮìķħ":4602,"Or":4603,"from":4604,"plement":4605,"44":4606,"ĠSo":4607,"mit":4608,"ìĿ´ìĥģ":4609,"ê²łì£ł":4610,"ding":4611,"Ġselect":4612,"ĠëĶ¸":4613,"Ġproblem":4614,"ĠëĤĺìĿĺ":4615,"Ġë¸Įëŀľëĵľ":4616,"see":4617,"íĭ±":4618,"ĠìĥĿìĤ°":4619,"Ġê²¬":4620,"ĠìĹŃíķł":4621,"ibr":4622,"comp":4623,"ĠìĦłë¬¼":4624,"valid":4625,"Ġwater":4626,"pression":4627,"Ġexperience":4628,"Ġëļ":4629,"Ġhealth":4630,"ìłĲìĿ´":4631,"Ġë§ĲìĿ´":4632,"Ġsay":4633,"ìĶ¬":4634,"ĠìĿ´ë£¨ìĸ´":4635,"ëªħìĿĺ":4636,"Ġê°ĻìĬµëĭĪëĭ¤":4637,"íķ¨ìĿĦ":4638,"ìķĦì£¼":4639,"Ġbeh":4640,"ready":4641,"03":4642,"Ġì±Ļ":4643,"Ġìĭ«":4644,"}[":4645,"icle":4646,"hes":4647,"íħĮë¦¬ìĸ´":4648,"âĨ":4649,"ëĤ¬ëĭ¤":4650,"ìĬ¤ëŁ¬ìļ´":4651,")$.":4652,"ync":4653,"Size":4654,"assert":4655,"ĠìĦĿ":4656,"raphics":4657,"Ġë°ĽìĿĢ":4658,"Ġrespect":4659,"ëªħìĿĦ":4660,"Ġë§¡":4661,"ĠìłķëıĦë¡ľ":4662,"nection":4663,"****************":4664,"duct":4665,"Ġprof":4666,"ìłĦìĿĦ":4667,"Ġorig":4668,"ĠìĬ¤íĬ¸":4669,"Ġcomput":4670,"}}\\":4671,"Ġê³µê°ľ":4672,"Ġcorre":4673,"Ġì»¬":4674,"ìĦ¯":4675,"ìĤ¬íļĮ":4676,"Ġê¸°ê°Ħ":4677,"Ġpage":4678,"ìŀł":4679,"ĠëĲĺë©´":4680,"Ġíķĺê¸°":4681,"Ġê±±ìłķ":4682,"ules":4683,"ëĭĺê»ĺìĦľ":4684,"ëģĹ":4685,"ĠëķĮë¬¸ìĿ´ëĭ¤":4686,"ë°ĸìĹĲ":4687,"¢°":4688,"Ġë§Īëł¨":4689,"Ġconf":4690,"íķĺìĭľë©´":4691,"ĠíĺĦëĮĢ":4692,"oin":4693,"íĢ":4694,"uffer":4695,"leg":4696,"Of":4697,"Ġmight":4698,"tings":4699,"Ġrest":4700,"Ġìª½":4701,"urity":4702,"ĠìłĢëł´":4703,"Ġservices":4704,"Not":4705,"Ġable":4706,"Ġpop":4707,"ĠìĿ¸íķ´":4708,"Ġfeel":4709,"Ġput":4710,"Ġë°ľê²¬":4711,"ê°Ģê°Ģ":4712,"Ġless":4713,"tt":4714,"ottom":4715,"ĠìĿ¼ìĿĦ":4716,"Ġíĺ¼ìŀĲ":4717,"Ġìĸ´ëłµ":4718,"ĠìĤ´íİ´":4719,"ances":4720,"Ġarea":4721,"model":4722,"Ġaddress":4723,"Ġmass":4724,"https":4725,"ë¢°":4726,"sk":4727,"Ġê·¸ë¦¬":4728,"NS":4729,"[]":4730,"Ġì§ĢìĨį":4731,"Ġìķŀìľ¼ë¡ľ":4732,"Ð¾":4733,"ĠĠĊ":4734,"abled":4735,"pecial":4736,"Ġì¿ł":4737,"ê³¼ìĿĺ":4738,"state":4739,"ë²¨":4740,"ì§Ħì§ľ":4741,"Ġsource":4742,"ë§Įíķľ":4743,"ìķĦëĭĪ":4744,"cor":4745,"with":4746,"ĠëĤĺê°Ģ":4747,"íķľëĭ¤ê³ł":4748,"Ġsum":4749,"nect":4750,"Ġêµ¬ì¡°":4751,"ĠìŀĪê¸°":4752,"error":4753,"eturn":4754,"ĠìĺĪìĥģ":4755,"Ġì¢Į":4756,"ëĵľë¥¼":4757,"cope":4758,"ĠíĮĢ":4759,"ped":4760,"ìĩ":4761,"ĠìĹĨê³ł":4762,"icy":4763,"create":4764,"Ġê°ĢëĬ¥íķľ":4765,"plit":4766,"ux":4767,"Ġsuccess":4768,"Ġstyle":4769,"Ġtem":4770,"Ġë¥":4771,"Ġversion":4772,"Ġspe":4773,"Ġãħİ":4774,"ĠìŀĪëįĺ":4775,"?)":4776,"itch":4777,"Ġredu":4778,"ìļ°ìĬ¤":4779,"urther":4780,"ĠíıĲ":4781,"md":4782,"Ġë¹Ľ":4783,"ĠëĤĺëĿ¼":4784,"ĠëĤĺìĺ¤ëĬĶ":4785,"ĠčĊ":4786,"imal":4787,"ĠëĦ£ìĸ´":4788,"ìķĺìĬµëĭĪëĭ¤":4789,"ëĶĶìĺ¤":4790,"ĠSystem":4791,"Ġthings":4792,"ixed":4793,"ories":4794,"Ð°":4795,"ething":4796,"Ġfri":4797,"^*":4798,"Ġpres":4799,"Ġsw":4800,"Ġinstance":4801,"ë£¹":4802,"æľ":4803,"ĠìĽĢì§ģ":4804,"Ġcome":4805,"ì§Īë¬¸":4806,"ì¢ĭìĿĢ":4807,"Ġìļ°ë¦¬ê°Ģ":4808,"ìĤ°ìĹħ":4809,"mat":4810,"Ġìĥģëĭ¹":4811,"Ġë§ĺ":4812,"ĠíķĺëĬĺ":4813,"66":4814,"ì¹ĺê°Ģ":4815,"Ġç":4816,"Ġlow":4817,"Ġìĺ¬íķ´":4818,"ĠGet":4819,"Ġlittle":4820,"ìĤ¬íķŃ":4821,"='":4822,"ìłķë¶Ģ":4823,"epsilon":4824,"Ġtable":4825,"íĵ¨":4826,"System":4827,"Ġê°Ħëĭ¨":4828,"Ġìłķë¦¬":4829,"Ġê°ĢìĦľ":4830,"ì§Ģë¡ľ":4831,"ì£Ħ":4832,"íĦ¸":4833,"ĠìĿ¸ìłķ":4834,"Ġë¬´ë£Į":4835,"ìĪĺëıĦ":4836,"Ġhard":4837,"ìĿ´ê¸°":4838,"íķĺìŀĲ":4839,"Ġì¼ĢìĿ´":4840,"ëī´ìĬ¤":4841,"ìĶ¨ê°Ģ":4842,"ĠìłķíĻķ":4843,"Ġìĭłê²½":4844,"AB":4845,"imum":4846,"ëĭ¤ìĭľ":4847,"arning":4848,"íķĺê±°ëĤĺ":4849,"Hand":4850,"ecut":4851,"ê°Ģë¥¼":4852,"title":4853,"hether":4854,"Ġëľ¨":4855,"ched":4856,"Ġpot":4857,"ë¦¬ìĿĺ":4858,"Ġíķĺë©´ìĦľ":4859,"Ġindex":4860,"Item":4861,"ëĿ¼ë©´":4862,"å¤":4863,"ĠìĪĺê°Ģ":4864,"ours":4865,"OS":4866,"ero":4867,"ëĩ":4868,"Ġê²°íĺ¼":4869,"ìĿĢíĸī":4870,"ĠíĥĢê³ł":4871,"ë¹Ħë¥¼":4872,"Ġìĺ¤ëĬĶ":4873,"ì§ĢëĤľ":4874,"ĠìĤ´ì§Ŀ":4875,"Result":4876,"ìĹ¬ê¸°":4877,"ëķĮë¬¸ìĹĲ":4878,"ëłī":4879,"capt":4880,"Ġì§Ģë°©":4881,"ìĦ¸ê³Ħ":4882,"ëıĦìĭľ":4883,"Ġelect":4884,"ë§ĮìĿĺ":4885,"Ġinvest":4886,"ìĪĺë¡Ŀ":4887,"Ġíķĺë©°":4888,"Ðµ":4889,"Ġconfig":4890,"ised":4891,"ĠëĤ´ë¶Ģ":4892,"ë¹µ":4893,"ĠëĲĺìĹĪ":4894,"Ġimpro":4895,"Ġcontext":4896,"Om":4897,"Ġlink":4898,"ë¬¸ìĿĦ":4899,"ìĿĺë¥¼":4900,"ĠíĻĶìŀ¥":4901,"ĠìķĬìķĺëĭ¤":4902,"Ġì§ĳì¤ĳ":4903,"Ġsat":4904,"Ġì¢ĭëĭ¤":4905,"ì³¤":4906,"íĬľ":4907,"psi":4908,"Build":4909,"ìĪĺìĿĺ":4910,"ĠìĤ¬ëŀĮìĿĢ":4911,"ëŀĦ":4912,"ene":4913,"loat":4914,"includ":4915,"ëŀ¬":4916,"ëĮĢìĹĲ":4917,"Message":4918,"Ġappe":4919,"Ġë²Ĺ":4920,"ĠìĿ´ê³³":4921,"ords":4922,"ëŀ«":4923,"ìĥĿê°ģ":4924,"åħ":4925,"ëĦĺ":4926,"Ġparticular":4927,"ither":4928,"400":4929,"Ġëĭ¤ëĭĪ":4930,"Ġë°ĽìĿĦ":4931,"ìķĦê°Ģ":4932,"ĠFig":4933,"ains":4934,"ĠëĬĲëĤĮìĿ´":4935,"ĠPl":4936,"default":4937,"OO":4938,")(":4939,"ators":4940,"ê¸ĪìĿĦ":4941,"ĠìĹ°ëĿ½":4942,"Ġenc":4943,"ĠìĦ±ìŀ¥":4944,"Ġë¹ĦìĬ·":4945,"Ġì½ĺ":4946,"ìĿ´ë¸Ķ":4947,"}_{\\":4948,"define":4949,"Is":4950,"Ġë¬¼ê±´":4951,"UN":4952,"ê°Ķëĭ¤":4953,"Ġìķ½ê°Ħ":4954,"Ġaff":4955,"Ġëķħ":4956,"íķĺëįĺ":4957,"ĠíĮ¬":4958,"Ġcap":4959,"Ġëª¨ëį¸":4960,"Ġbase":4961,"Ġonline":4962,"Ġë£¨":4963,"Val":4964,"Ġëĭ¹ìĭľ":4965,"Ġê¸°ì¡´":4966,"ê´Ģê³Ħ":4967,"ìĿ´ëĿ¼ë©´":4968,"íŀĮ":4969,"ëĭ¤ëĭĪ":4970,"ë¶ĦìĹĲ":4971,"ĠëģĮ":4972,"Ġê·¸ëŀĺëıĦ":4973,"ĠìĭľìĬ¤íħľ":4974,"ê°ľë¥¼":4975,"ought":4976,"ë¡ľë¶ĢíĦ°":4977,"Ġë¶Ģëª¨":4978,"ì§ĢìĿĺ":4979,"ìĤ¬ìĹĲ":4980,"ention":4981,"Ġìĭľê°ĦìĿĦ":4982,"Ġ->":4983,"refer":4984,"naver":4985,"Ġturn":4986,".(":4987,"Ġcur":4988,"DI":4989,"ìľ¼ë©´ìĦľ":4990,"irt":4991,"nal":4992,"ìĸ´ëĸ":4993,"Ġë¶Ħëĵ¤ìĿ´":4994,"Ġwon":4995,"ording":4996,"Ġexc":4997,"âĪ":4998,"Ġaccount":4999,"eqnarray":5000,"Ġë³´ê¸°":5001,"ìł¸ìĦľ":5002,"Ġinclude":5003,"Ġìĺģìĸ´":5004,"ê²ĥìĿ´":5005,"Ġëª©íĳľ":5006,"ULL":5007,"Ġìłľì£¼":5008,"ĠìķĪëĤ´":5009,"ë¦°ëĭ¤":5010,"Ġsingle":5011,"style":5012,"ì¹¼":5013,"ìľ¼ë¡ľëĬĶ":5014,"ĠìłĦë§Ŀ":5015,"Ġìķķ":5016,"ĠìĦ¼":5017,"Ġschool":5018,"Ġtot":5019,"tainer":5020,"Ġassum":5021,"ird":5022,"ĠìĭľíĹĺ":5023,"Ġì½Ķë¡ľëĤĺ":5024,"Ġì¢ħë¥ĺ":5025,"Ġocc":5026,"ë¦¬ë¡ľ":5027,"ëĳ¥":5028,"Ġexist":5029,"bt":5030,"íĶ½":5031,"lient":5032,"ë¡Ńê²Į":5033,"ëĤĻ":5034,"omet":5035,"ands":5036,"iod":5037,"ëŁ¬ìĬ¤":5038,"Ġë¹Į":5039,"ĠëķĮëĬĶ":5040,"ĠìĨĮë¹Ħ":5041,"ole":5042,"ĠëĬ¦":5043,"oice":5044,"ival":5045,"vironment":5046,"ìĸ´ëĤľ":5047,"From":5048,"Omega":5049,"Ġê¸°ë¶Ħ":5050,"ë¬¸ìĿĺ":5051,"Ġê³łëł¤":5052,"ĠUS":5053,"Ġì§ľ":5054,"Ġjava":5055,"ë¦ĩ":5056,"65":5057,"ìī½":5058,"oh":5059,"lim":5060,"49":5061,"ored":5062,"Ġinitial":5063,"Ġprob":5064,"ĠíŀĪ":5065,"side":5066,"ĠìĹĨìĬµëĭĪëĭ¤":5067,"ëħĦìĹĲ":5068,"acy":5069,"Ġ};":5070,"Ġ__":5071,"íķĺëł¤":5072,"ìĹħì²´":5073,"Model":5074,"adi":5075,"Ġcalled":5076,"prot":5077,"Ġalong":5078,"ìĦľë¥¼":5079,"resh":5080,"ìłķìĹĲ":5081,"www":5082,"ê¸°ìĪł":5083,"ìĻĢìĦľ":5084,"Ġgeneral":5085,"íĶĦë¡ľ":5086,"Ġobserv":5087,"ê¹Ķ":5088,"Ġgot":5089,"ìłĦìŀĲ":5090,"ìĸµìĽĲ":5091,"Ġìĭ¤ìĭľ":5092,"Ġbig":5093,"ì²¨":5094,"Ġëª¨ìĸĳ":5095,"íĴĢ":5096,"uture":5097,"rid":5098,"Ġì£¼ì°¨":5099,"Ġê³§":5100,"Ġsomething":5101,"Ġë¹Ī":5102,"Ġdem":5103,"ëŃĲ":5104,"Ġsite":5105,"Ġmov":5106,"ĠìļĶêµ¬":5107,"Ġìĭľê³µ":5108,"Ġquality":5109,"ìĿ´ë©´":5110,"oney":5111,"Ġmeasure":5112,"ynam":5113,"gor":5114,"iction":5115,"ĠAp":5116,"bit":5117,"íı¬ì¸ł":5118,"ê·¸ëŁ°ëį°":5119,"ëł¤ìĦľ":5120,"Ġdescri":5121,")$,":5122,"ieve":5123,"ëģĦ":5124,"ê¸°ê³ł":5125,"ìĹĦë§Ī":5126,"And":5127,"íĻĢ":5128,"Ġmag":5129,"Ġtimes":5130,"idual":5131,"ysis":5132,"Dis":5133,"You":5134,"atter":5135,"ìĻľ":5136,"ENT":5137,"ideo":5138,"ëĤ´ëĬĶ":5139,"ru":5140,"Ġê¼¬":5141,"íķľëĭ¤ëĬĶ":5142,"include":5143,"Ġì´¬ìĺģ":5144,"ĠìĦłìĥĿ":5145,"ponse":5146,"Ġì«":5147,"ëĮ":5148,"ë¡±":5149,"sqrt":5150,"caption":5151,"ĠìĿ´ë²¤íĬ¸":5152,"Ġë¶Ģëĵľ":5153,"ĠìĻĦìĦ±":5154,"Ġë³´íĺ¸":5155,"ëĵľë¦´":5156,"ĠëıĦìĽĢìĿ´":5157,"CC":5158,"ãħĩ":5159,"info":5160,"ëľ¨":5161,"¾Į":5162,"Ġsever":5163,"Ġclos":5164,"Ġê±°ëŀĺ":5165,"Ġìĭľíĸī":5166,"Ġdat":5167,"ĠìĹ¼":5168,"ĠíĶ¼íķ´":5169,"Ġìļ°ë¦¬ëĬĶ":5170,"ĠìĤ¼ìĦ±":5171,"US":5172,"Ġjob":5173,"ìĺĢìĬµëĭĪëĭ¤":5174,"uments":5175,"ëĭµë³Ģ":5176,"ĠìķĬëĬĶëĭ¤":5177,"ì½©":5178,"Ġì¢ĭìķĦìļĶ":5179,"ê·¸ëŁ¼":5180,"Ġlot":5181,"ling":5182,"Ġì£Ħ":5183,"meric":5184,"ĠëĤĺë¥¼":5185,"Ġeng":5186,"aint":5187,"Ġche":5188,"ĠëĶ°ë¡ľ":5189,"ìĤŃ":5190,"Ġcompon":5191,"Loc":5192,"Ġbackground":5193,"ĠíĻķìĭ¤":5194,"Ġmove":5195,"Ġalready":5196,"Gamma":5197,"book":5198,"Ġíĺķíĥľ":5199,"ëĲĲ":5200,"Ġê±´ë¬¼":5201,"Ġclear":5202,"--------------------------------":5203,"imate":5204,"Ġì»´":5205,"=\"../../../../":5206,"base":5207,"ĠìŀĲëıĻì°¨":5208,"uage":5209,"Ġdeterm":5210,"down":5211,"Ġwebs":5212,"Ġcorrespon":5213,"Ġë§ĽìĿ´":5214,"ê°ľë°ľ":5215,"Ġnil":5216,"Ġë¬´ìĬ¨":5217,"Ġê²¨ìļ¸":5218,"Table":5219,"roller":5220,">&":5221,"ibility":5222,"ëĵ±íķĻêµĲ":5223,"Ġdiscuss":5224,"eps":5225,"ĠíĮĲëĭ¨":5226,"Ġë§ĪìĿĮìĹĲ":5227,"ĠíĿĺ":5228,"gt":5229,"ĠëĮĢíķĻ":5230,"Ġreport":5231,"ì§ĢìķĬ":5232,"Ġcover":5233,";&":5234,"Ġmean":5235,"Ġrequired":5236,"Ġë¨¸ë¦¬":5237,"ìĥ¤":5238,"Ġcomb":5239,"Ġdefined":5240,"oper":5241,"Ġì§ĳìĹĲ":5242,"Ġì²ŃìĨĮ":5243,"ocial":5244,"íĮ©":5245,"ëıĦëĬĶ":5246,"su":5247,"Trans":5248,"ename":5249,"inc":5250,"ume":5251,"ìŀĲë¡ľ":5252,"ì§ĵ":5253,"Ġë¯¸ë¦¬":5254,"He":5255,"ĠìķĦëĭĪëĭ¤":5256,"ê°ľìĿĺ":5257,"Ġì´ī":5258,"bug":5259,"start":5260,"ĠìķĪìĹĲ":5261,"47":5262,"ê·¸ëĥ¥":5263,"ìķĺìĸ´ìļĶ":5264,"oud":5265,")'":5266,"ĠPh":5267,"Out":5268,"ìºĲ":5269,"Le":5270,"ĠAd":5271,"Ġìĭľìŀ¥":5272,"textbf":5273,"ĠìłĦíĺĢ":5274,"Ġnever":5275,"gorith":5276,"pose":5277,"ê¼¬":5278,"Ġë´Ħ":5279,"Ġunt":5280,"ìĦ¸ëĮĢ":5281,"rodu":5282,"ĠìĹĶ":5283,"Ġì°įìĸ´":5284,"ĠĊĊ":5285,"Ġë¶Ħëĵ¤":5286,"ĠOr":5287,"Ġside":5288,"lt":5289,"Inter":5290,"){":5291,"Ġes":5292,"Ġê°Ĳëıħ":5293,"Ġlaw":5294,"ĠëĤĺë¬´":5295,"íĩ´":5296,"using":5297,"ê·¸ëŁ¬ëĤĺ":5298,"Up":5299,"ĠìĿ´ëĬĶ":5300,"''":5301,"ĠìµľëĮĢ":5302,"ãİ¡":5303,"ĠìľĦìĹĲ":5304,"Ġêº¼":5305,"Log":5306,"bed":5307,"ë³¶":5308,"AP":5309,"ks":5310,"rist":5311,"Ġmessage":5312,"non":5313,"reate":5314,"ĠëĶ°ëĿ¼ìĦľ":5315,"Ser":5316,"next":5317,"ĉĉĉĉĉĉ":5318,"subsection":5319,"Ġì²´íĹĺ":5320,"150":5321,"bm":5322,"ended":5323,"Ġdone":5324,"197":5325,"ìķ¤":5326,"ĠìĹ¬ëŁ¬ë¶Ħ":5327,"âĻ¡":5328,"Ġìĸ´ì©":5329,"ĠëĶ°ë¥´ë©´":5330,"Ġca":5331,"Ġneeds":5332,"Ġë§ĪìĿĮìĿĦ":5333,"ĠSc":5334,"Ġben":5335,"Ġroom":5336,"ĠìĬ¤ìĬ¤ë¡ľ":5337,"ìĦŃ":5338,"Ġstudy":5339,"ĠìĹħì²´":5340,"Ġgame":5341,"Ġpract":5342,"orn":5343,"place":5344,"ĠíĥĿ":5345,"Ġprom":5346,"ëĤĺê²Į":5347,"Ġbelow":5348,"Ġmeans":5349,"ĠíĽĦê¸°":5350,"ĠìĹĨìĿĦ":5351,"ĠìĿ¸íĦ°ëĦ·":5352,"ëĵľìĭľ":5353,"ëĶ±":5354,"Reg":5355,"ĠìĹĨìĹĪëĭ¤":5356,"Ġcomplet":5357,"Manager":5358,"andom":5359,"ĠìĿ¸ìĥĿ":5360,"Ġ($":5361,"ìĬ¤ìĿĺ":5362,"option":5363,"ping":5364,"ĠëĤĻ":5365,"Ġshort":5366,"oose":5367,"ĠíķĻìĬµ":5368,"ably":5369,"ĠEn":5370,"ĠPr":5371,"ĠìĪ¨":5372,"ëĤ©":5373,"ëĸ¡":5374,"Ġê°Ģì§Ħ":5375,"ĠêµŃìłľ":5376,"ĠëĮĢë¹Ħ":5377,"ì¢Ģ":5378,"ë°ĶìĿ´":5379,"Ġcou":5380,"ĠìĹħë¬´":5381,"Ġíķµ":5382,"Ġaction":5383,"íģ°":5384,"ĠìĺĪìģĺ":5385,"ìĹ¬ëŁ¬":5386,"TH":5387,"ĠìĭľìĽĲ":5388,"ĠNo":5389,"ìĿ´ëĿ¼ëıĦ":5390,"ë°¤":5391,"ãħľãħľ":5392,"ĠíķłìĿ¸":5393,"Ġë°©íĸ¥":5394,"Ġfour":5395,"Ġresearch":5396,"ìĦ±ê³¼":5397,"ê²½ë§¤":5398,"ìľ¼ë¡ľìį¨":5399,"Ġìĵ¸":5400,"ĠìľĦíĹĺ":5401,"Ġëĵ¤ê³ł":5402,"ìĹ½":5403,"iple":5404,"íģ¬ë¦¼":5405,"ì²ĺìĿĮ":5406,"Ġsoft":5407,"Ġê³Ħìķ½":5408,"Ġíĺ¸íħĶ":5409,"check":5410,"ĠHowever":5411,"ĠìĥģëĮĢ":5412,"tes":5413,"Ġê°ķíĻĶ":5414,"Ġì°¬":5415,"ìĺµ":5416,"Ġê°ľìĦł":5417,"init":5418,"íĸĪì§Ģë§Į":5419,"ĠëĤĺìĦľ":5420,"Ġdue":5421,"BC":5422,"Ġsrc":5423,"ì¡°ê±´":5424,"ending":5425,"Ġë¶ĢëıĻìĤ°":5426,"Ġunderstand":5427,"Color":5428,"Ġê½¤":5429,"icro":5430,"content":5431,"88":5432,"Ġê³³ìĿ´":5433,"ì»´":5434,"íķĺìħ¨":5435,"ĠìĻ¸êµŃ":5436,"Ġë¹¨ë¦¬":5437,"ĠĠĠĠĠĠĠĠĠĠĠĠ":5438,"Query":5439,"Ġê³µìĹ°":5440,"ĠìĦ¬":5441,"ë¹Ħê°Ģ":5442,"Ġsimilar":5443,"Ġdays":5444,"Ġë¶Ģíĥģ":5445,"Ġê¹¨ëģĹ":5446,")=":5447,"ĠWhen":5448,"Ġstandard":5449,"Ġlay":5450,"ë§ĪìĿĦ":5451,"46":5452,"Ap":5453,"Ġêµ¬ê²½":5454,"ìĥģìĿĢ":5455,"ĠíĺĪ":5456,"ĠìĥĿê°ģìĿĦ":5457,"light":5458,"method":5459,"istr":5460,"ĠAt":5461,"Ġdom":5462,"ë¶ĢìĤ°":5463,"ëĤĺê³ł":5464,"ê²½ìłľ":5465,"ìľ¼ë¡ľëıĦ":5466,"Ġë¬»":5467,"ìļ´ëıĻ":5468,">(":5469,"êµ¬ë¥¼":5470,"ì¤¬":5471,"ĠBe":5472,"ê³Ħíļį":5473,"ĠìłĦêµŃ":5474,"ĠëĭĪ":5475,"Ġë§¤ìĿ¼":5476,"Ġì¡¸":5477,"Ġì£¼ìļĶ":5478,"Ġ${\\":5479,"Ġíķĺê²Į":5480,"Ġbro":5481,"ìķĺëĬĶëį°":5482,"ĠĠĠĠĠĠĠĠĠĠ":5483,"Ġsection":5484,"ĠìķĦë²Ħ":5485,"ë¶Ģë¥¼":5486,"context":5487,"Ġãħĭ":5488,"ìĬ¤íĨł":5489,"java":5490,"ì¶Ķì²ľ":5491,"ĠìĬ¤ë§ĪíĬ¸":5492,"ender":5493,"Ġë¯¸ëŀĺ":5494,"sign":5495,"Ġì¶Ķì§Ħ":5496,"ĠíĺĦìĭ¤":5497,"Ġworking":5498,"my":5499,"reen":5500,"ìĹ¬ìĦľ":5501,"Ġparent":5502,"ìĭ¬ìĿĦ":5503,"íľĺ":5504,"ĠìĿ´ìľłëĬĶ":5505,"ê²łìĸ´ìļĶ":5506,"ë³´ìĦ¸ìļĶ":5507,"ìĭľê¸°":5508,"Ġìĺģíĸ¥ìĿĦ":5509,"isf":5510,"vare":5511,"Ġê²½ìļ°ìĹĲëĬĶ":5512,"!\"":5513,"doc":5514,"orage":5515,"iversity":5516,"ì§Ģê²Į":5517,"ĠWith":5518,"struction":5519,"onse":5520,"ĠìĤ°ìĹħ":5521,"Ġsearch":5522,"Ġë§ĽìŀĪëĬĶ":5523,"call":5524,"mp":5525,"ë¹Ļ":5526,"ersion":5527,"Ġbody":5528,"Ġê·ľëª¨":5529,"âĸ²":5530,"ìħĶìķ¼":5531,"ë»Ĳ":5532,"OP":5533,"Ġíķ´ìĻ¸":5534,"Ġê·¸ëŁ°ëį°":5535,"Ġìĸ´ìļ¸":5536,"TD":5537,"Ġìķ¡":5538,"ĠíļĮìĤ¬":5539,"Ġíķĺëĭ¤":5540,"ides":5541,"ĠìĨĮìŀ¬":5542,"annel":5543,"95":5544,"ê°ĢìĦľ":5545,"ëĿ¼ìļ´":5546,"Ġíİ¼":5547,"ĠâĹ":5548,"User":5549,"ê¼¼":5550,"Ġstrong":5551,"Ġë§ŀëĬĶ":5552,"Ġresponse":5553,"ifier":5554,"Ġê°ģê°ģ":5555,"íķĺê¸°ëıĦ":5556,"---":5557,"īìŀ¥íŀĪ":5558,"Ġëĭ¬ëĿ¼":5559,"Ġvol":5560,"ìĹĲìĦľìĿĺ":5561,"ë¦¬ê¸°":5562,"varepsilon":5563,"ij":5564,"ĠìĬµ":5565,"Fil":5566,"Ġchildren":5567,"Ġmus":5568,"ĠëĴ·":5569,"42":5570,"Ġê²½ìŁģ":5571,"ê³¼ëĬĶ":5572,"Pl":5573,"ĠSet":5574,"ìĿ´ìħĺ":5575,"ubl":5576,"AM":5577,"ĠìĤ¬ì§ĦìĿĦ":5578,"âĢ¤":5579,"Ġnear":5580,"Ġfocus":5581,"posed":5582,"ìļ°ëĬĶ":5583,"Ġlearn":5584,"ëĲĺìĹĪ":5585,"Ġsec":5586,"fect":5587,"Ġê²Ģìĥī":5588,"Ġâĺ":5589,"íļĮê°Ģ":5590,"ĠíĿ¥":5591,"Ġproducts":5592,"Ġëĵ±ìŀ¥":5593,"íĸĪëĭ¤ê³ł":5594,"Ġsche":5595,"\\!":5596,"ê°ĢìļĶ":5597,"Ġê°ĸê³ł":5598,"Ġëģ¼":5599,"Ġè":5600,"ìĻĢìĿĺ":5601,"Ġmaking":5602,"Ġëª»íķľ":5603,"aim":5604,"imension":5605,"ìĸ´ë¥¼":5606,"Ġassoci":5607,"^{(":5608,"Ġê³µëıĻ":5609,"Ġíĩ´":5610,"}=":5611,"inary":5612,"Ġë°ĸìĹĲ":5613,"ë¨¹ê³ł":5614,"ĠìĬĪ":5615,"DO":5616,"ë§Ľì§ĳ":5617,"do":5618,"ĠëĪĪìĹĲ":5619,"ĠìĤ¬íķŃ":5620,"ëĭī":5621,"af":5622,"ĠíĿ¡":5623,"Ġìĺ¤ë¥¸":5624,"ĠëĶ°ëľ»":5625,"ëĨĵê³ł":5626,"Ġë¬¸ìłľê°Ģ":5627,"ìĥģëĭ´":5628,"ids":5629,"ìķĦíĮĮíĬ¸":5630,"Ġeasy":5631,"Property":5632,"ëĵ¤ìĹĲ":5633,"earch":5634,"ring":5635,"ĠìķŀìĹĲ":5636,"íķĺëĭ¤ëĬĶ":5637,"package":5638,"Ġë¹Ħìļ©":5639,"Ġmatch":5640,"ëĢ":5641,"Ġmodels":5642,"css":5643,"Ġìŀĺëª»":5644,"ì¼°":5645,"Ġìĺ¤ëŀľ":5646,"å®":5647,"anel":5648,"ĠAmeric":5649,"Ġindiv":5650,"Ġoutput":5651,"ìĽħ":5652,"ector":5653,"Response":5654,"cul":5655,"Ġtoget":5656,"ìĿ´ëĭĪ":5657,"ëĭĺìĿĢ":5658,"Ġcell":5659,"Ġê³µê¸ī":5660,"Ġtogether":5661,"Ġhist":5662,"ê±°ëŀĺ":5663,"Ġdocument":5664,"df":5665,"Ġvisit":5666,"room":5667,"joy":5668,"ĠìĤ¬ëĬĶ":5669,"Ġë²½":5670,"ê²½ê¸°":5671,"ĠìŀĬ":5672,"âĢ»":5673,"Ġë¶Ħìķ¼":5674,"ëĮĢíķĻêµĲ":5675,"ìĹ°íŀĪ":5676,"íĹĮ":5677,"Ġcount":5678,"ĠThese":5679,"Ġë²Īì§¸":5680,"ĠìŀĪìľ¼ë©´":5681,"Ġìłķì±ħ":5682,"}^{\\":5683,"Ġìĥ¤":5684,"íĶ¼ìĬ¤":5685,"Ġ\\,":5686,"count":5687,"ĠìĿĺíķ´":5688,"ìĬ¤ëŁ½ê²Į":5689,"Ġì»¬ëŁ¬":5690,"Ġmom":5691,"Ġuntil":5692,"íĵ¨íĦ°":5693,"Ġëĥī":5694,"Ġë§ĮëĵľëĬĶ":5695,"Ġìłľê±°":5696,"ëĭĪëĭ¹":5697,"amples":5698,"Ġê²½ìļ°ê°Ģ":5699,"ĠìĮĵ":5700,"Ġrecent":5701,"Ġìį":5702,"false":5703,"Ġleg":5704,"Ġë§Īë¬´ë¦¬":5705,"eter":5706,"Client":5707,"ê·¸ëłĩ":5708,"ê°Ģê³ł":5709,"ëª¸":5710,"Ġì£¼íĥĿ":5711,"gress":5712,"Call":5713,"ĠëĮĢìĭł":5714,"Ġleast":5715,"istic":5716,"ina":5717,"íŀĪëł¤":5718,"ograph":5719,"Ġpoints":5720,"Ġsimple":5721,"Ġbool":5722,"Ġë°ĽëĬĶ":5723,"Ġì¤ĳìĹĲ":5724,"ĠìĹĨìĸ´ìĦľ":5725,"ìĿ¼ìĹĲ":5726,"ê°ĢìĿĺ":5727,"Ġtask":5728,"ìĺģìĥģ":5729,"ĠìĤ¬ëĿ¼":5730,"Ġprevious":5731,"Ġëĵ±ìĹĲ":5732,"Comm":5733,"ĠìŀĪëĬĶëį°ìļĶ":5734,"Ġden":5735,"Ġterms":5736,"Ġì£¼ê³ł":5737,"ĠìĦłìĪĺ":5738,"ĠShe":5739,"ëĤ´ê³ł":5740,"Ġdri":5741,"ĠìĿ´ëĤł":5742,"Ġmeet":5743,"Ġë³Ħë¡ľ":5744,"Ġì¡°ìĤ¬":5745,"includeg":5746,"ê¸°ìĻĢ":5747,"IL":5748,"includegraphics":5749,"ental":5750,"================":5751,"core":5752,"ising":5753,"ĠBl":5754,"Ġë°ĳ":5755,"ĠTV":5756,"Ġfac":5757,"ĠìĮ":5758,"select":5759,"Ġìłķì¹ĺ":5760,"Count":5761,"google":5762,"Pr":5763,"Aut":5764,"Ġshown":5765,"ë¶ĢëĬĶ":5766,"Ġëĺĳ":5767,"Ġmaterial":5768,"ĠëĪĦêµ¬":5769,"Ġbit":5770,"ëıĦìĹĲ":5771,"ĠTe":5772,"Ġexpected":5773,"Ġsal":5774,"Ġìľ¼":5775,"rior":5776,"ĦìĥĪ":5777,"CE":5778,"ìŀĲë¦¬":5779,"Ġê°Ģìŀħ":5780,"static":5781,"Ġask":5782,"Ġport":5783,"options":5784,"Ġtool":5785,"Ġlooking":5786,"íĺĦìŀ¬":5787,"ĠìĿ¼ëĭ¨":5788,"ns":5789,"Ġë¶Ħëĵ¤ìĿĢ":5790,"Ġìłľìĭľ":5791,"Ġtoday":5792,"Ġì¢ĭê³ł":5793,"Ġpotential":5794,"ìĥģíĴĪ":5795,"ï¸":5796,"ìĥģíĥľ":5797,"](":5798,"android":5799,"ĠìŀĪëĭ¤ë©´":5800,"func":5801,"íŀĺ":5802,"ĠíĥĢìĿ´":5803,"creen":5804,"Ġfeatures":5805,"ithub":5806,"db":5807,"120":5808,"íĬ¸ë¡ľ":5809,"ëįĶêµ°ìļĶ":5810,"now":5811,"ĠíĽ¨":5812,"Ġlarg":5813,"ĠëŃĶê°Ģ":5814,"ê²Ĳ":5815,"ĠíĬ¹ì§ķ":5816,"85":5817,"proof":5818,"ëĭĲ":5819,"ìķĦë¬´":5820,"rangle":5821,"ĠëĦĺìĸ´":5822,"ĠìĿ´ìĹĲ":5823,"Ġparameters":5824,"ìķĦìķ¼":5825,"êµŃìĿĺ":5826,"ìĺģíĻĶ":5827,"Ġlength":5828,"ĠëıĦìĻĢ":5829,"ëĲĺë©´":5830,"Ġwidth":5831,"ëĭĺìĿĦ":5832,"ĠíĶĦë¦¬":5833,"Ġê´Ģê´ĳ":5834,"ĠíķĺëĭĪ":5835,"uation":5836,"rel":5837,"ë©Ķëī´":5838,",\"":5839,"ained":5840,"Ġ!!":5841,"HE":5842,"dev":5843,"Ġfood":5844,"ìłĦíŀĪ":5845,"Ġoften":5846,"wid":5847,"ĠìĿ´ìķ¼ê¸°ë¥¼":5848,"Ġtotal":5849,"Ġkind":5850,"Ġëĵ±ë¡Ŀ":5851,"ĠìķĦìī¬":5852,"Read":5853,"Ġpaper":5854,"ëĿ¼ìĬ¤":5855,"km":5856,"Ġemploy":5857,"ê°Ĵ":5858,"orth":5859,"Ġoption":5860,"ìĿĮìĿ´":5861,"ìª½ìľ¼ë¡ľ":5862,"Ġcourse":5863,"Ġì²¨":5864,"MS":5865,"Ġprint":5866,"ĠíĸīëıĻ":5867,"Ġë¹µ":5868,"Ġê³¡":5869,"Ġíķĺìĭľ":5870,"aps":5871,"ë©ĶëĿ¼":5872,"Ã©":5873,"Ġì¶ľë°ľ":5874,"outh":5875,"emph":5876,"Ġstudents":5877,"ĠëĦ£ê³ł":5878,"ĠëŁ¬":5879,"clus":5880,"Arg":5881,";</":5882,"Ġëª»íķĺê³ł":5883,"Ġeither":5884,"Ġë§Ĳê³ł":5885,"Ġsolution":5886,"Ġseveral":5887,"pen":5888,"77":5889,"Ġì§§":5890,"ï½":5891,"ë½":5892,"NA":5893,"rightarrow":5894,"âĹĭ":5895,"Ġq":5896,"Ġtreat":5897,"ĠëĵľëŁ¬":5898,"ãĢı":5899,"Ġì£¼ë§Ĳ":5900,"íķłìĪĺ":5901,"ëĭĮ":5902,"ëĵłì§Ģ":5903,"íĻĪ":5904,"Ġê³µê²©":5905,"erc":5906,"ips":5907,"êµ¬ë§¤":5908,"íķ¨ìĿ´":5909,"New":5910,"oll":5911,"Ġë°Ķëĭ¤":5912,"mult":5913,"Ġëįľ":5914,"Ġstd":5915,"Ġë³´ìĿ¸ëĭ¤":5916,"ĠìłľìĻ¸":5917,"print":5918,"alf":5919,"Ġê²ģ":5920,"ìĹħìĿĦ":5921,"Ġìºł":5922,"ä¹":5923,"Ġë§ĪìĿĮìĿ´":5924,"Ġì§ĢëĤľíķ´":5925,"web":5926,"Big":5927,"chi":5928,"Ġë¹Ħíķ´":5929,"ìķĦì§Ģ":5930,"Ġindividual":5931,"ëĴ¤":5932,"ìĤ¬ìĻĢ":5933,"Ġíĺ¹ìĿĢ":5934,"ìłķìĿĺ":5935,"ĠíĸĪìĬµëĭĪëĭ¤":5936,"Ġvalid":5937,"Ġperformance":5938,"build":5939,"âĳł":5940,"Ġfun":5941,"aring":5942,"íĥĳ":5943,"ìĦľë¹ĦìĬ¤":5944,"ìĽĲìĹĲìĦľ":5945,"ĠëĤ¨íİ¸":5946,"Ġê·¸ëŁ°ì§Ģ":5947,"ĠíķĦìĪĺ":5948,"ìĦ¸ë¥¼":5949,"ĠíĭĢ":5950,"ë£©":5951,"Ġfore":5952,"Override":5953,"ĠëĳĲê³ł":5954,"Be":5955,"Ġê¸Īìľµ":5956,"Mod":5957,"ĠìĺĪìĪĺ":5958,"ework":5959,"Ġlimit":5960,"Method":5961,"older":5962,"ĠAdd":5963,"íĶĦíĬ¸":5964,"ìĸĳìĿ´":5965,"ë§ĪìŀĲ":5966,"Ġlik":5967,"åı":5968,"ê°ĢëĿ½":5969,"opt":5970,"ĠëģĬ":5971,"Ġquant":5972,"actory":5973,"mark":5974,"Ġspecific":5975,"âĶĢâĶĢâĶĢâĶĢ":5976,"ëĭŃ":5977,"Ġê±·":5978,"Ġapp":5979,"ëĵľë¡ľ":5980,"ĠìŀĲìĭłìĿ´":5981,"Ġëĭ¬ë¦¬":5982,"Ġë°ľìłĦ":5983,"Ġãħł":5984,"Ġwebsite":5985,"No":5986,"Ġê°ķì¡°":5987,"Ġë°ĶìĿ´":5988,"Ġoriginal":5989,"Ġaway":5990,"ê³Ħë¥¼":5991,"imation":5992,"ĠëĤĺëĪĦ":5993,"ills":5994,"ì¶¤":5995,"Ġë°ĶëĢ":5996,"ĠìķĬìĬµëĭĪëĭ¤":5997,"Ġagainst":5998,"Ġëĭ¤ë¥´":5999,"thers":6000,"íı´":6001,"Ġcharacter":6002,"íĶĦë¦¬":6003,"Ġë¶Īíİ¸":6004,"íĻĶê°Ģ":6005,"íģĲ":6006,"Ġstructure":6007,"Ġwindow":6008,"ĠëıĻìĭľìĹĲ":6009,"][":6010,"((":6011,"Ġwhether":6012,"Ġindust":6013,"ĠLe":6014,"active":6015,"ajor":6016,"ope":6017,"Ð¸":6018,"Ġìłķìĥģ":6019,"ë¶Ļ":6020,"Ġì¢ĭìĬµëĭĪëĭ¤":6021,"%,":6022,"github":6023,"geq":6024,"Ġshows":6025,"Ġhum":6026,"íķĺëıĦë¡Ŀ":6027,"ĠìŀĪëĭµëĭĪëĭ¤":6028,"ĠThen":6029,"SP":6030,"=\"../":6031,"Ġìĺ¤ìłĦ":6032,"Ġì£¼ìĿ¸":6033,"ocol":6034,"Ġtraining":6035,"namespace":6036,"center":6037,"ê¶ĮìĿĦ":6038,"ï¸ı":6039,"ĠìĬ¤íĥĢìĿ¼":6040,"Wh":6041,"Ġë¸ĶëŀĻ":6042,"current":6043,"ë¤":6044,"íķĻê³¼":6045,"ê²łëĭ¤ëĬĶ":6046,"íĸĪìĿĦ":6047,"Ġìŀĥ":6048,"hand":6049,"Ad":6050,"ĠâĢĺ":6051,"ĠíĻĪíİĺìĿ´ì§Ģ":6052,"Ġê²©":6053,"ìķĪìĹĲ":6054,"semb":6055,"Ġspect":6056,"Group":6057,"Â·Â·Â·Â·Â·Â·Â·Â·":6058,"Ġhaving":6059,"Ġabs":6060,"ĠðŁ":6061,"Ġstre":6062,"Ġenough":6063,"ë¶Ģê°Ģ":6064,"Ġcontact":6065,"Ġìļ°ìĦł":6066,"800":6067,"Ġë³´íĨµ":6068,"Ġsatisf":6069,"ë¬¼ë¡ł":6070,"Ġcertain":6071,"ai":6072,"ĠëĤĺëĪ":6073,"ony":6074,"ĠìŀĪìĿĮ":6075,"ëĭĺëĵ¤":6076,"ìķĺëįĺ":6077,"oop":6078,"There":6079,"Ġmot":6080,"ìłķìĿĢ":6081,"ë§ĮìĿĦ":6082,"Ġann":6083,"Builder":6084,"ëĵ¯ìĿ´":6085,"Ġì¡°ì§ģ":6086,"ensity":6087,"Ġload":6088,"ä»":6089,"Ġbuy":6090,"argin":6091,"Ġì³":6092,"Ġê°ĢìĬ´":6093,"Stream":6094,"Pre":6095,"Ġ<<":6096,"ĠìĿ¼ìĸ´ëĤĺ":6097,"ĠìĦŃ":6098,"ently":6099,"Ġìľłëªħíķľ":6100,"Ġmakes":6101,"aff":6102,"ĠìĿ¸ì²ľ":6103,"Ġìĭ±":6104,".~\\":6105,"Ġknown":6106,"Let":6107,"ĠInst":6108,"Ġdisplay":6109,"ì°¨ë¥¼":6110,"ĠìłĦìĭľ":6111,"ìĥµ":6112,"asing":6113,"illion":6114,"Ġclient":6115,"Ġparameter":6116,"Ġëĵł":6117,"ëłĢ":6118,"ìķĪìĿĦ":6119,"Ġpred":6120,"Ġì¤ĳê°Ħ":6121,"Ġíĺľ":6122,"astic":6123,"ike":6124,"vec":6125,"ĠìĺĪìģľ":6126,"ĠëĿ¼ìĿ´":6127,"EE":6128,"âĳ¡":6129,"ë¦¬ì¦Ī":6130,"Ġdiff":6131,"Ġíıīê·ł":6132,"ilt":6133,"ëħ¼":6134,"ìľ¼ë¡ľìĦľ":6135,"íĿ¡":6136,"Ġitem":6137,"Ġrate":6138,"Ġìĺ¨ëĿ¼ìĿ¸":6139,"åŃ":6140,"ì¦ĿìĿĦ":6141,"ĠâĶ":6142,"Ġê°ĢëĬ¥íķ©ëĭĪëĭ¤":6143,"Ġê³łê¸ī":6144,"Fr":6145,"cast":6146,"ãģ®":6147,"=\"#":6148,"ì»µ":6149,"íķĻëħĦ":6150,"íĭ´":6151,"ê´ĢìĿ´":6152,"ê°Ģê¸°":6153,"Ġë°ĸ":6154,"ĠìĤ¬ìĿ´ì¦Ī":6155,"???":6156,"¸ëĵľ":6157,"Ġcard":6158,"Ġë¶Ħëªħ":6159,"Ġë¹Ħë¡¯":6160,"null":6161,"ë³Ħë¡ľ":6162,"End":6163,"ìĨĮë¦¬":6164,"avel":6165,"overline":6166,"ley":6167,"ì»¤íĶ¼":6168,"ĠíĽ¨ìĶ¬":6169,"Ġstep":6170,"sup":6171,"ĠìľĦíķĺìĹ¬":6172,"Ġ****":6173,"Ġêµīìŀ¥íŀĪ":6174,"lev":6175,"ÑĤ":6176,"Ġlang":6177,"600":6178,"Ġë³´íĹĺ":6179,"ĠNULL":6180,"ëĭ¨ê³Ħ":6181,"run":6182,"Ġmoney":6183,"roups":6184,"ĠìĦłìłķ":6185,"ìķĦëŀĺ":6186,"Ġë³Ģê²½":6187,"ĠìķĦë§Ī":6188,"Ġindic":6189,"Ġprofession":6190,"event":6191,"varphi":6192,"])":6193,"ĠIN":6194,"image":6195,"ìŀī":6196,"Ġgover":6197,"lib":6198,"Ġìļ°ë¦¬ëĤĺëĿ¼":6199,"ĠìķĪìłķ":6200,"atform":6201,"Ġtrad":6202,"ì¤Ģëĭ¤":6203,"41":6204,"Ġì£¼ìŀ¥":6205,"íİľ":6206,"ëĳĲê³ł":6207,"ĠìłĪëĮĢ":6208,"Ġê°ģì¢ħ":6209,"Ġreason":6210,"Ġprovided":6211,"Ġì§Ģì¼ľ":6212,"ury":6213,"43":6214,"ĠìĨĮë¦¬":6215,"íĻľëıĻ":6216,"Input":6217,"element":6218,"Ġì¼Ģ":6219,"ë¦ī":6220,"omen":6221,"ìŀĲìĻĢ":6222,"ê²łëĭ¤ê³ł":6223,".}":6224,"Ġì§Ģê¸ī":6225,"ìłĦíĻĶ":6226,"Ġpast":6227,"page":6228,"Ġamount":6229,"(?)":6230,"'re":6231,"ìŀĸìķĦìļĶ":6232,"ĠĠĠĠĠĠĠĠĠĠĠĠĠĠĠĠĠĠĠĠĠĠĠĠĠĠĠĠĠĠĠ":6233,"ison":6234,"ê±´ê°ķ":6235,"Ġ()":6236,"ëĬĲëĥĲ":6237,"abase":6238,"Ġperiod":6239,"ĠìĹĺ":6240,"Ġbecome":6241,"ĠíĽĪ":6242,"Ġcreat":6243,"Ġwhy":6244,"ë©ĺ":6245,"Ġfar":6246,"Ġphys":6247,"ĠìĽĲíķĺëĬĶ":6248,"íķĺë£¨":6249,"ĠBy":6250,"ìĤ¬ê³ł":6251,"ĠëĲĺì§Ģ":6252,"ĠSp":6253,"Ġregion":6254,"ëł¤ë©´":6255,"67":6256,"ĠíĥĲ":6257,"Ġë°ĺìĿĳ":6258,"ìĿ¼ë³¸":6259,"Ġreview":6260,"ëŁīìĿ´":6261,"íĿĲ":6262,"xy":6263,"ê°ľìĿ¸":6264,"}).":6265,"ĠâĻ":6266,"uro":6267,"Ġfa":6268,"client":6269,"Ġfuture":6270,"ìª½ìĹĲ":6271,"ì¹ĺë£Į":6272,"ration":6273,"ìŀĪê²Į":6274,"Ġë¹łë¥´ê²Į":6275,"Ġimplement":6276,"ĠOur":6277,"EX":6278,"si":6279,"59":6280,"Ġì£¼ìĿĺ":6281,"ì²«":6282,"Ġnat":6283,"íķłëķĮ":6284,"ë¶ĦìĿĦ":6285,"PC":6286,"Ġclean":6287,"ëģĪ":6288,"ONT":6289,"Ġëģĵ":6290,"ĠëĮĢêµ¬":6291,"Ġìĭ¶ëĭ¤":6292,"ĠìĻĢìĦľ":6293,"Ġenjoy":6294,"ëĤ¼":6295,"Ġfurther":6296,"ëĮĢíĳľ":6297,"Ġë§¨":6298,"Rec":6299,"ì¹´ëĵľ":6300,"ĠCent":6301,"ĠìĪĺíĸī":6302,"ìĨĮíķľ":6303,"ĠìķĦëĭĲ":6304,"kg":6305,"AG":6306,"ĠëĳĺëŁ¬":6307,"ategory":6308,"ìĹĪì§Ģë§Į":6309,"Ġíģ´ë¦Ń":6310,"Ġìĺ®":6311,"Ġìŀłìĭľ":6312,"Ġë§ŀì¶°":6313,"ìĿ¼ë°ĺ":6314,"Ġtre":6315,"ì¤įëĭĪëĭ¤":6316,"ĠIs":6317,"Ġì½ľ":6318,"ë¡¤":6319,"ëģĿ":6320,"icense":6321,"[\\":6322,"ĠCan":6323,"Ġìŀ¥ìĨĮ":6324,"ìŀ¥ìľ¼ë¡ľ":6325,"ë¦ŃíĦ°":6326,"ëĵ¬":6327,"Ġmethods":6328,"Bar":6329,"ìŀĲëıĻì°¨":6330,"ining":6331,"Ġì¤ĳìķĻ":6332,"Ġìĺ¤íĶĪ":6333,"gorithm":6334,"ilities":6335,"ìłľëĬĶ":6336,"ìĿ¼ëĭ¨":6337,"ìĦ±ìĹĲ":6338,"query":6339,"wise":6340,"Ġê°Ķëĭ¤":6341,"ĠìķĦëĭĪê³ł":6342,"Status":6343,"ĠìĤ¬ë¬´":6344,"Ġsystems":6345,"ì¶ľì²ĺ":6346,"Ġhouse":6347,"Ġì¶ľìĭľ":6348,"uster":6349,"ĠìĪĺìĿµ":6350,"ìŀĲëĵ¤ìĿ´":6351,"ëĨĢìĿ´":6352,"ìĿ´ìĸ´íĬ¸":6353,"Ġcomplete":6354,"ëĦĪì§Ģ":6355,"Ġapproach":6356,"ection":6357,"Image":6358,"Ġfunctions":6359,"Ġhost":6360,"Ġweight":6361,"ĠìĿ¸íħĮë¦¬ìĸ´":6362,"Util":6363,"Ġacross":6364,"most":6365,"Ġflow":6366,"ìĤ°ìĿĦ":6367,"flow":6368,"Date":6369,"ë§ĮìĿ´":6370,"Ġìłģê·¹":6371,"Ġsignific":6372,"ì¥¬":6373,"ĠDes":6374,"Ġëĭ¤ê°Ģ":6375,")</":6376,"âĻ¥":6377,"Ġê°Ģê²Į":6378,"Ġìĭľì¦Į":6379,"Ġë°ĺëĵľìĭľ":6380,"&\\":6381,"ìĸ´ì§Ħ":6382,"Ġì£¼ë¯¼":6383,"Ġandroid":6384,"draw":6385,"dir":6386,"ë²¼":6387,"ĠThat":6388,"height":6389,"Ġì§Ģíķĺ":6390,"ëĮĢëĬĶ":6391,"Ġstop":6392,"verage":6393,"Ġìĭ¤ìłľ":6394,"Ġìĸµ":6395,"íļĮìĤ¬":6396,"plied":6397,"ĠìĿĺê²¬":6398,"ëĮĢêµ¬":6399,"wards":6400,"ë©´ìĿĦ":6401,"Ġfund":6402,"ĠëĭŃ":6403,"Ġë»":6404,"Ġapplication":6405,"ìħĢ":6406,"Ġì²ĺë¦¬":6407,"Ġë§İìķĦ":6408,"ìķĦì§ģ":6409,"Sub":6410,"ìĿ´ì£ł":6411,"dit":6412,"verse":6413,"fort":6414,"Ġbenef":6415,"Ġnum":6416,"Ġconc":6417,"Ġperfect":6418,"button":6419,"ìĦ±ìĿĺ":6420,"Ġpo":6421,"ication":6422,"utes":6423,"Ġíķľëĭ¤ëĬĶ":6424,"çĶ":6425,"ìłľì£¼":6426,"ëģĮ":6427,"Cell":6428,"ĉĊ":6429,"ìł¤":6430,"ĠGr":6431,"Ġwrite":6432,"Ġair":6433,"Ġbegin":6434,"ĠìĤ¬ëŀĮëĵ¤":6435,"ê³µê°Ħ":6436,"Ġlower":6437,"ĠìĹĲìĸ´":6438,"FI":6439,"ìĿ¼ìĿĢ":6440,"ìĬ¤íħĮ":6441,"Ġinvol":6442,"ino":6443,"ì£¼ì°¨":6444,"Ġì±Ļê²¨":6445,"PS":6446,"ĠëĵľëĿ¼ë§Ī":6447,"Ġëĸ¡":6448,"ĠíĻķëĮĢ":6449,"ìļ°ê³ł":6450,"Ġì¡°ê±´":6451,"Ġmembers":6452,"ëŀĺëıĦ":6453,"Ġê·¼ì²ĺ":6454,"ĠìĹŃìĤ¬":6455,"arams":6456,"ĠëĮĢìĥģ":6457,"Ġë¶ģíķľ":6458,"Ġevents":6459,"Gener":6460,"<!--":6461,"Ġíİ¸ìķĪ":6462,"ĠGo":6463,"Ġonce":6464,"Ġdevelopment":6465,"ung":6466,"âĢ¦âĢ¦":6467,"Ġì±ħìĿĦ":6468,"ĠEng":6469,"},\\":6470,"ìĭłìĿĺ":6471,"Ġcommunity":6472,"Ġìĸ´ëł¤ìļ´":6473,">>":6474,"Ġla":6475,"ëª½":6476,"({":6477,"Ġë§ĪìĿĦ":6478,"ìĺ·":6479,"ìŀĪê³ł":6480,"ìłģìĿĦ":6481,"ìĸ´ë³´":6482,"rows":6483,"57":6484,"ĠDo":6485,"ë§ĺ":6486,"æĸ":6487,"ì£¼ë¥¼":6488,"Ġlabel":6489,"ĠìŀĲë£Į":6490,"request":6491,"Ġenvironment":6492,"Ġbeaut":6493,"ìĦ±ìĿĢ":6494,"ìĿ´ìĻĢ":6495,"irm":6496,"ëłģ":6497,"ĠìĿ´ê±°":6498,"Ġclose":6499,"196":6500,"ĠíĨµíķ´ìĦľ":6501,"Ġìĸĺê¸°":6502,"Ġfollows":6503,"Ġtrack":6504,"ì£¼ê°Ģ":6505,"Ġboolean":6506,"Ġì±ħìŀĦ":6507,"orph":6508,"olutions":6509,"ĠCo":6510,"íķĺìĭľê³ł":6511,"ìĦ¬":6512,"cy":6513,"ì§ĪìĿĦ":6514,"Ġê·ĢìĹ¬":6515,"aken":6516,"ĠLet":6517,"ë³ĳìĽĲ":6518,"otype":6519,"Ġinstall":6520,"ĠìķĮê²Į":6521,"Ġcommon":6522,"íŀĲ":6523,"ĠIm":6524,"case":6525,"Ġder":6526,"êµ¬ê°Ģ":6527,"ê´ĢìĿĦ":6528,"ë³µì§Ģ":6529,"Ġê³¼ê±°":6530,"agram":6531,"ĠíķĺëĦ¤ìļĶ":6532,"íķ´ì£¼ìĦ¸ìļĶ":6533,"Ġborder":6534,"ires":6535,"ìŀĲìĹĲ":6536,"ê°Ģë£¨":6537,"riter":6538,"ĠíļĮìĽĲ":6539,"Ġapply":6540,"ìłĲìĿĢ":6541,"Ġê¸°íĥĢ":6542,"blog":6543,"íĮĲë§¤":6544,"Ġintrodu":6545,"Block":6546,"gener":6547,"Paramet":6548,"member":6549,"Ref":6550,"ìĿĦê¹Į":6551,"'(":6552,"CD":6553,"Ġprovides":6554,"IM":6555,"ê¸¸ëŀĺ":6556,"Ġìĺ¥":6557,"68":6558,"Pos":6559,"args":6560,"ĠMy":6561,"Ð½":6562,"Ġcomplex":6563,"ì¡°ê¸Ī":6564,"Ġred":6565,"âĢ¢":6566,")^":6567,"ìĬ¤ìĹĲ":6568,"ĠëĦ¤ìĿ´ë²Ħ":6569,"Ġconditions":6570,"ëĭ¨ì§Ģ":6571,"ĠëĤ¨ìķĦ":6572,"ĠëĤ©":6573,"Ġproperties":6574,"tx":6575,"ìŀ¥ëĭĺ":6576,"ìľĦìĽĲíļĮ":6577,"Ġé":6578,"ĠUniversity":6579,"raft":6580,"ĠChrist":6581,"ĠíĸĪëįĺ":6582,"58":6583,"ë©´ìĹĲ":6584,"Ġvert":6585,"ĠìĺĪë°©":6586,"ê´´":6587,"ĬìĿĢ":6588,"ë®¤":6589,"maz":6590,"ê·¸ë¦¼":6591,"dom":6592,"Ġpersonal":6593,"ë´Ħ":6594,"Instance":6595,"ëĥĪëĭ¤":6596,"íķ´ì§Ħ":6597,"ìĽ¨":6598,"Ġê±´ì¶ķ":6599,";;;":6600,"ĠìħĢ":6601,"Ġê·¸ëķĮ":6602,"hline":6603,"Ġì§ĢëıĦ":6604,"_-":6605,"ë¹¨":6606,"Ġê°ĳìŀĲê¸°":6607,"orld":6608,"avor":6609,"Ġunique":6610,"Ġëĭ¬ëł¤":6611,"php":6612,"ĠìĤ¬ìļ©íķł":6613,"Ġ...":6614,"Ġdistribution":6615,"Ġëĵ£ê³ł":6616,"Ġgraph":6617,"Ġìĺ¤íŀĪëł¤":6618,"ì§Ģê¸°":6619,"circ":6620,"ìķĦì¹¨":6621,"Ġê°ľëħĲ":6622,"frak":6623,"ĠìĭľìĦ¤":6624,"Ġëĭ¨ìĪľ":6625,"ê²ĮìŀĦ":6626,"ë´Ĳìķ¼":6627,"Str":6628,"ìľ¼ìĭł":6629,"Ńī":6630,"ĠìŀĲê²©":6631,"ouch":6632,"ledge":6633,"ĠìĤ¬ìļ©íķĺëĬĶ":6634,"Ġfit":6635,"ĠĠĠĠĠĠĠĠĠĠĠĠĠĠĠĠĠ":6636,"ugin":6637,"Ġê·¸ëŁ¼":6638,"CK":6639,"Ġnecess":6640,"portun":6641,"Ġê²½ë§¤":6642,"Ġìĺģìĥģ":6643,"HT":6644,"Ġcontinu":6645,"Ġhot":6646,"Ġìłķë³´ë¥¼":6647,"child":6648,"Ġëª¨ìĬµìĿ´":6649,"ì¤ĳê³łì°¨":6650,"exp":6651,"}}$":6652,"Token":6653,"quence":6654,"Ġvia":6655,"Ġê°ĢìĿĦ":6656,"ĠíĽĦë³´":6657,"Ġê´ĳê³ł":6658,"Ġprice":6659,"íķľíİ¸":6660,"Ġcomes":6661,"Ġcut":6662,"ê°ĦìĿĺ":6663,"Ġê¼¼":6664,"Ġì£¼ìĦ¸ìļĶ":6665,"ĠëĲĲ":6666,"ĠíķĺëĤĺëĭĺìĿĺ":6667,"ldots":6668,"Ġconstant":6669,"cap":6670,"Ġìĩ¼íķĳ":6671,"ĠìķĦë¦Ħëĭ¤ìļ´":6672,"gle":6673,"ì¹´ìĺ¤":6674,"vari":6675,"ĠëħĦ":6676,"Ġanalysis":6677,"bolds":6678,"Ġhigher":6679,"íı¼":6680,"Ġmajor":6681,"ĠìłĦê¸°":6682,"íĶ¼ë¶Ģ":6683,"ìĭłìĿ´":6684,"ĠComm":6685,"ĠList":6686,"UL":6687,"ìĭ¼":6688,"ë¨¸ë¦¬":6689,"ĠìĽĲëŀĺ":6690,"efore":6691,"ĠìĹ¬ìľł":6692,"ë°į":6693,"has":6694,"VE":6695,"Ġìŀĩ":6696,"ê³µìĽĲ":6697,"ìĵ":6698,"ë§Īì§Ģë§ī":6699,"Ġfeature":6700,"isk":6701,"ĲëŁ¬":6702,"ully":6703,"Ġê°Ģë¥´":6704,"ì°¨ëŁī":6705,"ATE":6706,"Ġëª»íķĺëĬĶ":6707,"medi":6708,"Ġì°¨ì§Ģ":6709,"Ġ``":6710,"TV":6711,"ìķĪìłĦ":6712,"Ġquick":6713,"Ġìļ°ë¦¬ìĿĺ":6714,"ĠìĿĺíķľ":6715,"Null":6716,"Ġê¸°ëħĲ":6717,"ymmet":6718,"ê²¹":6719,"Ġthing":6720,"sel":6721,"ë±":6722,"ë¬¼ìĿĺ":6723,"ëª¨ëĵł":6724,"Ġcopy":6725,"ĠTest":6726,"ĠìķĬê²Į":6727,"finished":6728,"Ġìĵ´":6729,"ĠìķĦë¹ł":6730,"FA":6731,"Ġëĵ±ìľ¼ë¡ľ":6732,"server":6733,"Ġrelations":6734,"ìĭłìĿĦ":6735,"ĠëıĻìĿ¼":6736,"ìĿ´ìŀĲ":6737,"YPE":6738,"izer":6739,"ëĵľëł¤":6740,"adding":6741,"ì§Ģë©´":6742,"Ġê³µìĭĿ":6743,"boldsymbol":6744,"ĠWhat":6745,"ìĿ´ëĤł":6746,"ê°Ģì¡±":6747,"ĠìĿ´ìłĦ":6748,"ĠíĢ":6749,"ìŀĲë£Į":6750,"åľ":6751,"ney":6752,"ĠìĻĦë²½":6753,"ãĢĤ":6754,"ê²ĥìĿĢ":6755,"ëĵľë¦¬ê³ł":6756,"ĠíĺķìĦ±":6757,"sf":6758,"ĠãĢĮ":6759,"ë¯¼êµŃ":6760,"Ġìµľê³łìĿĺ":6761,"ĠìĨįìĹĲ":6762,"Ġvarious":6763,"oke":6764,"ìĭľíĹĺ":6765,"Ġdetails":6766,"target":6767,"ĠâĨ":6768,"Component":6769,"ë²ħ":6770,"yl":6771,"Ġnormal":6772,"ëĭ·":6773,"Ġgovern":6774,"UE":6775,"Ġweb":6776,"ìĤ¬ë¡ľ":6777,"ĠëıĦìĽĢìĿĦ":6778,"Ġsocial":6779,"iven":6780,"ìŀİ":6781,".'":6782,"Next":6783,"izing":6784,"foot":6785,"ìĿ´ëĿ¼ìĦľ":6786,"obile":6787,"Options":6788,"Ġê¸ĢìĿĦ":6789,"wide":6790,"~^^":6791,"ĠìĹŃíķłìĿĦ":6792,"ëĭ¨ìĿĦ":6793,"conom":6794,"ĠìŀĪìĹĪëįĺ":6795,"ĠìĺģìĹħ":6796,"Ġì§ģìĽĲ":6797,"ì£¼ë¡ľ":6798,"56":6799,"íķľë²Ī":6800,"Ġíķľëĭ¤ê³ł":6801,"Ġothers":6802,"ries":6803,"ìĿ¼ë¶ĢíĦ°":6804,"ĠìłĦíĨµ":6805,"Ġimp":6806,"ìĶ¨ëĬĶ":6807,"ìŀĪìĸ´ìĦľ":6808,"Ġtypes":6809,"ĠëĤĺëıĦ":6810,"íķĺëĿ¼":6811,"Ġìłľì¡°":6812,"ĠìķĦëĬĶ":6813,"itted":6814,"Ġê³µìľł":6815,"ë£¡":6816,"ges":6817,"ëŀ©":6818,"Ġach":6819,"ĠìĤ¬ëŀĮëĵ¤ìĿĢ":6820,"ĠMar":6821,"ìĸ´ì£¼":6822,"Ġlearning":6823,"GL":6824,"Ġneg":6825,"Ġê±°ë¦¬":6826,"ĠíĽĦìĹĲ":6827,"ĠìĻĦë£Į":6828,"ê¸°ì¤Ģ":6829,"Lambda":6830,"Ġì§Ĳ":6831,"Ġ+=":6832,"Ġëĭ¨ê³Ħ":6833,"pc":6834,"yles":6835,"Line":6836,"ĠìĤ¬ëŀĮìĿĦ":6837,"Lay":6838,"ĠìłĦëĭ¬":6839,"Ġapplic":6840,"íıīê°Ģ":6841,"?!":6842,"Ġ;":6843,"Ġcannot":6844,"Ġworks":6845,"display":6846,"ìĨĮìĹĲ":6847,"ìĭłì²Ń":6848,"ìŀĲìĹĲê²Į":6849,"Ġund":6850,"ëĭ¨ì²´":6851,"Ġsignificant":6852,"ĠCar":6853,"ĠìŀĪìĹĪëĬĶëį°":6854,"ëĮĢíķĻ":6855,"ìŀĪìĸ´ìļĶ":6856,"VER":6857,"Ġìłľíķľ":6858,"Ġê°Ģê³ł":6859,"Ġì¶©ë¶ĦíŀĪ":6860,"Ġê³łê¸°":6861,"ë²ĦìĬ¤":6862,"Ġê¾¸ì¤Ģ":6863,"Ġ^":6864,"ĠìľĦì¹ĺíķľ":6865,"Ġglobal":6866,"anks":6867,"ging":6868,"Ġê±´ìĦ¤":6869,"ĠíĸĪì§Ģë§Į":6870,"ones":6871,"Ġnight":6872,"ìĨĮê°Ģ":6873,"Ġíĥĳ":6874,"When":6875,"ê·¸ëłĩê²Į":6876,"ì§Ģêµ¬":6877,"Ġimprove":6878,"lin":6879,"ds":6880,"Ġdeal":6881,"Ġstrateg":6882,"ÑĢ":6883,"Ġìŀħìŀ¥":6884,"sing":6885,"Ġë§Īì¹ĺ":6886,"ìĿ¼ê¹Įì§Ģ":6887,"Head":6888,"ìĿ´ë¯¸":6889,"íĪ¬ìŀĲ":6890,"Ġdoesn":6891,"Ġthought":6892,"ached":6893,"ìµľê·¼":6894,"Ġpack":6895,"ë°Į":6896,"unch":6897,"ëĤĺëıĦ":6898,"Attribute":6899,"board":6900,"Ġcoll":6901,"Ġseen":6902,"Ġcirc":6903,"ensor":6904,"ìĭľëĭ¤":6905,"igation":6906,"ìŀĪìĬµëĭĪëĭ¤":6907,"Ġë°Ķëĭ¥":6908,"ëŁ¬ìļ´":6909,"append":6910,"irection":6911,"Ġê¸Īìķ¡":6912,"ii":6913,"âĢĶ":6914,"ĠíĻķë³´":6915,"ìľ¼ëĭĪê¹Į":6916,"kr":6917,"oved":6918,"ĠìĿĦ":6919,"ĠìľłëŁ½":6920,"Ġopportun":6921,"ĠìĹ¬ê¸°ìĦľ":6922,"ogn":6923,"How":6924,"ìĿ´ìĿĺ":6925,"ëĤ´ìļ©":6926,"can":6927,"Ġê²½ì°°":6928,"module":6929,"ĠìĦ¸ìĥģ":6930,"Ġê²ª":6931,"parent":6932,"âĸł":6933,"Ġíľĺ":6934,")-":6935,"Ġdate":6936,"Ġwin":6937,"Fig":6938,"Ġìĺ¤ëĬĺìĿĢ":6939,"Base":6940,"ëĸ¼":6941,"'m":6942,"ì§ĢìĻĢ":6943,"ë§¹":6944,"íķľëĭ¤ë©´":6945,"Ġelements":6946,"ĠìĤ¬ëŀĮìĿĺ":6947,"êµ¬íķĺê³ł":6948,"Ġexact":6949,"Ġcreated":6950,"ĠInt":6951,"êµ¬ì¡°":6952,"ëªĩ":6953,"Equal":6954,"Ġactually":6955,"ìħĶëıĦ":6956,"ĠíĿĳ":6957,"ites":6958,"Ġpair":6959,"Ġì£¼ë¡ľ":6960,"langle":6961,"íĥĢë¯¼":6962,"Ġhom":6963,"ëĵ¤ë¡ľ":6964,"ĠFr":6965,"rec":6966,"Ġret":6967,"900":6968,"}),":6969,"ĠOne":6970,"ĠêµĲíĨµ":6971,"ĠìĿ¼ìłķ":6972,"Run":6973,"Ġíķĺìħ¨":6974,"idence":6975,"ë©¸":6976,"ëį°ìĿ´":6977,"ìľ¼ëŁ¬":6978,"cle":6979,"Ġë¶Ħìĸĳ":6980,"ĠGod":6981,"Ġupdate":6982,"Ġresource":6983,"tributes":6984,"Ġìĵ°ëĬĶ":6985,"Ġë§İëĭ¤":6986,"ĠìĻĶëĭ¤":6987,"Ġë§ĽìŀĪê²Į":6988,"ĠÂ":6989,"Ġsepar":6990,".\\":6991,"used":6992,"irtual":6993,"Ġìĭłê¸°":6994,"Ġadditional":6995,"nown":6996,"Ġshare":6997,"ì§ĳìĹĲ":6998,"ĠìłĦëŀµ":6999,"ëĵľê°Ģ":7000,"Ġchanges":7001,"Ġìłģëĭ¹":7002,"ìŀĲë§ĪìŀĲ":7003,"itional":7004,"ibrary":7005,"Ġmatrix":7006,"Ġsugg":7007,"Ġver":7008,"vis":7009,"ĠìķĦê¸°":7010,"ê²½ìĿĦ":7011,"Ġautom":7012,"ĠNot":7013,",âĢĿ":7014,"Ġìķ½ìĨį":7015,"Ġess":7016,"plac":7017,"êµŃìĪĺ":7018,"Ġìĺģìĸĳ":7019,"Ġsuggest":7020,"ĠìŀĪì§Ģ":7021,"Ġë²łìĿ´":7022,"udio":7023,"mathfrak":7024,"Ġë§İìķĦìĦľ":7025,"ving":7026,"Ġìĭ¶ìĸ´":7027,"ĠìĪĺìĪł":7028,"Ġcolumn":7029,"dl":7030,"Ġì¤ĳê³łì°¨":7031,"ìĺģìĸ´":7032,"Buffer":7033,"Source":7034,"Ġra":7035,"ì²ŃìĨĮ":7036,"Content":7037,"ĠíļĮë³µ":7038,"Ġadded":7039,"era":7040,"apping":7041,"ĠíĬĢ":7042,"Ġbox":7043,"Ġìĵ°ê³ł":7044,"ëĨĢ":7045,"unfinished":7046,"Ġìŀ¬ë£Į":7047,"ĠID":7048,"iff":7049,"ze":7050,"Ġtalk":7051,"ì§Ģë°©":7052,"ĠìľĦíķ´ìĦľëĬĶ":7053,"ĠCont":7054,"íĺ¸íħĶ":7055,"ìĿį":7056,"ëĭĪìĬ¤":7057,"ĠìĦŀ":7058,"Phi":7059,"ĠìŀĪìĹĪìĬµëĭĪëĭ¤":7060,"ided":7061,"ìĭŃëĭĪëĭ¤":7062,"Ġdiv":7063,"TO":7064,"ĠìĨįìĹĲìĦľ":7065,")]":7066,"Ġë³¶":7067,"Ġdouble":7068,"ìľĦì¹ĺ":7069,"ë¬µ":7070,"ĉĉĉĉĉĉĉĉ":7071,"Ġì²´íģ¬":7072,"ĠíĿ¬ë§Ŀ":7073,"small":7074,"Įĵê¸Ģ":7075,"Ġì¡°ìĦł":7076,"ĠìłĢëıĦ":7077,"Ġeduc":7078,"dependent":7079,"Ġì¹ľìłĪ":7080,"Ġë¶ĪëŁ¬":7081,"Ġê´´":7082,"ĠëĮĢíķĺìĹ¬":7083,"ãģĦ":7084,"Off":7085,"Ġìĭłê³ł":7086,"íĮ¬":7087,"ìĤ¬ë¬´":7088,"ìĺĢëįĺ":7089,"Ġìĭľë¯¼":7090,"ë¶ĢìĿĺ":7091,"ĠReg":7092,"ë¦¬ëĿ¼":7093,"Ġyet":7094,"Ġwalk":7095,"êµĲíĨµ":7096,"plies":7097,"åĲ":7098,"Ġant":7099,"Ġíı¬ìŀ¥":7100,"Ġëį°ìĿ´íĦ°":7101,"based":7102,"ì²´ë¥¼":7103,"ë¯¸êµŃ":7104,"ĠìłĲìłĲ":7105,"ìłĿ":7106,"Ġê°Ģë©´":7107,"inst":7108,"âĢľ":7109,"ĠìŀĲëŀĳ":7110,"Ġheight":7111,"ĠìķĬëĭ¤":7112,"ìĸ´ë²Ħ":7113,"Ġë½ĳ":7114,"appa":7115,"ìĿ´ê±´":7116,"ìĥ·":7117,"Ġexperim":7118,"ìłģìĿ´ê³ł":7119,"ìķ½ìĿĦ":7120,"ĠìłĦìŀĲ":7121,"Ġcompan":7122,"ĠíĮĮìķħ":7123,"Ġvideo":7124,"header":7125,"Ġ\"\"\"":7126,"ĩĮ":7127,"MO":7128,"Ġneeded":7129,"ë¶Ħëĵ¤":7130,"ĠìºĲë¦ŃíĦ°":7131,"Ġêµ³":7132,"Ġlater":7133,"ĠìĿ´íķĺ":7134,"change":7135,"Par":7136,"ĠìĿ¸ìĤ¬":7137,"Ġë¨¹ìľ¼ë©´":7138,"Handler":7139,"ìĽłëĭ¤":7140,"ë¨¹ëĬĶ":7141,"ĠâĢĶ":7142,"ìłĲìĹĲìĦľ":7143,"Ġì§ĳìĹĲìĦľ":7144,"Ġì¶ľìĹ°":7145,"write":7146,"Ġblack":7147,"Ġcases":7148,"rl":7149,"Ġrole":7150,"elling":7151,"Ġstates":7152,"Ġë¹łìł¸":7153,"ì§ĳëĭĪëĭ¤":7154,"ìĿ¸ê³¼":7155,"ìĿ´ë¡ľ":7156,"Ġthough":7157,"(-":7158,"98":7159,"ĠìĿ¼ìĸ´":7160,"ĠDis":7161,"arr":7162,"Action":7163,"ĠëĤ´ìļ©ìĿĦ":7164,"ìĭľê°Ģ":7165,"Ġhy":7166,"íĬ¸ê°Ģ":7167,"ĠĠĠĠĠĠĠĠĠĠĠĠĠĠ":7168,"ured":7169,"\".":7170,"ê¸°ëĬ¥":7171,"Ġê¸Ģë¡ľ":7172,"Ġrefer":7173,"Ġlive":7174,"Ġland":7175,"Ġê·¸ë¦¬ìĬ¤":7176,"Ġgetting":7177,"ëĳĶ":7178,"ìłĢëıĦ":7179,"rowser":7180,"ì§ĪìĿ´":7181,"ê°Īë¹Ħ":7182,"Ġteach":7183,"Ġì°¸ìĦĿ":7184,"Style":7185,"Resource":7186,"Ġì§ĵ":7187,"ä½":7188,"jav":7189,"Ġpress":7190,"Ġdeg":7191,"Ġë§¤ì¶ľ":7192,"250":7193,"Ġrespons":7194,"ë°°ìĨ¡":7195,"urb":7196,"ises":7197,"though":7198,"Function":7199,"78":7200,"ì°¾":7201,"Ġrecomm":7202,"ê³µìĤ¬":7203,"Ġìŀ¡ìķĦ":7204,"ê¼Ń":7205,"Ġseries":7206,"Ġìłľì¶ľ":7207,"ëª¨ëĳĲ":7208,"Ġapprox":7209,"Ġmind":7210,"imary":7211,"Ġemail":7212,"Ġcalcul":7213,"ìĪĺíķľ":7214,"aves":7215,"ĠìĿ´ìģĺ":7216,"py":7217,"SC":7218,"ĠìĿ´ìĽĥ":7219,"ooth":7220,"ĠëıĦìłĦ":7221,"Select":7222,"ordin":7223,"ĠQu":7224,"ìĽĲìľ¼ë¡ľ":7225,"ëĤĺìĦľ":7226,"Nav":7227,"What":7228,"ialog":7229,"ìĿ´ê²Į":7230,"Ġìŀħê³ł":7231,"ĠíĸĪìĸ´ìļĶ":7232,"íĴĪìĿĦ":7233,"adata":7234,"Ġever":7235,"ĻëĭĪëĭ¤":7236,"ë¶ĦìĦĿ":7237,"ĠìłĲìĭ¬":7238,"êµ¬ìĹŃ":7239,"Ġìĺ¬ë¦¬":7240,"Ġë°ĺë³µ":7241,"une":7242,"Ġchall":7243,"Ġassociated":7244,"vider":7245,"Ġëĭ¤ëĵ¤":7246,"ë¥¸ëĭ¤":7247,"Ġê·¼ëį°":7248,"Ġì°©ìļ©":7249,"ĠìĨĮê°ľíķ´":7250,"Ġê³³ìĹĲ":7251,"Ġë³´ìľł":7252,"Ġê°ĲìĨĮ":7253,"íĪ":7254,"xml":7255,"ë¤Ħ":7256,"ìĭĿìĿĢ":7257,"Ġìľłë¦¬":7258,"Start":7259,"Ġloss":7260,"ĠíķĺëĿ½":7261,"ëĥī":7262,"ëł¤ëĬĶ":7263,"json":7264,"ional":7265,"ëŁīìĿĦ":7266,"ì§ĢíĦ¸":7267,"Ġflo":7268,"Ġíı´":7269,"anch":7270,"uk":7271,"ĠìłľíĴĪìĿĦ":7272,"ì¤ĳêµŃ":7273,"ìĿ´ëıĦ":7274,"ĠìĺĪìĪł":7275,"ĠíħĮìĿ´ë¸Ķ":7276,"Ġìĸ´ì°Į":7277,"Ġê°ĻìķĦ":7278,"ê³¼ë¥¼":7279,"pected":7280,"íĺĦëĮĢ":7281,"ìľĦê°Ģ":7282,"Ġlocation":7283,"ĠìĿ´ìĥģìĿĺ":7284,"eline":7285,"ë¨¼ìłĢ":7286,"Ġscal":7287,"abla":7288,"Ġëĭ´ëĭ¹":7289,"ĠìĿ¸íķľ":7290,"det":7291,"ptr":7292,"ĠëĿ¼ê³ł":7293,"Ġì½ĶìĬ¤":7294,"open":7295,"ì°¬ê°Ģì§Ģ":7296,"ĠìĿ¼ìĥģ":7297,"Ġeval":7298,"ì¦ĿìĿ´":7299,"citep":7300,"char":7301,"ĠìķīìķĦ":7302,"ìĿ¸íĦ°":7303,"ìĿ¸ì²ľ":7304,"íķĺëĭ¤ê°Ģ":7305,"ìĺĢìĸ´ìļĶ":7306,"ëĭ¤ìĸĳ":7307,"Oper":7308,"ãħĭãħĭãħĭ":7309,"íķĺëĦ¤ìļĶ":7310,"Ġmusic":7311,"Ġcompet":7312,"ensuremath":7313,"png":7314,"ëĭ¬ëŁ¬":7315,"ĠíĸīìĤ¬":7316,"Ġregular":7317,"eed":7318,"Ġrecord":7319,"Ġcenter":7320,"property":7321,"Ġstarted":7322,"íķĢ":7323,"Default":7324,"Ġìĸ´ë¨¸ëĭĪ":7325,"uid":7326,"Ġgrad":7327,"ĠObject":7328,"Ġê³¼íķĻ":7329,"ìŀ¥ê³¼":7330,"TS":7331,"ĠìĿ¸ê¸°":7332,"ëłĽ":7333,"sg":7334,"Ġë¨¼":7335,"ĠíĨµíķľ":7336,"ìĭľíĤ¤ëĬĶ":7337,"ĠìĪĺìŀħ":7338,"Ġsoftware":7339,"Ġmoment":7340,"Ġdoing":7341,"ĠìĿĺë£Į":7342,"ìĩĦ":7343,"amed":7344,"Ġì¡°ìłĪ":7345,"Ġêµ´":7346,"ë°©ìĨ¡":7347,"ĠMon":7348,"unk":7349,"Ġìĸ´ë¦°ìĿ´":7350,"52":7351,"Ġìµľì´Ī":7352,"ìħľ":7353,"Ġíķ´ë³´":7354,"ìķĦë²Ħ":7355,"kappa":7356,"ê»ı":7357,"po":7358,"ĠCO":7359,"Ġì¥":7360,"ls":7361,"Ġensure":7362,"ìºł":7363,"Ġë§¤ëł¥":7364,"achine":7365,"ĠìĥĿê¸°":7366,"Ġë°Ķê¿":7367,"nabla":7368,"Ġbar":7369,"ĠëĤłìĶ¨":7370,"ìŀĲëĵ¤ìĿĺ":7371,"ĠëĬĲëĤĦ":7372,"ĠëıĦë¡ľ":7373,"Point":7374,"Ġrelated":7375,"Ġauthor":7376,"Ġarr":7377,"íĬ¸ëĬĶ":7378,"subset":7379,"Ġpurch":7380,"Ġì§Īë¬¸":7381,"Ġëįĺ":7382,"ĠìĥĿê¸´":7383,"Check":7384,"II":7385,"Ġê·¸ê°Ģ":7386,"Ġpict":7387,"ĠìĭĿëĭ¹":7388,"'ll":7389,"ĠìĺĽ":7390,"Window":7391,"mbox":7392,"LASS":7393,"Ġmedia":7394,"bottom":7395,"ë¶ĦìĿĺ":7396,"ĠëĮĢì²´":7397,"Ġíŀĺëĵł":7398,"Part":7399,"Ġemb":7400,"ĠêµĲìĪĺ":7401,"Ġserver":7402,"anced":7403,"ë¹Ħìļ©":7404,"Link":7405,"ìĹĲê²ĮëĬĶ":7406,"Ġchoose":7407,"ëĭĺê»ĺ":7408,"Ġê²½ìĺģ":7409,"textit":7410,"[\"":7411,"oding":7412,"ì¹¸":7413,"ĠìŀĪìĹĪìĸ´ìļĶ":7414,"pack":7415,"Ġíİ¸ë¦¬":7416,"Ġmodule":7417,"Ġprotected":7418,"dat":7419,"prop":7420,"ĠìŀĲê·¹":7421,"Ġê¸¸ìĿĦ":7422,"ìŀĩ":7423,"Factory":7424,"âĶģ":7425,"Ġëĵ±ëĵ±":7426,"ynt":7427,"Ġpositive":7428,"Ġtemper":7429,"izes":7430,"Ġê¼¼ê¼¼":7431,"ìĭľê¸¸":7432,"ë¦ĦìĿ´":7433,"íĮ¡":7434,"Ġbehav":7435,"NO":7436,"ĠìĦ±ê²©":7437,"íķĺìĺĢìĬµëĭĪëĭ¤":7438,"Ġì°¨ìĿ´ê°Ģ":7439,"Fl":7440,"ĠëĲĺìĹĪìĬµëĭĪëĭ¤":7441,"ê°Ģìŀ¥":7442,"ĠìĬ¤íĨł":7443,"ëŀĢëĭ¤":7444,"Version":7445,"iqu":7446,"Ġhours":7447,"aging":7448,"ë¬¸ìłľ":7449,"Ġê±¸ìĸ´":7450,"Ñģ":7451,"Ġê·¸ëŀ¬":7452,"Ġê²ĥì²ĺëŁ¼":7453,"Ġhold":7454,"Ġnatural":7455,"Ġrandom":7456,"Ġconstruct":7457,"ners":7458,"ĠìĿ¸ìĭĿ":7459,"ĠëĮĢìĥģìľ¼ë¡ľ":7460,"find":7461,"Ġinstead":7462,"abor":7463,"Ġìĥģëĭ¹íŀĪ":7464,"Ġge":7465,"Ġactiv":7466,"ìľłìĿĺ":7467,"ê³¼ìłķ":7468,"ë´ħëĭĪëĭ¤":7469,"Act":7470,"Ġcountry":7471,"Ġë¶ĢíĦ°":7472,"ê¸¸ìĿĦ":7473,"Ġì¡°íķ©":7474,"ĠëĬĶ":7475,"ê·¸ë£¹":7476,"ĠMed":7477,"ìħĭ":7478,"ë¶Īìĸ´":7479,"push":7480,"Ġcity":7481,"});":7482,"Ġê¸°ì´Ī":7483,"ĠReturn":7484,"Ġê²Įìĭľ":7485,"icult":7486,"cho":7487,"ëĮĢìĥģ":7488,"strong":7489,"ë§¤ìĿ¼":7490,"ounds":7491,"\\|":7492,"ìŀĲê³ł":7493,"True":7494,"ĠìĨĲìĿĦ":7495,"Ġfiles":7496,"pol":7497,"íħĲì¸ł":7498,"íĬ¹ë³Ħ":7499,"ìĤ¬ê±´":7500,"Ġìĭľì¼ľ":7501,"Ġcontinue":7502,"first":7503,"ĠFl":7504,"apter":7505,"ìĭ¬ìĿ´":7506,"Ġë¶ĪìķĪ":7507,"Ġì°¸ê°Ģ":7508,"ë°ķìĬ¤":7509,"soft":7510,"otimes":7511,"ëĥĲê³ł":7512,"ND":7513,"umb":7514,"ìľĦë¡ľ":7515,"Ġë¶ĦìľĦê¸°":7516,"Ġ**":7517,"})$":7518,"ëĿ¼ë©°":7519,"'ve":7520,"Ġìŀ¬ë°Į":7521,"Ġobtained":7522,"ĠĠĠĠĠĠĠĠĊ":7523,"Ġmultiple":7524,"Ġcorrect":7525,"ê¸°ë³¸":7526,"ãĢĮ":7527,"Ġì§Ģìłģ":7528,"ci":7529,"Ġwhole":7530,"eger":7531,"Ġìŀ¥ìķł":7532,"Ġoffers":7533,"ĠìĥĿê²¼":7534,"ĠëĿ¼ëĬĶ":7535,"ë¬ĺ":7536,"Ġì»´íĵ¨íĦ°":7537,"ster":7538,"Ġë§ģ":7539,"Ġamong":7540,"69":7541,"ĠìĦ¤ìłķ":7542,"ĠìĿ´ê²Į":7543,"status":7544,"ĠPC":7545,"Ġeffic":7546,"ĠëĨĢìĿ´":7547,"ĠëĥĦìĥĪ":7548,"Ġproblems":7549,"Ġearly":7550,"iful":7551,"Ġhowever":7552,"Ġ{@":7553,"Ġê°ķëĤ¨":7554,"ĠìĥĪë¡ľ":7555,"ì²´ê°Ģ":7556,"ĠìĤ¬ìĿ´íĬ¸":7557,"ohn":7558,"ëĤĺìĿĺ":7559,"¼Ī":7560,"ĠCal":7561,"ê°Ħëĭ¤":7562,"åĪ":7563,"ìĤ¬ìĿ´ì¦Ī":7564,"Ġblog":7565,"ĠíŀĺìĿĦ":7566,"Ġcross":7567,"ëł¬":7568,"ëĮĢìłĦ":7569,"ìĭľë¥¼":7570,"Ġtaking":7571,"íĸīìĿĦ":7572,"ìŀĪìĸ´":7573,"ceed":7574,"íķľëį°":7575,"${":7576,"ê²łì§Ģ":7577,"Ġbring":7578,"Ġë¶Īêµ¬íķĺê³ł":7579,"ìĭľìĺ¤":7580,"ĠIntern":7581,"oute":7582,"Ġë©ĭì§Ħ":7583,"ìĸ´ë¡ľ":7584,"One":7585,"ìŀĲìĹ°":7586,"Ġì¤ĳìĭ¬ìľ¼ë¡ľ":7587,"Ġdownload":7588,"Load":7589,"ê¹Įì§ĢëĬĶ":7590,"FT":7591,"Ġfields":7592,"ëĲĺë©°":7593,"ĠíĶĮëłĪìĿ´":7594,"ìĮĢ":7595,"Ġwait":7596,"Ġë¹łë¥¸":7597,"Comp":7598,"Ġaccept":7599,"ffer":7600,"Ġê°Ģìķ¼":7601,"ĠMay":7602,"Ð¾Ð":7603,"Ġconsist":7604,"Ġë§Īì°¬ê°Ģì§Ģ":7605,"Ġsimply":7606,"acity":7607,"Ġitems":7608,"Ġplease":7609,"REF":7610,"Ġê²ĥìĹĲ":7611,"ĠClass":7612,"íķĺìĹ¬ìķ¼":7613,"íĮĮíģ¬":7614,"Ġëĭ´ìķĦ":7615,"Ġë§Īê°Ĳ":7616,"Ġmode":7617,"Ġindustry":7618,"SI":7619,"âĹı":7620,"ocket":7621,"ìķĹ":7622,"Ġë¶Ģë¶ĦìĿ´":7623,"ĠëĬ¥ëł¥":7624,"ê²ĥìĿĦ":7625,"180":7626,"ĠíķĺìĿ´":7627,"UM":7628,"Ġbuilding":7629,"Ġìĥģê¸°":7630,"ëķħ":7631,"Ġê°ĻìĿĢëį°":7632,"ê¾":7633,"Ġallows":7634,"Ġdig":7635,"åį":7636,"Ġcorresponding":7637,"Ġstore":7638,"Ġstory":7639,"Ġlines":7640,"ê³¼íķĻ":7641,"ĠâĶĤ":7642,"ìı":7643,"âĺħâĺħ":7644,"Ġì§ĢíĤ¤":7645,"ê´Ģëł¨":7646,"actions":7647,"ëĥĪ":7648,"ëĭ¤ë¦¬":7649,"ensions":7650,"ëŀĲëĭ¤":7651,"íĶĮëłĪìĿ´":7652,"Ġclaim":7653,"ëª©ìĿĦ":7654,"ops":7655,"Ġdefine":7656,"Ġì¹ĺì¦Ī":7657,"Ġquestion":7658,"Ġprior":7659,"Ġfail":7660,"Ġcatch":7661,"51":7662,"Ġê¸°ë¶ĦìĿ´":7663,"idden":7664,"Ġpick":7665,"Ġcontribut":7666,"So":7667,"Ġë¸Ķë£¨":7668,"ë°ĶëŀĮ":7669,"ìļ°ìĦł":7670,"ĠìĦŃì·¨":7671,"pecially":7672,"ìĺĢëĬĶëį°":7673,"ê°ĲìĤ¬":7674,"Ġentire":7675,"Ġregard":7676,"ĠìĿ´ê±´":7677,"ĠìļĶì²Ń":7678,"ĠìłĦìŁģ":7679,"ëª¨ëį¸":7680,"ĠDr":7681,"Ġimages":7682,"ëħĦê°Ħ":7683,"Ġcontains":7684,"Ġíģ¬ë¦¼":7685,"ĠìŀĪìĸ´ìķ¼":7686,"Ġdevice":7687,"Ġminutes":7688,"local":7689,"Ġë¬¸ìłľë¥¼":7690,"ìĿ´ëĦĪ":7691,"Ġì§ķ":7692,"lick":7693,"obj":7694,"ê´ĢìĿĢ":7695,"Ġíķµìĭ¬":7696,"Ġscale":7697,"Ġansw":7698,"ìĭĿìĿĺ":7699,"ĠëĩĮ":7700,"ĠìĤ¬ë¡Ģ":7701,"ĠëĪĪìĿĦ":7702,"ìĸ´ëĸ¤":7703,"btn":7704,"ëĵ±ë¡Ŀ":7705,"Ġ((":7706,"ëĬĲëĿ¼":7707,"Ġìļ°ëł¤":7708,"ret":7709,"Ġëª©ìłģ":7710,"ĠìĺĨìĹĲ":7711,"Ġtaken":7712,"post":7713,"endif":7714,"700":7715,"Ġìĸ¸ëĭĪ":7716,"íķĺê¸°ë¡ľ":7717,"ĠíķĺëĤĺìĿĺ":7718,"Ġstatus":7719,"ë¬´ìĽĲ":7720,"ê¸Īìķ¡":7721,"ĠìĹ´ë¦°":7722,"Ġê¸°ë°ĺ":7723,"Ġsent":7724,"Ġmiss":7725,"Ġë¯¸ëĭĪ":7726,"ë²ķìĿĦ":7727,"Ġunit":7728,"ê·ľëª¨":7729,"mon":7730,"Ġsubject":7731,"ìłķì±ħ":7732,"host":7733,"ĠìĻ¼":7734,"Ġê°ľìµľ":7735,"ìĿ´ìļ©":7736,"Ġì¢ħíķ©":7737,"EL":7738,"ĠíķĺìĺĢëĭ¤":7739,"Ġdynam":7740,"Ġquestions":7741,"Ġfrequ":7742,"Ġë°ĶëĢĮ":7743,"oring":7744,"Create":7745,"ĠìļĶë¦¬":7746,"dr":7747,"main":7748,"ĠFe":7749,"ìŀĳìĹħ":7750,"uary":7751,"PRO":7752,"Ġë¨¹ê¸°":7753,"Ġíĸĩ":7754,"Ġthrows":7755,"íĢ´":7756,"Number":7757,"ĠëıĪìĿĦ":7758,"Ġê¿Ģ":7759,"Ġseason":7760,"Ġcompanies":7761,"Ġíı¬ê¸°":7762,"ĠëĨĴìķĦ":7763,"Ġì§Ģìłķ":7764,"ged":7765,"ancial":7766,"mber":7767,"íĸĪëĭ¤ëĬĶ":7768,"ìľĦìĿĺ":7769,"ìŀħì°°":7770,"}}{":7771,"ë³´íĺ¸":7772,"just":7773,"cell":7774,"ìĬµëĭĪê¹Į":7775,"íŀĪëĬĶ":7776,"Ġê°Ģìłķ":7777,"gen":7778,"ëıĦìĻĢ":7779,"Ġë¬¼ìĿĦ":7780,"ìĿ´ìĹĪìĬµëĭĪëĭ¤":7781,"Ġissues":7782,"Ġë®¤":7783,"Ġmil":7784,"Filter":7785,"src":7786,"private":7787,"ĠìķĪëĲĺ":7788,"ë¶ĢëıĻìĤ°":7789,"stream":7790,"Ġauto":7791,"~!!":7792,"ë©į":7793,"ological":7794,"ìĸ¸ìłľ":7795,"Ġì¡°ìĦ±":7796,"ĠëĤĺë¦Ħ":7797,"Ġì°¾ëĬĶ":7798,"ĠìĿ´ë¥´":7799,"ĠíĶĦëŀĳ":7800,"ë°ĽìĿĢ":7801,"Ġëĵľë¦¬":7802,"ĠìķĦëĵ¤":7803,"Ġëĭ¤íĸī":7804,"ëĤĺê°Ģ":7805,"Ġincludes":7806,"ìĿ´ëĿ¼ë©°":7807,"ë¦ĦìĿĦ":7808,"Ġìłĳê·¼":7809,"Ġusers":7810,"RA":7811,"ìĩ¼íķĳ":7812,"chan":7813,"Ġíı¬ìĿ¸íĬ¸":7814,"Ġaccording":7815,"ìĦ¸ê°Ģ":7816,"ê¸°ìĤ¬":7817,"ì¡°ìĤ¬":7818,"Ġlinear":7819,"97":7820,"ĠEX":7821,"Ġë°Ķíĥķ":7822,"Ġë¬µ":7823,"Ġformat":7824,"ìłĦê±°":7825,"Ġê´Ģìĭ¬ìĿĦ":7826,"Ġaverage":7827,"Ġurl":7828,"Ġë§Įëĵ¤ê¸°":7829,"/\\":7830,"Sigma":7831,"Ġspecified":7832,"Ġsolutions":7833,"Ġeffective":7834,"ĠìĭĿìĤ¬":7835,"Ġë°ĺìĺģ":7836,"Ġìĭ¤ìłľë¡ľ":7837,"ĠìĹ°ìĬµ":7838,"Ġmanagement":7839,"reed":7840,"Ġdest":7841,"ë§ĽìĿ´":7842,"âĳ¢":7843,"Ġmulti":7844,"ĠìĹ¬ìłĦíŀĪ":7845,"Ġì½©":7846,"///":7847,"ĠìłģìĿ´":7848,"Ġâĸ²":7849,"Ġhappen":7850,"cer":7851,"ë§İìĿ´":7852,"ì¼ĢíĮħ":7853,"Ġë°Ķê¾¸":7854,"ìľ¼ë¡ľë¶ĢíĦ°":7855,"navbar":7856,"nonumber":7857,"Ġê²¸":7858,"ìĭľê°ĦìĿ´":7859,"Task":7860,"ĠìĮĢ":7861,"ìĦ¸íĬ¸":7862,"ìŀĳìļ©":7863,"íħį":7864,"ìĪĺë¡ľ":7865,"Ġëª¸ìĿĦ":7866,"ĠìŀĲìĭłìĿĦ":7867,"Ġê±´ì¡°":7868,"ĠMe":7869,"Ġsample":7870,"Ġìĸ´ëĸł":7871,"ĠìĤ¬ìĭ¤ìĿĦ":7872,"Ġupd":7873,"ìĺ¤ê³ł":7874,"Ġbed":7875,"Ġë§İê³ł":7876,"ĠGu":7877,"Ġlat":7878,"Ġìµľì¢ħ":7879,"ĠNone":7880,"std":7881,"Ġtw":7882,"ypes":7883,"Ġvector":7884,"ĠìĺĪìłķìĿ´ëĭ¤":7885,"ìĭ¤ìĿĦ":7886,"Ġeverything":7887,"First":7888,"ĠìĶ»":7889,"Page":7890,"ìĪ¨":7891,"ilde":7892,"Equals":7893,"Ġì²Ļ":7894,"ëħĦìĿ´":7895,"Ġidea":7896,"prototype":7897,"font":7898,"Ġetc":7899,">,":7900,"Ġëį§":7901,"Ġìĭ¤íĮ¨":7902,"Ġfriend":7903,"ë³į":7904,"Ġcollection":7905,"Hel":7906,"aven":7907,"ABLE":7908,"ìĭľì£ł":7909,"Ġíķ¸ëĵľ":7910,"ĠìĿ¼ìľ¼":7911,"ë¬¼ìĹĲ":7912,"ì°¸ê³ł":7913,"Ġmatter":7914,"ĠBr":7915,"Ġinternal":7916,"ĠíķĦìļĶê°Ģ":7917,"Ġì¡°ìĭ¬":7918,"ì¦Ĳ":7919,"Ġê°ĢëĬ¥ìĦ±ìĿ´":7920,"Ġë§Ĳíķľëĭ¤":7921,"ĠìĨĮìľł":7922,"ì»·":7923,"Ġdidn":7924,"ìĸ¸ëĭĪ":7925,"ëĭ¤ë³´ëĭĪ":7926,"ìĿ´ê±°":7927,"Ġentry":7928,"Ġë¦¬ë·°":7929,"ĠíĻįë³´":7930,"ĠëĤ¨ìĦ±":7931,"âħ":7932,"Ġë¥¼":7933,"ĠëĮĢíĺķ":7934,"Ġë°°ìĨ¡":7935,"Ġrunning":7936,"Ġtechnology":7937,"Ext":7938,"ë¬¼ìĿĢ":7939,"ìĨįìĹĲ":7940,"ĠëĮĢìĿĳ":7941,"ĠêµĲì²´":7942,"195":7943,"ìĿ¼ê¹Į":7944,"igger":7945,"Command":7946,"alt":7947,"Ġconsum":7948,"ìĸĢ":7949,"ìľ¨ìĿ´":7950,"istry":7951,"urance":7952,"ĠìŀĪëĬĶì§Ģ":7953,"Ġheart":7954,"ëĭĪìķĦ":7955,"ë¶Ģëª¨":7956,"ê°Ģë¡ľ":7957,"Ġì¦Ĳê¸¸":7958,"ëİ":7959,"icial":7960,".***":7961,"ĠComp":7962,"Ġëħ¸ëıĻ":7963,"Row":7964,"ìĭľìĬ¤íħľ":7965,"Ġcomponent":7966,"description":7967,"INT":7968,"Ġìŀ¥ëĤľ":7969,"ì¤Ģë¹Ħ":7970,"Ġnote":7971,"ĠìĭľìłĪ":7972,"ĠìķŀìĹĲìĦľ":7973,"Ġê¹ľ":7974,"dots":7975,"ì°¨ê°Ģ":7976,"ê°ĢìĹĲ":7977,"cret":7978,"inner":7979,"Ġgives":7980,"Ġchoice":7981,"Ġì£¼ìĿ¸ê³µ":7982,"Ġëª¨ë¥´ëĬĶ":7983,"110":7984,"Ġì¶Ķìĸµ":7985,"ĠìĤ¶ìĿĦ":7986,"ìĿ¼ë¦¬":7987,"plicit":7988,"ëĲĺìĹĪìĬµëĭĪëĭ¤":7989,"Ġincrease":7990,"ishing":7991,"íķĺê³łìŀĲ":7992,"Ġê°Ģê¹Įìļ´":7993,"ìľĦëĬĶ":7994,"Ġtheory":7995,"img":7996,"ì¾Į":7997,"ê¹Ŀ":7998,"FONT":7999,"Ġcustomers":8000,"Ġextra":8001,"ê³±":8002,"ĠëĦĪíĿ¬":8003,"ĠíĹĮ":8004,"level":8005,"skip":8006,"cel":8007,"160":8008,"ìĪĺë¦¬":8009,"Ġíģ¬ë¦¬ìĬ¤":8010,"ĠíĻĶìĿ´íĬ¸":8011,"Ġë°©ë²ķìĿĦ":8012,"Ġíļ¨ê³¼ê°Ģ":8013,"Ġhuman":8014,"UI":8015,"\\[":8016,"heet":8017,"ë¦¬ê·¸":8018,"æĺ":8019,"TI":8020,"Ġdifficult":8021,"////////////////":8022,"Ġë¹ĦìĬ·íķľ":8023,"ĠìķĬìľ¼ë©´":8024,"ë¶ĢìĹĲ":8025,"undle":8026,"efined":8027,"ï¿":8028,"ìŀĲëĵ¤ìĿĢ":8029,"Ġê¹Įì§Ģ":8030,"Ġregister":8031,"Ġrather":8032,"ĠìĤ´ê³ł":8033,"column":8034,"sole":8035,"ëĲ¨":8036,"SON":8037,"Ġëĵ¤ìĸ´ìĦľ":8038,"ĠìķĬìķĦìĦľ":8039,"Ġsuccessful":8040,"Ġcamp":8041,"ĠëĤ¨ê²¨":8042,"Ġexpress":8043,"íķ´ì£¼ëĬĶ":8044,"ĠAut":8045,"ĠëĨĵê³ł":8046,"íĻĶìŀ¥":8047,"Ġë¬ĺ":8048,"ĠìĹĨëĭ¤ëĬĶ":8049,"ì¨":8050,"Ġextends":8051,"Ġíĸīìłķ":8052,"Ġlanguage":8053,"ëį©":8054,"ê°Ģêµ¬":8055,"Ġalmost":8056,"Ġhalf":8057,"empt":8058,"uly":8059,"Ġfront":8060,"ĠìĹ°ì¶ľ":8061,"Ġë¡¯":8062,"íļĮìĹĲ":8063,"Ġfall":8064,"âĸ¼":8065,"Ġëª¨ì§ĳ":8066,"ĠGL":8067,"aid":8068,"·Ķ":8069,"53":8070,"ë¬¸ìĿ´":8071,"ì¡¸":8072,"iddle":8073,"ĠëĪĦê°Ģ":8074,"ĠíĹ¤ìĸ´":8075,"ĠìŀĲëıĻ":8076,"Ġfilter":8077,"Ob":8078,"Ġpercent":8079,"ĠëıĦìŀħ":8080,"íķĺìĿ´":8081,"ĉĠĠĠ":8082,"Ġë²Įìį¨":8083,"ìĬ¤íĭ°":8084,"nected":8085,"ìĸ´ëĬĲ":8086,"Ġsem":8087,"Ġinterface":8088,"ĠìĤ¬ìĿ´ìĹĲ":8089,"ëķĮëĬĶ":8090,"stract":8091,"Ġêµ¬ë¶Ħ":8092,"Ġì¹´ë©ĶëĿ¼":8093,"attr":8094,"scale":8095,"ĠëĲĲëĭ¤":8096,"PO":8097,"Ġstream":8098,"Ġey":8099,"Ġìĭłë¢°":8100,"Ġyoung":8101,"ĠëĸłëĤĺ":8102,"Ġhistory":8103,"DB":8104,"ĠíķĺìĭľëĬĶ":8105,"Ġê»":8106,"allet":8107,"ĠLG":8108,"signed":8109,"Ġê´Ģê³ĦìŀĲëĬĶ":8110,"num":8111,"Ġtakes":8112,"ĠíĬ¹ë³Ħíķľ":8113,"Ġê°ĻìķĦìĦľ":8114,"ĠìķĮìķĦë³´":8115,"Ġcy":8116,"54":8117,"ëįĺëį°":8118,"Ġtax":8119,"Ġproof":8120,"Ġstay":8121,"ê¹ĥ":8122,"ë©´ìĦľëıĦ":8123,"Ġexecut":8124,"ë¦¬ìĻĢ":8125,"īìĿĢ":8126,"ĠDef":8127,"Ġengine":8128,"ë¦¬ë©´":8129,"SO":8130,"Ġknowledge":8131,"Ġì£¼ìĭĿ":8132,"adius":8133,"Ġphase":8134,"63":8135,"Ġwhite":8136,"Ġbo":8137,"format":8138,"Ġê²ĥê³¼":8139,"Ġwriting":8140,"Ġdensity":8141,"chema":8142,"ê¿Ī":8143,"enn":8144,"ì¤ĳíķľ":8145,"HO":8146,"ĠìłĦë¶Ģ":8147,"Ġë²ķë¥ł":8148,"Ġclick":8149,"Ġë¬¼ìĸ´":8150,"Ġpain":8151,"Ġê°ķëł¥":8152,"ìĽĮíģ¬":8153,"\"]":8154,"ĠìŀĲëħĢ":8155,"Ġmonths":8156,".^^":8157,"Ġíķ©ê²©":8158,"ê³³ìĹĲ":8159,"Ġë¶Ģìłķ":8160,"Ġìŀ¥ì°©":8161,"Ġtell":8162,"ë²łìĿ´":8163,"Ġparticip":8164,"ĠìŀĲê¾¸":8165,"filter":8166,"Ġtransform":8167,"ë°Ľê³ł":8168,"ĠíĨłì§Ģ":8169,"aur":8170,"agn":8171,"CL":8172,"(&":8173,"Ġpattern":8174,"Sp":8175,"ĠSte":8176,"ĠëıĻìĥĿ":8177,"ĠAss":8178,"Ġareas":8179,"Ġface":8180,"ĠìĪĺëĬĶ":8181,"Child":8182,"mission":8183,"ê·¸ëĬĶ":8184,"Ġill":8185,"bra":8186,"last":8187,"ë¦¬íĭ°":8188,"under":8189,"ĠíĦ¸":8190,"Ġë¯¼ì£¼":8191,"ë©´ìĿ´":8192,"Format":8193,"Ġíķ«":8194,"Ġê°ķíķľ":8195,"Ġnumer":8196,"ê³łê°Ŀ":8197,"Ġthird":8198,"meta":8199,"ì½Ķë¡ľëĤĺ":8200,"Ġíķĳ":8201,"ĠíĺĦìŀ¥":8202,"Ġconsidered":8203,"Ġê³łíĨµ":8204,"ĠëĽ°ìĸ´":8205,"ĠíĺľíĥĿ":8206,"Ġëĭ¤ë§Į":8207,"Ġdefinition":8208,"ìĹ¬ë¦Ħ":8209,"ĠëĤ¨ìĿĢ":8210,"Ġinside":8211,"container":8212,"ĠĠĠĠĠĠĠĠĠĠĠĠĊ":8213,"ìĤ¼ìĦ±":8214,"RI":8215,"Ġìŀħêµ¬":8216,"Last":8217,"{-":8218,"ê°ĦìĹĲ":8219,"ëĭĺê³¼":8220,"ĠGener":8221,"ĠìķŀìĦľ":8222,"ë°Ķëĭ¥":8223,"mt":8224,"Ġë°Ľìķĺ":8225,"Ġê²ĥìĿ´ëĿ¼ê³ł":8226,"project":8227,"ë¬¼ë¡ľ":8228,"ëĶ¸":8229,"íĽĦê¸°":8230,"Ġë³¸ê²©":8231,"Ġìļ´ìłĦ":8232,"Ġíľ´ëĮĢ":8233,"widet":8234,"SD":8235,"íļĮëĬĶ":8236,".~":8237,"Ġremove":8238,"Return":8239,"ë´ĲìļĶ":8240,"ĠìµľìłĢ":8241,"Ġground":8242,"Ġìŀ¥ê¸°":8243,"ìħĺìĿĦ":8244,"ĠëĤĺìĺ¬":8245,"Ġìĭ¤ëĤ´":8246,"Ġë¿Ĳë§Į":8247,"Ġsurface":8248,"olid":8249,"Ġì¹Ń":8250,"Ġíİ¸íķĺê²Į":8251,"ìŀĸìķĦ":8252,"ĠMin":8253,"Ġë°°ê²½":8254,"Sc":8255,"\\%":8256,"Ġexists":8257,"ëįľ":8258,"ëĭ¤ìĸĳíķľ":8259,"Ġì¹´ëĵľ":8260,"close":8261,"aches":8262,"ensive":8263,"ìłĢëħģ":8264,"ëĶĶìŀĲìĿ¸":8265,"Ġìĭľì²Ń":8266,"Ġê²ĢìĤ¬":8267,"Ġconnect":8268,"encies":8269,"Ġê·¸ë¦°":8270,"ighb":8271,"íĿĳ":8272,"Ġë§ĪìĬ¤íģ¬":8273,"Ġ!==":8274,"Ġquite":8275,"Ġdirectly":8276,"buf":8277,"ĠìľĦë¡ľ":8278,"ì°ľ":8279,"Ġì¹ł":8280,"ians":8281,"Ġwords":8282,"Ġíļ¨ê³¼ë¥¼":8283,"ìĿ´ê¸°ëıĦ":8284,"Ġestim":8285,"Ġfive":8286,":)":8287,"Ġê³³ìĿĢ":8288,"âĺĨ":8289,"ĠìŀĦëĮĢ":8290,"íķĺëł¤ê³ł":8291,"ĠãĢİ":8292,"Ġtra":8293,"ë§ĪìĬ¤":8294,"iting":8295,"ê³łë¥¼":8296,"Ġêµ¬ì²´":8297,"aged":8298,"Ġê·¼ë¬´":8299,"Ġêµ¬ì¶ķ":8300,"ube":8301,"centering":8302,"Ġíķĺê²łìĬµëĭĪëĭ¤":8303,"ĠìĺģìĹŃ":8304,"grad":8305,"ĠìĤ¬ë§Ŀ":8306,"itut":8307,"ìĽĶìĹĲ":8308,"ĠìĦłë³´":8309,"Ġì¤ĳìĹĲìĦľ":8310,"íĺķìĿĦ":8311,"bb":8312,"Ġíĺģ":8313,"Ġprofessional":8314,"Ġsend":8315,"Ġë°Ľìľ¼":8316,"Ġë²¤":8317,"Ġíĳľìĭľ":8318,"Ġì¡¸ìĹħ":8319,"Ġë§ĺìĹĲ":8320,"íĶĦëĿ¼":8321,"Ġlikely":8322,"Ġì¦Ĳê±°":8323,"ĠëĮĢìłĦ":8324,"ìĦĿìĿ´":8325,"ĲëŁ¬ëĵľ":8326,"Ġzero":8327,"Ġpubl":8328,"Box":8329,"ìĭĿëĭ¹":8330,"ĠìķĦëĭĪë©´":8331,"ĠëĤĺìĿ´":8332,"ĠHT":8333,"âĨĴ":8334,"hib":8335,"ĠìĿ´ë¦ĦìĿĦ":8336,"Ġê¸į":8337,"Ġequation":8338,"Ġëª©ìĨĮ":8339,"Ġë§ŀì¶Ķ":8340,"ĠMore":8341,"ì½ĶìĬ¤":8342,"ĠìĥĿê°ģë³´ëĭ¤":8343,"Ġê°Ģê²©ìĿ´":8344,"Listener":8345,"itions":8346,"Ġsets":8347,"typ":8348,"urch":8349,"Ġeconom":8350,"ìĿ¼ë¡ľ":8351,"Ġestabl":8352,"Ġëĭ¤ìļ´":8353,"nov":8354,"like":8355,"ìĦłìĿ´":8356,"ĠëłĮ":8357,"ĠëĪĪìĿ´":8358,"Label":8359,"Ġcollect":8360,"Ġê·¸ëł¤":8361,"Ġbi":8362,"ĠìĤ¬íļĮìłģ":8363,"ĠìĥģìĦ¸":8364,"ìĽĲëŀĺ":8365,"ìĦ±íĻĶ":8366,"ĠìĸĳëħĲ":8367,"ëĩ¨":8368,"ĠìĿ¼ì°į":8369,"abs":8370,"which":8371,"UP":8372,"Ġê°Ģì¹ĺ":8373,"Ġmillion":8374,"ë¦¬ìĺ¤":8375,"ĠìĿĺìĤ¬":8376,"atal":8377,"Ġconnection":8378,"ĠìłĦë¬¸ê°Ģ":8379,"Our":8380,"ĠìŀĪëĦ¤ìļĶ":8381,"Ġcommand":8382,"ĠState":8383,"Ġfig":8384,"ĠìĿ¸ëıĦ":8385,"process":8386,"Ġcallback":8387,"Ġëĭ¨ì²´":8388,"ë¦¬íĬ¸":8389,"Ġê´Ģìĭ¬ìĿ´":8390,"oon":8391,"Ġnecessary":8392,"widetilde":8393,"TP":8394,"ê°Ģë©´":8395,"íĸ¥ìĿ´":8396,"íĦ°ë¦¬":8397,"ðŁĺ":8398,"ĠìĬ¤íħĮ":8399,"ĠìĦ¤ê³Ħ":8400,"ãĦ·":8401,"ìŀ¥ìķł":8402,"ë¯¸ìĹĦ":8403,"Ġê¸Īì§Ģ":8404,"ĠëħĢ":8405,"Ġbecom":8406,"ë¬¼ê±´":8407,"update":8408,"ĠAPI":8409,"Ġwall":8410,"Ġimpact":8411,"ê»ĺìļĶ":8412,"ĠìĥĿê°ģíķ´":8413,"ê³µíķŃ":8414,"Ġdesigned":8415,"Ġhope":8416,"ĠìĺģêµŃ":8417,"Ġissue":8418,"_.":8419,"ê¸Īìľµ":8420,"Ġoperator":8421,"Ġìŀ¡ê³ł":8422,"Rem":8423,"87":8424,"Ġaw":8425,"Ġcrit":8426,"ĠìłĦìļ©":8427,"íķĺìļ°ìĬ¤":8428,"ëł¸ìĬµëĭĪëĭ¤":8429,"ëĨĵìĿĢ":8430,"Ġê´Ģëł¨ëĲľ":8431,"remove":8432,"Ġsetting":8433,"Ġprec":8434,"ĠëĪĮ":8435,"Ġforward":8436,"ìłľìĿĺ":8437,"ìŀĳìĿĢ":8438,"ttp":8439,"long":8440,"ê±°ìķ¼":8441,"refix":8442,"Ġcurrently":8443,"ula":8444,"yt":8445,"ĠìĥĢ":8446,"ĠìłĦíĻĺ":8447,"Ġcame":8448,"ì¹ĺì¦Ī":8449,"62":8450,"ĠìķĬìĿĦê¹Į":8451,"ĠìĿ´ëģĮ":8452,"Ġce":8453,"ĠEuro":8454,"inding":8455,"Ġë¯¸ìĪł":8456,"Ġfixed":8457,"ĠRem":8458,"Ġaccur":8459,"ìĸ¼ë§Ī":8460,"ìłĲìĹĲ":8461,"cing":8462,"ì§±":8463,"Ġgovernment":8464,"gy":8465,"ĠíĻĢ":8466,"Ġìĸ¸ê¸ī":8467,"Ġë¨¹ìĹĪ":8468,"ĠìķĦìĿ´íħľ":8469,"Controller":8470,"Ġê°Ŀ":8471,"Ġì·¨ëĵĿ":8472,"ì¤ĺìķ¼":8473,"CP":8474,"chen":8475,"Ġë¡¯ëį°":8476,")/":8477,"ĠGe":8478,"Met":8479,"Ġì¡°ìļ©":8480,"rypt":8481,"íĮĲìĿĦ":8482,"CON":8483,"Ġcult":8484,"Ġdraw":8485,"\\!\\!":8486,"ìĸ´ë¦°":8487,"Ġcook":8488,"ê¸ĪìĿ´":8489,"}-":8490,"ĠíĽĮ":8491,"Ġoperation":8492,"éģ":8493,"Ġrespectively":8494,"ming":8495,"anged":8496,"URL":8497,"dot":8498,"ica":8499,"ĠìĹĨëĭ¤ê³ł":8500,"ĠMark":8501,"ĠìĿ¸ì¦Ŀ":8502,"ì§Ģìĸ´":8503,"number":8504,"Do":8505,"Ġtook":8506,"ìĭĿìĹĲ":8507,"ìĬ¤ì½Ķ":8508,"¨ë²Ķ":8509,"mem":8510,"Ġì§Ģê¸ĪìĿĢ":8511,"ĠíĨµíķ©":8512,"âĢĵ":8513,"ĠìĪĺì¶ľ":8514,"ĠìĥĿê°ģíķĺëĬĶ":8515,"Ġë³´ê´Ģ":8516,"ufact":8517,"ramework":8518,"ì¤ĳìķĻ":8519,"ĠTrans":8520,"ĠìķĦíĶĦ":8521,"ëĦ£":8522,"Ġë§ĲíķĺëĬĶ":8523,"Ġê¸°ìĤ¬":8524,"ĠìĿ¸ê·¼":8525,"Ġsays":8526,"ĠìĿ´ëĤ´":8527,"prime":8528,"Ġarch":8529,"Ġì°Į":8530,"Length":8531,"ìĿ¸ìľ¼ë¡ľ":8532,"ĠìĥĪë²½":8533,"ê³Ħìķ½":8534,"íķ´ì§Ģ":8535,"ĠìĤŃ":8536,"ìĬ¤ìĻĢ":8537,"Ġmix":8538,"./":8539,"mar":8540,"ĠìĿ¸ìĥģ":8541,"ĠSer":8542,"ĠìĽ¨":8543,"ĠAfter":8544,"ĠPart":8545,"ĠìłĬìĿĢ":8546,"ifact":8547,"Ġíİ¼ì³Ĳ":8548,"ĠìµľìĨĮ":8549,"service":8550,"Ġpolicy":8551,"ĠìĿĢíĸī":8552,"ĠSim":8553,"ìĭľíĤ¨":8554,"ë¿Ĳë§Į":8555,"ì¹ĺì§Ģ":8556,"Ġmar":8557,"Ġespecially":8558,"params":8559,"Output":8560,"Ġëĵľë¦½ëĭĪëĭ¤":8561,"íĻĶëĲľ":8562,"ĠíĴįë¶Ģ":8563,"Ġtim":8564,"¤ë²Ħ":8565,"BU":8566,"ql":8567,"menu":8568,"Ġê³Ħìĭł":8569,"Ġëĭ¤ìĿ´":8570,"Ġë³´ë©´ìĦľ":8571,"Ġê°Ģë°©":8572,"Ġfriends":8573,"ì£¼ë¬¸":8574,"ĠëĦĲ":8575,"ê±´ìĦ¤":8576,"ê·¸ëŀ¨":8577,"ĠìĭŃ":8578,"Ġìĭ«ìĸ´":8579,"ê²°ê³¼":8580,"ê°ľê°Ģ":8581,"ipe":8582,"ascript":8583,"Ġquery":8584,"response":8585,"Ġfast":8586,"Ġrelationship":8587,"Em":8588,"84":8589,"Ġeasily":8590,"çļ":8591,"ĠëĤĺì¤ĳìĹĲ":8592,"aa":8593,"ball":8594,"ulations":8595,"ĠëĿĦ":8596,"æ°":8597,"Ġê³µê³µ":8598,".$":8599,"Ġreference":8600,"ìĨĮëĵĿ":8601,"essages":8602,"Ġinit":8603,"ĠëĬĺìĸ´":8604,"Ġconstr":8605,"Ġê²ģëĭĪëĭ¤":8606,"Ġâĺħ":8607,"ìĩł":8608,"Ġwritten":8609,"ĠCor":8610,"Ġgroups":8611,"ë¹ĦëĬĶ":8612,"ĠíĽĪëł¨":8613,"ĠíħĲ":8614,"ĠìĨĶì§ģ":8615,"Ġincluded":8616,"cr":8617,"Ġexperi":8618,"fill":8619,"Valid":8620,"rew":8621,"KE":8622,"more":8623,"ëıĻìĿ´":8624,"ëŀį":8625,"ìĦłìĥĿ":8626,"Ġëĸ¨":8627,"íķĺëŁ¬":8628,"ìĭĿíĴĪ":8629,"Ġdistance":8630,"Per":8631,"ê¸°ë§Į":8632,"ìļ°ë¦¬ëĬĶ":8633,"Ġìĥģê´Ģ":8634,"ë©Ģ":8635,"Ġê¾¸ì¤ĢíŀĪ":8636,"ĠìķĦëĭĻëĭĪëĭ¤":8637,"spec":8638,"ìĿ¸ëĵ¤ìĿ´":8639,"ê²°êµŃ":8640,"Ġmargin":8641,"Ġê¸Ģë¡ľë²Į":8642,"Ġbeautiful":8643,"Ġë²ĦìĬ¤":8644,"Ġreceive":8645,"Ġmember":8646,"Ġactive":8647,"Ġë©Ģë¦¬":8648,"hing":8649,"ëĤŃ":8650,"AA":8651,"ëħĦëĮĢ":8652,"ĠíŀĺìĿ´":8653,"ĠìĤ¬ëŀĳìĿĦ":8654,"Ġshall":8655,"ĠìĭľíĤ¤":8656,"ë¶Ħëĵ¤ìĿ´":8657,"MC":8658,"ë²ĪìĹĲ":8659,"Ġ[]":8660,"ëĨĪ":8661,"ìĤ¬ì§Ģ":8662,",-":8663,"ĠëĮĢì¤ĳ":8664,"ëĿł":8665,"Ġsecurity":8666,"ili":8667,"Ġë³´ìĿ´ê³ł":8668,"Ġhandle":8669,"Ġëĭ¤ëħĢìĻĶ":8670,"íķĺë©´ìĦľëıĦ":8671,"ëĶľ":8672,"ìĺĨ":8673,"ĠëĴ¤ìĹĲ":8674,"Ġìĸ´ìłľ":8675,"Ġir":8676,"istration":8677,"ìĬ¤íı¬ì¸ł":8678,"íķĺì£ł":8679,"Ġê°ĢëģĶ":8680,"Ġroot":8681,"Ġê¸°ê´Ģ":8682,"ì£¼ë©´":8683,"ĠAmerican":8684,"Ġfactor":8685,"Ġequip":8686,"layout":8687,"ì¢ĭìķĦ":8688,"Ġê¸°ëıĦ":8689,"fficient":8690,"istics":8691,"RL":8692,"Ġëĭ¦":8693,"ì¿¨":8694,"êµ¬ìĿĺ":8695,"entry":8696,"ĠëıĻë¬¼":8697,"ìĦ°":8698,"*/":8699,"ì¦Ŀê¶Į":8700,"pass":8701,"ì²´ìĿĺ":8702,"ĠOF":8703,"Ġwr":8704,"Ġë©Ī":8705,"ëªħíķľ":8706,"ê¾¼":8707,"acing":8708,"tabular":8709,"eral":8710,"selves":8711,"IO":8712,"ĠëĵľëĬĶ":8713,"sembly":8714,"atio":8715,"Ġalgorithm":8716,"ë¡ľëĵľ":8717,"ë°ĽìķĦ":8718,"ì±ħìĿĦ":8719,"Ġëĭ¤ìĿĮê³¼":8720,"61":8721,"ë¸Ĳ":8722,"ĠìĬ¤íı¬ì¸ł":8723,"thm":8724,"len":8725,"Ġstat":8726,"ams":8727,"ĠSince":8728,"oom":8729,"output":8730,"ĠâĨĴ":8731,"ĠëıħìĿ¼":8732,"72":8733,"ê±¸ë¡ľ":8734,"ĠëĦĪë¬´ëĤĺ":8735,"ëĤľëĭ¤":8736,"ĠêµĲíĻĺ":8737,"Ġë§ĳ":8738,"Ġenter":8739,"Ġthus":8740,"ĠIT":8741,"Ġë³´ìĿ´ì§Ģ":8742,"ê²łëĦ¤ìļĶ":8743,"ights":8744,"Ġwonder":8745,"empty":8746,"ĠíĹ¬":8747,"ìłķìľ¼ë¡ľ":8748,"Ġê°Ĵ":8749,"Ġë¶Ģë¥´":8750,"DA":8751,"Ġë§ĮìĹĲ":8752,"Ġreceived":8753,"Ġë°ĺëĮĢ":8754,"Ġë§¤ë§¤":8755,"tag":8756,"ada":8757,"Ġì§Ģì§Ģ":8758,"Ġíĸīë³µíķľ":8759,"Ġframe":8760,"Ġappear":8761,"æĹ":8762,"Ġtravel":8763,"Ġfont":8764,"êµŃëĤ´":8765,"Sup":8766,"Ġparts":8767,"zz":8768,"Ġêµ¬ìĽĮ":8769,"ì¦ī":8770,"Ġìŀĳìļ©":8771,"Ġëĵ¤ìĹĪëĭ¤":8772,"ãģ«":8773,"cos":8774,"Ġê¹ĬìĿĢ":8775,"Ġproper":8776,"Ġdifference":8777,"Mode":8778,"Ġì£¼ë°©":8779,"Ġliving":8780,"Ġìĸ¸ìłľëĤĺ":8781,"ĠëĤĺíĥĢëĤ¬ëĭ¤":8782,"Ġìħĭ":8783,"Ġìł¤":8784,"ë§ĪìĿĮ":8785,"Ġì§ĢìĭĿ":8786,"Ġìĺ¤ë¹ł":8787,"ëĤĺìĿ´":8788,"ìĿ´íķĺ":8789,"Ġê¹Ģì¹ĺ":8790,"Ġtree":8791,"Column":8792,"ãģŁ":8793,"Ġë¹Ħê°Ģ":8794,"ERR":8795,"ì§ĳìĹĲìĦľ":8796,"Ġlonger":8797,"My":8798,"tool":8799,"Ġtag":8800,"ĠëĤ®ìĿĢ":8801,"Button":8802,"Pol":8803,"Ġê²°ê³¼ë¥¼":8804,"ê¶":8805,"ìħ¨ìĸ´ìļĶ":8806,"ĠëĮĢëĭµ":8807,"ĠìĹĨìĹĪ":8808,"\\]":8809,"ĠíķĺìĺĢ":8810,"ĠYour":8811,"Ġedge":8812,"Ġbad":8813,"ĠìķĦìĿ´ëĵ¤ìĿ´":8814,"ĠìĿ´ìĤ¬":8815,"ĠData":8816,"ëĲĺë©´ìĦľ":8817,"Ġintegr":8818,"Ġsqu":8819,"olve":8820,"Ġê°ĲìĤ¬íķ©ëĭĪëĭ¤":8821,"istance":8822,"Ġsens":8823,"cs":8824,"instance":8825,"Ġ::":8826,"Ġsave":8827,"Ġëī´ìĬ¤":8828,"âĪ¼":8829,"ì²ĺë¦¬":8830,"Ġíĥģ":8831,"\\{":8832,"osp":8833,"ìĿ´ìĿµ":8834,"Ġì¦Ĳê±°ìļ´":8835,"ŁìķĦ":8836,"Ġbelieve":8837,"GB":8838,"ìķĦë§Ī":8839,"only":8840,"Ġcustomer":8841,"ë°ĽëĬĶ":8842,"Ġë¨¹ìĿĢ":8843,"ĠUp":8844,"ìĿ´ëĦ¤ìļĶ":8845,"ë°ĶìĿ¼":8846,"pri":8847,"Ġselection":8848,"ëĵ±ìĿĦ":8849,"ĠTO":8850,"ĠìĪĺìļĶ":8851,"èĢ":8852,"ìłĪíķľ":8853,"Ġways":8854,"Ġpredict":8855,"ä¸Ń":8856,"ĠëŃĺ":8857,"íĨµìĭł":8858,"ĠPer":8859,"itter":8860,"ìĹ°íķ©":8861,"ĠìķĦìī½":8862,"Det":8863,"ĠìĿ´ë¤Ħ":8864,"ees":8865,"\").":8866,"ĠìĨĮìĦ¤":8867,"ìĤ°ìĿ´":8868,"lege":8869,"êµŃë¯¼":8870,"Web":8871,"ëĲĺê¸°":8872,"ĠíĿĺëŁ¬":8873,"split":8874,"ĠSection":8875,"Ġobjects":8876,"ëķĲ":8877,"ì¡°ìĿĺ":8878,"Ġavoid":8879,"Ġìĭłê·ľ":8880,"íļ¨ê³¼":8881,"ana":8882,"ª¼":8883,"Ġiter":8884,"Ġì¡°ê¸ĪìĶ©":8885,"Spec":8886,"ĠëįĶë¶Īìĸ´":8887,"ê´Ģê´ĳ":8888,"show":8889,"ĠíĿ°":8890,"ĠíĻĶìŀ¥ìĭ¤":8891,"Ġìĸ´ê¹¨":8892,"ëħĦë¶ĢíĦ°":8893,"Ġíľ":8894,"Ġhel":8895,"łì§Ģ":8896,"ëĭ¨ìĿĺ":8897,"Ġusually":8898,"Ġste":8899,"Ġage":8900,"hood":8901,"ERT":8902,"Ġoutside":8903,"ìĺ¤ëŀľ":8904,"Ġëĭ¤ìĿ´ìĸ´íĬ¸":8905,"ĠëĮĢëĭ¨":8906,"ĠìĤ¬ìłĦ":8907,"ĠÂ·":8908,"ĠëĪĦêµ°":8909,"âĶģâĶģ":8910,"eff":8911,"ëĦī":8912,"<?":8913,"Ġsomeone":8914,"ĠíŀĲ":8915,"ĠìŀĲë¦¬ë¥¼":8916,"lections":8917,"Ġeffort":8918,"returns":8919,"ŃĪ":8920,"ë¹ĮëĿ¼":8921,"ĠAct":8922,"Ġ&=":8923,"å°":8924,"known":8925,"ĠPar":8926,"ìĽĲëıĦ":8927,"ë©´ìłģ":8928,"aries":8929,"ë¦¬ê²Į":8930,"notation":8931,"ì£¼ìĿ¼":8932,"ha":8933,"Ġë±":8934,"ëĵ¤ê³ł":8935,"ĠVal":8936,"ĠìĹ°ê¸°":8937,"Ġë¹Ħíĸī":8938,"ĠëķĮë¬¸ìŀħëĭĪëĭ¤":8939,"else":8940,"ãħłãħłãħł":8941,"EO":8942,"ìłľíķľ":8943,"atrix":8944,"Ġê·¸ê²Į":8945,"Ġê¸¸ìĿ´":8946,"Ġíļ¨ìľ¨":8947,"ë¶ĦìĿĢ":8948,"Ġíĺ¹ìĭľ":8949,"æŃ":8950,"mas":8951,"ìĹĲë§Į":8952,"ìħ¨ëĭ¤":8953,"īìŀ¥ê³ł":8954,"Ġê·¸ë£¹":8955,"Ġê·ł":8956,"Ġoptim":8957,"ĠPol":8958,"ĠëłĪìĿ´":8959,"Ġëįķë¶ĦìĹĲ":8960,"Ġê³³ìĹĲìĦľ":8961,"Ġê²½ê¸°ëıĦ":8962,"Ġwatch":8963,"Ġanything":8964,"ìĹĲìĦł":8965,"æĿ":8966,"Address":8967,"Ġintern":8968,"ĠAg":8969,"tty":8970,"Ġ!!!":8971,"Ġword":8972,"ï¼Į":8973,"ĠìĭľìŀĳíĸĪëĭ¤":8974,"ë³´íĨµ":8975,"Ġnone":8976,"offset":8977,"ĠëĮĢíķľë¯¼êµŃ":8978,"Ġì°°":8979,"Ġlarger":8980,"ìĹ¬ìŀĲ":8981,"íħĲëį°":8982,"++)":8983,"Ġsaf":8984,"ë§¤ë§¤":8985,"Ġreturns":8986,"ĠĠĠĠĠĠĠĠĠĠĠĠĠĠĠĠĠĠĠĠĠĠĠĠĠĠĠĠĠĠĠĠĠĠĠ":8987,"Url":8988,"ë¯¹":8989,"Fe":8990,"ì¤Į":8991,"Ġ<!--":8992,"Ġê²½ìļ°ëĬĶ":8993,"Ġë§Įëĵ¤ê³ł":8994,"ê±´ì¶ķ":8995,"operator":8996,"Ġcam":8997,"íķ´ì§ĢëĬĶ":8998,"79":8999,"89":9000,"Ġstaff":9001,"TYPE":9002,"ë¶Ħê¸°":9003,"å±":9004,"ĠëĬĲëĤĮìĿĦ":9005,"ĠìĪĺìĥģ":9006,"ì³¤ëĭ¤":9007,"Ġdeep":9008,"Cache":9009,"Ġsequence":9010,"ĠìĹ°ìĨį":9011,"Ġpers":9012,"Ġíķ´ìĦĿ":9013,"').":9014,"ĠSee":9015,"command":9016,"ì£¼ìĨĮ":9017,"ìłĲìľ¼ë¡ľ":9018,"ĠìķĪìĹĲìĦľ":9019,"ë´¤ëĬĶëį°":9020,"Ġselected":9021,"Ġë¶ĢëĵľëŁ½":9022,"Ġfeed":9023,"\"),":9024,"Ġê°Ģë³į":9025,"Ġsolid":9026,"ĠST":9027,"ê²¨ìļ¸":9028,"Ġì¤Ħìĸ´":9029,"itory":9030,"Ġê·¸ëıĻìķĪ":9031,"Ġrow":9032,"pload":9033,"iece":9034,"Ġê°ķìĿĺ":9035,"ĠëĤ¬":9036,"Ġê±°ì³Ĳ":9037,"ĠìĿĮë£Į":9038,"Ġwent":9039,"101":9040,"ĠEq":9041,"ì«":9042,"ĠëĤĺë¨¸":9043,"ìŀĲê²©":9044,"Back":9045,"Ġdam":9046,"ĠCLASS":9047,"Ġexception":9048,"uit":9049,"zeta":9050,"Ġì·¨ìĹħ":9051,"Ġbal":9052,"Ġë°ľëĿ¼":9053,"ĠCity":9054,"Ġë³´ëıĦ":9055,"íķĺê²łìĬµëĭĪëĭ¤":9056,"Case":9057,"íĮĮìĿ´":9058,"ĠëĦĵìĿĢ":9059,"ĠíĶĦë¡ľìłĿ":9060,"ìĺ¤ë¹ł":9061,"Ġê·¸ëŁ´":9062,"Offset":9063,"ë¯¸ê°Ģ":9064,"ë¯¸ìĪł":9065,"Ġfavor":9066,"ê²ĥê°Ļ":9067,"Ġìĸ´ì©Į":9068,"æĪ":9069,"ĠëĤĺìĻĢìĦľ":9070,"pth":9071,"Ent":9072,"íķĺíķĺ":9073,"}+":9074,"ìŀ¬ë£Į":9075,"########":9076,"ëĭ¨ìĿ´":9077,"Ġê±°ê¸°":9078,"íĥĲ":9079,"Ġsort":9080,"ORT":9081,"DF":9082,"ìłĢê¸°":9083,"Ġfoot":9084,"Char":9085,"ê²½ê¸°ëıĦ":9086,"Ġstar":9087,"Ġinfl":9088,"ĠìĹĲìĦľ":9089,"ë¦¬ë©°":9090,"Ġveh":9091,"Ġê¸°íļį":9092,"ĠìĻĦìłĦíŀĪ":9093,"ĠíĻķìĭ¤íŀĪ":9094,"Ġshop":9095,"ĠEurope":9096,"ë°Ń":9097,"Ġmaximum":9098,"Ġbuilt":9099,"ĠSK":9100,"fa":9101,"ãģĹ":9102,"pling":9103,"ĠInter":9104,"Ġready":9105,"ìĸ´ìł¸":9106,"å¯":9107,"Ġspeed":9108,"äºº":9109,"ãģ¦":9110,"ĠHREF":9111,"ìĭľëĮĢ":9112,"rown":9113,"ĠìĹī":9114,"ìĹł":9115,"ued":9116,"Ġì¦Ĳê¸°":9117,"ãģª":9118,"ĠLicense":9119,"ìĺĪìĪł":9120,"íĥ±":9121,"ìļ°ë¦¬ê°Ģ":9122,"ĠìłķìĿĺ":9123,"iler":9124,"ĠGl":9125,"ì¡°ìĦł":9126,"Ġëį®":9127,"Server":9128,"ĠìŀĪì£ł":9129,"ãĤĭ":9130,"ìłĦìĿ´":9131,"Ġrisk":9132,"ĠìķĦìĿ´ëĵ¤":9133,"ĠíĴįê²½":9134,"ê°Ģê²Į":9135,"ĠType":9136,"javascript":9137,"ìĸ´ìłľ":9138,"íļĮìĹĲìĦľ":9139,"ĠìĬ¤íİĺ":9140,"emma":9141,"Ġê·¼ìľ¡":9142,"Ġcompar":9143,"Ġcouple":9144,"sequ":9145,"Ġfinancial":9146,"Ġvirtual":9147,"Frame":9148,"Acc":9149,"Ġë¹ĦíĥĢë¯¼":9150,"Ġìŀĳê°Ģ":9151,"ba":9152,"miss":9153,"Ġoffice":9154,"ober":9155,"ĠRE":9156,"pdf":9157,"iol":9158,"Ġrad":9159,"ĠTheorem":9160,"Ġlocated":9161,"ê½":9162,"Ġproduction":9163,"ëªħìĿĢ":9164,"Ġpopular":9165,"ĠëĶ°ëľ»íķľ":9166,"Ġdrop":9167,"alax":9168,"Ġëĵ¤ìĸ´ê°Ħ":9169,"Ġì£¼ëª©":9170,"Ġëļľ":9171,"Ġë§ŀê²Į":9172,"Ġgenerated":9173,"Ġë§ĽìĿĦ":9174,"hent":9175,"Ġì§ģìĹħ":9176,"ëĵŃ":9177,"Ġìĺ¤ë¥´":9178,"Ġë¬´ì¡°ê±´":9179,"ĠìĹĨì§Ģë§Į":9180,"ĠìĪ²":9181,"Ġë´ħëĭĪëĭ¤":9182,"194":9183,"reference":9184,"Ġê³¨íĶĦ":9185,"Update":9186,"Ġtour":9187,"ĠCheck":9188,"ĠìĤ¶ìĿĺ":9189,"ĠëĮĵê¸Ģ":9190,"ĠUnited":9191,"ë©Ķë¦¬":9192,"IR":9193,"Ġë¶Ħë¦¬":9194,"Ġëĭ¨ì§Ģ":9195,"Ġeffects":9196,"Layout":9197,"Ġrecogn":9198,"Ġê·¼ë¡ľ":9199,"ĠìĻ¸ë¶Ģ":9200,"expected":9201,"Ġclients":9202,"ëįĶìļ±":9203,"ìĹĲìĸ´":9204,"}]":9205,"Ġìĥģì²ĺ":9206,"ĠìķĬëıĦë¡Ŀ":9207,"Ġcontract":9208,"Us":9209,"Ġê³ĦìĤ°":9210,"```":9211,"íķĻìĬµ":9212,"ï¿½":9213,"Ġdoc":9214,"Ġcand":9215,"íķ´ë¥¼":9216,"ëĤĮ":9217,"Ġë§Īìĭľ":9218,"Ġitself":9219,"ëį¤":9220,";\\":9221,"ĠëĳĶ":9222,"ĠMan":9223,"Ġê´ĳì£¼":9224,"ĠíĻľëıĻìĿĦ":9225,"Ġleading":9226,"Ġë§ĽìŀĪëĭ¤":9227,"Ġuses":9228,"Ġequal":9229,"icles":9230,"ĠëĳĲëł¤":9231,"íĬĢ":9232,"ĠNational":9233,"Ġnav":9234,"Ġì±Ħìļ©":9235,"ãĢģ":9236,"ĠëĮĢì¶ľ":9237,"Ġgrowth":9238,"Ġíİ¸ìĿĺ":9239,"ĠJohn":9240,"ê±´ë¬¼":9241,"ë¶ķ":9242,"ĠSm":9243,"ried":9244,"Ġtemperature":9245,"Ġtreatment":9246,"ĠëĮ":9247,"ì²´íĹĺ":9248,"Ġì¸¡ìłķ":9249,"onal":9250,"ĠìŀĪìĿĦê¹Į":9251,"Ġscreen":9252,"Ġoil":9253,"ĠAb":9254,"Ġwomen":9255,"Ġê³łìłķ":9256,"ëĵľëł¤ìļĶ":9257,"ìĿ´ìĹĪëįĺ":9258,"ĠìĿ¼ìĿĢ":9259,"Ġassign":9260,"è¡":9261,"ĠìĥĿê²¨":9262,"ëħ¹":9263,"kit":9264,"ĠëĮĢíĻĶ":9265,"Ġideas":9266,"Ġlo":9267,"ëĤĺë§Ī":9268,"Ġëĭ¬ëŁ¬":9269,"QL":9270,"130":9271,"íķ¨ê»ĺ":9272,"ìħī":9273,"ì©į":9274,"elt":9275,"Ġyourself":9276,")=\\":9277,"Ġë§Īìĭľê³ł":9278,"ìĿ´ìĹĪìĸ´ìļĶ":9279,"íĶĶ":9280,"Ġê·¸ëĵ¤ìĿĺ":9281,"Ġcontr":9282,"_+":9283,"Ġê³łìĥĿ":9284,"ë¬¼ê´Ģ":9285,"ĠìłĢëł´íķľ":9286,"ĠëıĻëĦ¤":9287,"itude":9288,")}\\":9289,"free":9290,"Ġê³¼ìłķìĿĦ":9291,"ìĺµëĭĪëĭ¤":9292,"Width":9293,"Ġãħ":9294,"ë¥łìĿ´":9295,"Ġê³¼ìłķìĹĲìĦľ":9296,"Ġgames":9297,"Ġplatform":9298,"Rep":9299,"Ġprep":9300,"hy":9301,"}=\\":9302,"}/":9303,"(_":9304,"Ġseem":9305,"ìŀ¥ìĨĮ":9306,"enced":9307,"ìĸ´ëĬĶ":9308,"ĠìĤ¬ëŀĮëĵ¤ìĿĺ":9309,"Types":9310,"íĳ":9311,"ìľĪ":9312,"Ġìĭ¤íĹĺ":9313,":</":9314,"Ġfix":9315,"Ġuint":9316,"ĠìĭłìĦł":9317,"Ġresources":9318,"Ġsoon":9319,"ìĿĮìĭĿ":9320,"window":9321,"Ġsn":9322,"ê³łëĬĶ":9323,"êµŃìłľ":9324,"Ġsense":9325,"íķĺëĬĺ":9326,"ĠëķĮë§Īëĭ¤":9327,"Ġìĭľë¦¬ì¦Ī":9328,"Max":9329,"ĠìĿ´ë²ĪìĹĲ":9330,"ĠìĬ¤íģ¬":9331,"ĠëĲĺëĬĶëį°":9332,"Ġutil":9333,"After":9334,"ë¡ľë¥¼":9335,"otal":9336,"PT":9337,"uate":9338,"Ġones":9339,"Ġë°Ľìķĺëĭ¤":9340,"tries":9341,"Ġcomponents":9342,"ì£¼ìĭł":9343,"ĠArray":9344,"Ġreach":9345,"ĠSchool":9346,"ĠìĦľë¹ĦìĬ¤ë¥¼":9347,"ĠëĤĺìĻĶëĭ¤":9348,"COL":9349,"Ġthroughout":9350,"ĠNow":9351,"files":9352,"ĠSome":9353,"ĠìĤ¬ëŀĳíķĺëĬĶ":9354,"ĠìķĦë¬´ë¦¬":9355,"Ġbasis":9356,"Ġê¸įìłķ":9357,"ĠìķĬìķĦëıĦ":9358,"ê±°ëĿ¼":9359,"Ġë³´ìĺĢëĭ¤":9360,"ĠìµľëĮĢíķľ":9361,"Vert":9362,"aker":9363,"Ġêº¼ëĤ´":9364,"ì¤ĳìĿ´":9365,"Ġobj":9366,"Ġë¹Ħë°Ģ":9367,"ìĤ´ìĿ´":9368,"ĠìĬ¤ë§ĪíĬ¸íı°":9369,"ë³´ì¦Ŀ":9370,"Ġphone":9371,"ATION":9372,"Ġê·¸ë§Į":9373,"Ġë§ģíģ¬":9374,"ìĽ¨ìĿ´":9375,"ë¡ľìļ°":9376,"íĬ¸ë¦¬":9377,"Ġnews":9378,"ĠìłĦíķ´":9379,"íĻķìĿ¸":9380,"ĠìľĦìĽĲ":9381,"ĠSu":9382,"íĶĦëłĪ":9383,"Ġê°¤":9384,"Ġcomfort":9385,"ĠëĤĺìĹĲê²Į":9386,"FO":9387,"ê¸ĪìĿĢ":9388,"íĬľë¸Į":9389,"ĠìĨĮìĨį":9390,"Ġìĭľê°ģ":9391,"ëħĦìĿĺ":9392,"ĠëĪĦêµ¬ëĤĺ":9393,"Vis":9394,"That":9395,"Ġphysical":9396,"afe":9397,"ìĽĮìļĶ":9398,"ë¿Į":9399,"Provider":9400,"Tag":9401,"ournal":9402,"Ġì§Ģê¸Īê¹Įì§Ģ":9403,"{(":9404,"ê²ĢìĤ¬":9405,"NAME":9406,"Ġì§ģìŀ¥":9407,"Ġimmedi":9408,"ĠëķĮëıĦ":9409,"Ab":9410,"íķĺìļ°":9411,"êµ¬ë§Ī":9412,"ìķĦë¹ł":9413,"Ġequival":9414,"ĠìĪĺë°ĸìĹĲ":9415,"pli":9416,"MM":9417,"aily":9418,"ĠìĦłíĺ¸":9419,"ìĿĮìķħ":9420,"Ġë¯¿ê³ł":9421,"ëĵ±ê¸ī":9422,"Ġë·°":9423,"ĠìĿĮìĭĿìĿĦ":9424,"ìĪĺìĽĲ":9425,"ĠìķĦìĿ´ê°Ģ":9426,"Ġsix":9427,"ìłĦê¸°":9428,"ĠPark":9429,"Ġê°ĲìĹ¼":9430,"ê²½ì°°":9431,"Ġmemory":9432,"Ġrot":9433,"Ġë¶Ģë¶ĦìĿĦ":9434,"unit":9435,"ì²ľìĽĲ":9436,"icrosoft":9437,"ì£¼ë§Ĳ":9438,"ëħĦëıĦ":9439,"íķŃê³µ":9440,"ìĻĦìłĦ":9441,"ìĭľíĭ°":9442,"Ġë°Ķíĥķìľ¼ë¡ľ":9443,"Bl":9444,"Ġkit":9445,"Ġìĸ¸ë¡ł":9446,"ìĺ¬íķ´":9447,"Ġê²ĢíĨł":9448,"ART":9449,"ê¸ĭ":9450,"Ġëıħë¦½":9451,"ĠGoogle":9452,"ê³Ħê°Ģ":9453,"ĠìĦłë°ľ":9454,"ë¸ĶëŀĻ":9455,"Ġoffset":9456,"ĠìŀĳìĹħìĿĦ":9457,"iform":9458,"ê¹Ģì¹ĺ":9459,"Ġê°ĸì¶Ķ":9460,"Dep":9461,"Ġê³ģ":9462,"Ġmaintain":9463,"Ġìĺµ":9464,"Ġprobably":9465,"Ġì°įìĿĢ":9466,"Ġdescribed":9467,"ë¯¸ë¥¼":9468,"ëħĦìĿĦ":9469,"store":9470,"Dev":9471,"Ġìĥģìĥģ":9472,"ĠìľłìĿ¼":9473,"Ġsymmet":9474,"Ġneighb":9475,"ĠìķĦëĭĮê°Ģ":9476,"ĠNote":9477,"LI":9478,"oost":9479,"Ġì§±":9480,"ĠíĮ¨ìħĺ":9481,"PA":9482,"íĨ±":9483,"ĠDep":9484,"NE":9485,":\"":9486,"Ġê³¤":9487,"ĠìłķëıĦìĿĺ":9488,"ĠëıĻìĺģìĥģ":9489,"Ġeveryone":9490,"ĠíĻĶëł¤":9491,"ĠìķĦëĭĪì§Ģë§Į":9492,"ĠSup":9493,"ĠìĭľëıĦ":9494,"ĠìĿ´ìĻĢ":9495,"([":9496,"oto":9497,"Ġì¡°ìłķ":9498,"Ġreplac":9499,"ĠìķĦëĭĲê¹Į":9500,"hel":9501,"Ġgas":9502,"********************************":9503,"Ġhor":9504,"ĠìĥĿê°ģíķĺê³ł":9505,"Ġíķ¨ìľł":9506,"Ġexisting":9507,"190":9508,"Ġê°Ģê¸°":9509,"Ġdirection":9510,"Ġëĭ¤ë¥´ê²Į":9511,"year":9512,"ê³łê°Ģ":9513,"Ġcause":9514,"ĠTable":9515,"$)":9516,"êµ¬ëĬĶ":9517,"lemma":9518,"aset":9519,"ìĭ¤ìĹĲ":9520,"But":9521,"values":9522,"Ġlevels":9523,"ì£¼ìĹĲ":9524,"Ġprote":9525,"require":9526,"Ġpractice":9527,"SA":9528,"Ġíĸ¥íķ´":9529,"Ġdeliver":9530,"attern":9531,"rum":9532,"Ġì¦Ĳê²ģ":9533,"Bundle":9534,"ë¥ĺë¥¼":9535,"ĠAcc":9536,"ìĺĪìķ½":9537,"itect":9538,"ĠRec":9539,"ĠíĿĶëĵ¤":9540,"ìĺģìĹħ":9541,"ĠëĤĺíĥĢëĤĺ":9542,"ë¡¬":9543,"Ġëĵ¤ìĸ´ìĺ¤":9544,"Target":9545,"Ġtherefore":9546,"íĬ¸ëĤ¨":9547,"Ġê°Ĳìłķ":9548,"scope":9549,"ĠëĮĢíķ´ìĦľëĬĶ":9550,"vey":9551,"atory":9552,"Configuration":9553,"ĠìĪĺìĺģ":9554,")^{":9555,"ì¡°ì°¨":9556,"102":9557,"íķĺìħĶìĦľ":9558,"Now":9559,"ĠìķĬìľ¼":9560,"Ġdegree":9561,"ëł¥ê³¼":9562,"Ġë³ĳìĽĲ":9563,"ĠëĶĶì§ĢíĦ¸":9564,"ë¬´ë¥¼":9565,"ë¡ľëıĦ":9566,"Ġboard":9567,"Ġupon":9568,"ĠFrom":9569,"ĠHigh":9570,"ĠíķŃê³µ":9571,"ĠëĤĺëĪł":9572,"Ġëĭµë³Ģ":9573,"Ġ~~":9574,"Ġê¸°ì¤Ģìľ¼ë¡ľ":9575,"ĠìłĦë°ĺ":9576,"ĠìľłìĿĺ":9577,"ĠëĮĢê¸°":9578,"Psi":9579,"ëĵľìĿĺ":9580,"Ġìĭ¬ë¦¬":9581,"ĠëıĮëł¤":9582,"Ġë¶ĦìĿ´":9583,"Ġìķ¼ì±Ħ":9584,"Ġlen":9585,"ìĭľê³µ":9586,"roy":9587,"ĠìĪĺìłķ":9588,"Ġvariety":9589,"netic":9590,"ĠWorld":9591,"ĠSouth":9592,"Ġargs":9593,"ĠìĮį":9594,"Ġë§¤ìŀ¥":9595,"ĠStr":9596,"ìłĦì²´":9597,"rics":9598,"App":9599,"ë§Įì¡±":9600,"styles":9601,"Ġë¹Ħìĭ¸":9602,"Ġê³Ħìĭľ":9603,"example":9604,"ĠYork":9605,"Ġê·¸ê²ĥìĿĦ":9606,"ĠìĭľëĮĢ":9607,"Min":9608,"Ġconfiguration":9609,"Container":9610,"Ġâĸ³":9611,"çļĦ":9612,"Access":9613,"ĠìłĲìĿ´":9614,"ë§Īë¦¬":9615,"Ġfinite":9616,"parse":9617,"leep":9618,"Ġdimension":9619,"íķ¨ìľ¼ë¡ľìį¨":9620,"Ġíİľ":9621,"ecute":9622,"íĻĶìłĲ":9623,"Ġcapt":9624,"ĠHere":9625,"ĠìļĶìĨĮ":9626,"Ġtemplate":9627,"ë±ħ":9628,"ĠìłģìĿĢ":9629,"íĦ°ë¥¼":9630,"Ġwide":9631,"ãĦ±":9632,"Ġãħłãħłãħł":9633,"ìĽ¨ìĸ´":9634,"Ġìŀłê¹Ĳ":9635,"ards":9636,"Ġê¸Īë°©":9637,"widehat":9638,"aml":9639,"ĠíĨµíķĺìĹ¬":9640,"ìħ¨ìĬµëĭĪëĭ¤":9641,"Ġë§º":9642,"proto":9643,"ë§Ĳë¡ľ":9644,"Ġìĭ¤ì²ľ":9645,"Ġfully":9646,"Ġêµ¿":9647,"ê±´ì§Ģ":9648,"ĠAust":9649,"frame":9650,"ì¶Ķê°Ģ":9651,"Ġdecl":9652,"Ġreli":9653,"ervices":9654,"cit":9655,"ĠìŀĪìĹĪê³ł":9656,"ĠíķłìĪĺ":9657,"ĠìĹĨìĸ´ìļĶ":9658,"]);":9659,"Ġì§ĪíĻĺ":9660,"æķ":9661,"ìĦłë¬¼":9662,"ìĺ¤ëĬĺëıĦ":9663,"ìĿ¸ìĹĲ":9664,"íĭ°ë¸Į":9665,"Ġë¶Īê°ĢëĬ¥":9666,"Ġëĵ¯íķľ":9667,"ëĨĴ":9668,"ìłľìŀĳ":9669,"ĠìĦ¤ë¦½":9670,"Ġassume":9671,"Ġëĵ¤ëł¤":9672,"template":9673,"Ġswitch":9674,"ë³¶ìĿĮ":9675,"ìĪŃ":9676,"íı¬ìĿ¸íĬ¸":9677,"ĠíĺĦì§Ģ":9678,"Ġë³´ìĹ¬ì£¼":9679,"float":9680,"Ġë§¥ì£¼":9681,"ìĥģíĻ©":9682,"Ġìľ¼ë¡ľ":9683,"Ġisn":9684,"íĥĢìŀĦ":9685,"ĠíıīìĨĮ":9686,"ëĤ¨ìŀĲ":9687,"Ġìĺ¤ëŀľë§ĮìĹĲ":9688,"Ġproced":9689,"Ġfire":9690,"Ġmechan":9691,"star":9692,"ëĭ¨ìĹĲ":9693,"ê°ĳëĭĪëĭ¤":9694,"Ġì¹ĺíĤ¨":9695,"Ġcompared":9696,"ëĩĮ":9697,"Ġago":9698,"Ġvs":9699,"ëģ¼ë¦¬":9700,"ellow":9701,"Ġsession":9702,"Ġlayer":9703,"ìĤ°ìĿĺ":9704,"ĠSw":9705,"Ġë³´ìŀ¥":9706,"Ġgoal":9707,"Ġproposed":9708,"MD":9709,"ĠOR":9710,"ĠìłĳìĪĺ":9711,"Ġë¯¸ìķĪ":9712,"}_\\":9713,"Ġì¢ĭìķĺìĸ´ìļĶ":9714,"Ġroad":9715,"Ġë§Įìķ½":9716,"ëŀŃ":9717,"common":9718,"ĠëķĮê°Ģ":9719,"ìĭľíĤ¬":9720,"}^\\":9721,"ĠìŀĲì²´ê°Ģ":9722,"Ġê¸°ìĸµìĿ´":9723,"ëıĻìĹĲ":9724,"Ġê·¸ê²ĥìĿĢ":9725,"uint":9726,"ìļĶíķľ":9727,"ë°ĽìĿĦ":9728,"rapper":9729,"ĠSk":9730,"Ġíķľíİ¸":9731,"SL":9732,"ĠìķĦì§ģëıĦ":9733,"Ġì¢ĭìķĦìĦľ":9734,"ìĿĺìĽĲ":9735,"note":9736,"ĠìĹĨìĿĮ":9737,"PL":9738,"ìģ¨":9739,"íħĮíģ¬":9740,"stack":9741,"ìĦ¸ê¸°":9742,"ëıĻìĿĺ":9743,"root":9744,"ìĪĺìĹħ":9745,"Ġbrand":9746,"Ġcoming":9747,"Ġë¬´ìĦľ":9748,"Ġë¹ħ":9749,"Ġanswer":9750,"ìĬ¤íģ¬ë¦¼":9751,"Ġëĸ¼":9752,"Can":9753,"ë¶Ħìĸĳ":9754,"íĬ¸ìĿĺ":9755,"ê°Ĳìłķ":9756,"ometry":9757,"Ġì¶©ê²©":9758,"å¹":9759,"ĠìĹ¬ëŁ¬ê°Ģì§Ģ":9760,"ì£¼ìĭľë©´":9761,",,":9762,"Ġë§ĪìĿĮìľ¼ë¡ľ":9763,"Ed":9764,"Ġìĭłë°ľ":9765,"Ġdomain":9766,"Ġë©¤ë²Ħ":9767,"íķ´ê°Ģ":9768,"ìĥĺ":9769,"ĠService":9770,"ëį´":9771,"ë´ĩ":9772,"íĺķìĿ´":9773,"should":9774,"task":9775,"Ġê±°ì£¼":9776,"íĺ¹ìĭľ":9777,"Ġdescription":9778,"ë¥Ń":9779,"ìĤ¬ìĿ´íĬ¸":9780,"ìĿ´ë²ĪìĹĲ":9781,"Ġinteresting":9782,"Ġabsolut":9783,"Ġë´ĲëıĦ":9784,"ĠëĤłìĿ´":9785,"Ġactual":9786,"Ġtrying":9787,"plus":9788,"Ġclasses":9789,"ĠìłĲìĿĦ":9790,"ë¨¹ìĿĦ":9791,"ĠíĺĲ":9792,"Ġmanufact":9793,"Ġconstruction":9794,"itable":9795,"Ġobserved":9796,"Ġê·¸ìłĢ":9797,"ê±°ê°Ļ":9798,"ìĿ¸íĦ°ëĦ·":9799,"ĠëħĢìĦĿ":9800,"aints":9801,"Ġì¢ģ":9802,"Sim":9803,"ĠíĴĢìĸ´":9804,"å¾":9805,"bool":9806,"ë³¸ëĭ¤":9807,"Ġapplications":9808,"ëĵľë¦¬ê²łìĬµëĭĪëĭ¤":9809,"ê±°ìĹĲìļĶ":9810,"that":9811,"ìĮį":9812,"Ġbre":9813,"Ġê¸°ëĬ¥ìĿĦ":9814,"Ġcomputer":9815,"íķŃìĥģ":9816,"ìĥīìĿ´":9817,"ĠNorth":9818,"ìĻĢëĬĶ":9819,"Ġnothing":9820,"}|":9821,"Ġinfo":9822,"íĭ¸":9823,"prox":9824,"Ġprevent":9825,"192":9826,"MB":9827,"íĺ¸ìĤ¬":9828,"ëª¨ìĬµ":9829,"anagement":9830,"ë¦¼íĶ½":9831,"ìį¹":9832,"Ġìĭ¬ê°ģ":9833,"Ġmention":9834,"rief":9835,"ĠìķĬì§Ģë§Į":9836,"ĠìĿ´ìľłê°Ģ":9837,"cdots":9838,"âĿ":9839,"ëĤĺëĭ¤":9840,"Ġparty":9841,"equiv":9842,"Ġëĭ¹ìĹ°íŀĪ":9843,"Ġê·¸ë¥¼":9844,"mid":9845,"Ġìŀħì£¼":9846,"86":9847,"Ġë§ĮëĤľ":9848,"ĠëĲľëĭ¤ê³ł":9849,"match":9850,"Ġê°Ģê¹ĮìĿ´":9851,"ĠFigure":9852,"Ġprojects":9853,"urren":9854,"ë·Ķ":9855,"Ġnumbers":9856,"sd":9857,"ìĦľë¡ľ":9858,"ìĹĳ":9859,"ë°Ķëĭ¤":9860,"ĠWeb":9861,"Ġleave":9862,"Ġëĭ¤ìĨĮ":9863,"ĠFile":9864,"ìĭ¶ìĿĢ":9865,"ãħ¡ãħ¡":9866,"SH":9867,"Ġexpression":9868,"ĠìĭĿíĴĪ":9869,"ì¼Ģìĸ´":9870,"Ġë°ĺì°¬":9871,"normal":9872,"ĠìłķíĻķíķľ":9873,"Ġë³¸ëĭ¤":9874,"Ġrecommend":9875,"ìłĦìĿĺ":9876,"ëıĮìķĦ":9877,"etch":9878,"Interface":9879,"ĠìŀĲìĦ¸íŀĪ":9880,"ìĿ´íģ¬ìĹħ":9881,"atively":9882,"ëł¥ìĿĢ":9883,"Ġuseful":9884,"Ġshape":9885,"Ġíĳ":9886,"()->":9887,"Ġëĭ«":9888,"ìĿ´ê³³":9889,"ĠìĿ´ë¯¸ì§Ģ":9890,"iring":9891,"CA":9892,"Ġê·ĢìĹ½":9893,"ĠìĽ¹":9894,"íĺķìĿĺ":9895,"140":9896,"ĠìĥĿê°ģíķ©ëĭĪëĭ¤":9897,"Ġìº¡":9898,"Ġsound":9899,"ĠìłĢìŀ¥":9900,"amily":9901,"Ġì²ľìĹ°":9902,"Ġì°¨ìĿ´":9903,"Ġvers":9904,"ë°ĺê¸°":9905,"ĠëķĲ":9906,"Ġcho":9907,"omorph":9908,"Ġìį¼":9909,"ĠëķĮìĹĲëĬĶ":9910,"jection":9911,"Ġarticle":9912,"ì½¤íķľ":9913,"Ġë¶Īê°Ģ":9914,"Ġamaz":9915,"ĠJan":9916,"Ġprop":9917,"Entry":9918,"ê³ĦìĿĺ":9919,"Ġì¢ħêµĲ":9920,"ĠìłĦíĸĪëĭ¤":9921,"ĠìĦ±ëĬ¥":9922,"ìŀ¬ë¥¼":9923,"Ġrestr":9924,"ln":9925,"Ġinsp":9926,"Ġfill":9927,"Ġstorage":9928,"ë´¤ìĸ´ìļĶ":9929,"Ġopportunity":9930,"íķµ":9931,"íİĮ":9932,"Ġchannel":9933,"ìĭŃìĭľìĺ¤":9934,"ëĭ¹íķľ":9935,"ĠìĿ´ë¡ł":9936,"Ġvariable":9937,"Ġì§Ħì¶ľ":9938,"ctx":9939,"ë³´ìŀĲ":9940,"inally":9941,"criptor":9942,"íĸĪìľ¼ë©°":9943,"Ġmor":9944,"ë¸Ķë¡ľê·¸":9945,"ëĭĪê¹ĮìļĶ":9946,"ĠSub":9947,"Open":9948,"ìĹĪìĿĦ":9949,"Ġstreng":9950,"ê·¸ëłĪìĿ´":9951,"Ġliter":9952,"ì§ĦìĿ´":9953,"íĸīë³µ":9954,"uge":9955,"Ġê·ľìłķ":9956,"Ġreading":9957,"Ġì´īì´ī":9958,"CODE":9959,"acks":9960,"ĠìĿ´ìļ©íķ´":9961,"Ġìĥģíĺ¸":9962,"Ġrecently":9963,"rs":9964,"Ġrelative":9965,"96":9966,"di":9967,"ãĢĭ":9968,"ë°©ë¬¸":9969,"Ġíķĺìĭ¤":9970,"Ġband":9971,"Ġìĭ¶ìĸ´ìĦľ":9972,"igen":9973,"Ġapplied":9974,"Ġì²ĺìĿĮìľ¼ë¡ľ":9975,"support":9976,"ĠìĤ¬ìļ©íķĺê³ł":9977,"Ġbottom":9978,"Ġconcern":9979,"ese":9980,"ĠëģĿëĤĺ":9981,"ëĶ°ëĿ¼":9982,"ìłľëıĦ":9983,"ACK":9984,"qquad":9985,"gebra":9986,"textwidth":9987,"ĠìŀĲìłĦê±°":9988,"ĠBar":9989,"ĠëĤĺìĺ¨ëĭ¤":9990,"ìĬ¤ì¹´":9991,"arant":9992,"atives":9993,"ĉĉĉĉĉĉĉ":9994,"ë¹Ķ":9995,"ìķ¼ì§Ģ":9996,"ìĹ¬ê¸°ìĦľ":9997,"ĺ¥":9998,"ĠìĹĲëĦĪì§Ģ":9999,"then":10000,"Callback":10001,"Ġíģ´ëŀĺ":10002,"oder":10003,"conf":10004,"éĩ":10005,"ĠTHE":10006,"alled":10007,"ĠìĿ´ëķĮ":10008,"leased":10009,"Ġì£¼ìĭł":10010,"CR":10011,"ounter":10012,"Ġcool":10013,"Ġê±´ëĦĪ":10014,"ĠRep":10015,"ĠëŁ°":10016,"ĠíķľìŀĶ":10017,"ìĵ¸":10018,"alle":10019,"Top":10020,"ĠìĿ´ìłľëĬĶ":10021,"XX":10022,"Ġskin":10023,"Ġactivities":10024,"ĠNO":10025,"Ġìĭľê°ĦìĹĲ":10026,"íķłìĿ¸":10027,"ening":10028,"ìĭľíĤ¤ê³ł":10029,"Inst":10030,"icate":10031,"break":10032,"lying":10033,"Ġëª¸ìĿ´":10034,"ĠìĭľìĪł":10035,"Mem":10036,"ëĬĶê°Ģ":10037,"Ġbuffer":10038,"Ġprobability":10039,"ë©´ìĹĲìĦľ":10040,"Ġessential":10041,"ë§ĪëĶĶ":10042,"ê´ĳì£¼":10043,"ĠCount":10044,"artment":10045,"Ġ\\{":10046,"Ġcoordin":10047,"ä¸Ģ":10048,"Ġì¤ĳìĿ¸":10049,"edding":10050,"Ġeducation":10051,"ìĿ´ëŁ¬íķľ":10052,"adow":10053,"onstr":10054,"ĠìĥĿëªħ":10055,"ì¢ħíķ©":10056,"{}":10057,"ìĨĮê°ľ":10058,"ĠìĦłê±°":10059,"Ġindependent":10060,"Ġtools":10061,"Ġê³ĦëŀĢ":10062,"ĠìĪĺíķĻ":10063,"outer":10064,"ĠìĽĮëĤĻ":10065,"Ġì¢ĭì§Ģ":10066,"Ġconver":10067,"ĠWindow":10068,"Parameter":10069,"Ġexam":10070,"Ġê³łìļ©":10071,"ĠìĬ¤íĶ¼":10072,"ê¸¸ìĿ´":10073,"tree":10074,"irit":10075,"ĠëĤ´ìļ©ìĿĢ":10076,"ë¯¼ì£¼":10077,"ëŁŃìĭľ":10078,"ë¦¬ëıĦ":10079,"apped":10080,"Ġì§§ìĿĢ":10081,"Ġë³´ë©°":10082,"ëĭ¤ëĵ¤":10083,"Ġë°ľëĭ¬":10084,"Ġappropri":10085,"ĠLog":10086,"Ġseems":10087,"control":10088,"Ġê³±":10089,"Ġqual":10090,"idget":10091,"ĠìĤ°ì±ħ":10092,"cup":10093,"ALL":10094,"Ġë§ŀì¶¤":10095,"Ġëª½":10096,"Ġë¨¹ìĸ´ëıĦ":10097,"Ġhappy":10098,"Ġëª°ëŀĲ":10099,"author":10100,"Ġfloat":10101,"Ġê·¼ê±°":10102,"Ġproviding":10103,"éĻ":10104,"Ġslow":10105,"Ġìŀħëł¥":10106,"Ġstarting":10107,"{{":10108,"Co":10109,"Ġìľłì¹ĺ":10110,"Ġspin":10111,"ìĺ¤ìĿ¼":10112,"Ġexactly":10113,"=\"../../../../../":10114,"Ġempty":10115,"ĠìĪĺë§İìĿĢ":10116,"ìĪĺìĹĲ":10117,"Ġê´ĢëŀĮ":10118,"Ġarguments":10119,"adem":10120,"Ġ{}":10121,"å·":10122,"Ġìıĺ":10123,"DD":10124,"Ġbehavior":10125,"aby":10126,"ìĤ¬íķľ":10127,")\"":10128,"ares":10129,"ìľĦíķ´":10130,"layer":10131,"ĠíĨµê³¼":10132,"Ġcompos":10133,"Ġmachine":10134,"ZE":10135,"CS":10136,"Range":10137,"ĠìĨĮëĵĿ":10138,"indent":10139,"ä¸į":10140,"Ġworth":10141,"Ġpretty":10142,"Ġê²½ìļ°ëıĦ":10143,"term":10144,"oded":10145,"âĳ£":10146,"Write":10147,"Ġê¼½":10148,"ĠëĴ¤ë¡ľ":10149,"oman":10150,"Header":10151,"sin":10152,"Ġpark":10153,"ootstr":10154,"Su":10155,"ĠìĥĮ":10156,"Ġê°ľìłķ":10157,"Ġbehind":10158,"Ġadmin":10159,"ĠëĤ´ê²Į":10160,"ĠìŀĲìĦ¸íķľ":10161,"Ġê³³ìĿĦ":10162,"Ġì¢ĭëĭ¤ê³ł":10163,"Tree":10164,"edge":10165,"ì§Ħíĸī":10166,"Ġmaterials":10167,"ìĿ´ìĹĪëĬĶëį°":10168,"document":10169,"ĠëŁ¬ìĭľìķĦ":10170,"Copy":10171,"airs":10172,"Ġaltern":10173,"Ġargument":10174,"drop":10175,"Ġtransition":10176,"ë§ĪíĨł":10177,"ĠíĶĦëŀĳìĬ¤":10178,"%%":10179,"ĠCreate":10180,"Ġnames":10181,"ĠìĿ´ìģľ":10182,"$(":10183,"ĠìĦ¸íĬ¸":10184,"ìĦ¸íķľ":10185,".âĢĿ":10186,"Ġcert":10187,"Ġë¶Ħëĵ¤ëıĦ":10188,"ĠìĹĦì²ŃëĤľ":10189,"iding":10190,"Ġdrive":10191,"buffer":10192,"Ġê³µíķŃ":10193,"})\\":10194,"otes":10195,"ì§ĦìĿĦ":10196,"ì¡°ìłľ":10197,"ĠReturns":10198,"Ġìĸĩ":10199,"íķĺê¸°ìĹĲ":10200,"193":10201,"Ġë°°ì¹ĺ":10202,"Ġëª»íĸĪëĭ¤":10203,"ë©ľ":10204,"Height":10205,"ĉĠ":10206,"Ġability":10207,"Level":10208,"ìķĺê³ł":10209,"%),":10210,"Ġprogress":10211,"ĠìĿ½ê³ł":10212,"tains":10213,"ĠìĻĢìĿ´":10214,"Ġê°ĻëĦ¤ìļĶ":10215,"ìĸ´ëĶĶ":10216,"Ġtransfer":10217,"ĠëĵľëĿ¼ìĿ´":10218,"íķ´ë³´ìĦ¸ìļĶ":10219,"ä¹ĭ":10220,"ìĬ¤ëĿ¼":10221,"Ġëº":10222,"ĠìĪĺìĽĲ":10223,"ĠëĵľëĶĶìĸ´":10224,"Ġlatest":10225,"ìļ´ëĵľ":10226,"bin":10227,"^+":10228,"Ġrequires":10229,"UB":10230,"API":10231,"Process":10232,"Ġì°¨ë¥¼":10233,"íķľì§Ģ":10234,"lish":10235,"Ġinsurance":10236,"pg":10237,"ĠìĿ´ìĿµ":10238,"ĠDE":10239,"ĠIS":10240,"ìķĦíĬ¸":10241,"ĠìľłíĨµ":10242,"ë°ı":10243,"ĠëĪĮëŁ¬":10244,"?:":10245,"Ġãħľãħľ":10246,"Ġwhose":10247,"Ġrender":10248,"Ġëıĭ":10249,"ĠJust":10250,"Ġë§İìĬµëĭĪëĭ¤":10251,"ĠìĦ¤ëªħíĸĪëĭ¤":10252,"Ġalign":10253,"Ġattempt":10254,"íĻĶìĿĺ":10255,"Ġìķ±":10256,"Utils":10257,"iet":10258,"ìĭ¤ìĿ´":10259,"ĠìłľíĴĪìĿĢ":10260,"å¤§":10261,"ìļ´ìłĦ":10262,"Ġë³´ìŀħëĭĪëĭ¤":10263,"Unit":10264,"Ġhighly":10265,"Ġê´ľì°®ìĿĢ":10266,"ìĹ¬ìĦ±":10267,"ille":10268,"å¿":10269,"uses":10270,"&&":10271,"Ġë¬¸ìĿĦ":10272,"ĠíķĦìļĶíķĺëĭ¤":10273,"ĠëĮĢë¡ľ":10274,"ëĭ¤ë§Į":10275,"Ġrelease":10276,"ĠìŀħìĿĦ":10277,"IGN":10278,"ecurity":10279,"Ġìłģíķ©":10280,"ĠìĨĮíĻĶ":10281,"fs":10282,"Work":10283,"ĳ¥":10284,"'),":10285,"Ġë§Īì¼ĢíĮħ":10286,"Ġpolit":10287,"Ġëĵ¤ìĸ´ê°ĢëĬĶ":10288,"ĠíĬ¹ìĦ±":10289,"sy":10290,"Ġìĭľê¸°":10291,"Ġíķĺëĭ¤ê°Ģ":10292,"Ġque":10293,"ĠìľłìķĦ":10294,"ëĶĺ":10295,"Ġotherwise":10296,"ì§ĳìĿĦ":10297,"255":10298,"Ġsales":10299,"token":10300,"ìĺ¤ëĬĺìĿĺ":10301,"Ġded":10302,"Ġë¬¼ìĿ´":10303,"ì£¼ìĸ¼":10304,"Ġjoin":10305,"ìŀĦëĮĢ":10306,"Ġë¶Ģë¶ĦìĿĢ":10307,"ê·¸ë¦¬":10308,"Ġsignal":10309,"ĠìĬ¤íĬ¸ëłĪ":10310,"Ġchalleng":10311,"ë°©ìĿĦ":10312,"Ġê³³ìľ¼ë¡ľ":10313,"82":10314,"final":10315,"ê¸°ì§Ģ":10316,"ĠëģĮìĸ´":10317,"Ġsun":10318,"mut":10319,"ĠìŀĲëĬĶ":10320,"Ġì¹ľêµ¬ê°Ģ":10321,"^-":10322,"Ġì°įê³ł":10323,"ham":10324,"Ġsmooth":10325,"íĽĦìĹĲ":10326,"ously":10327,"Ġìłĸ":10328,"Ġë¶ĢìĹ¬":10329,"ëĿ¼ìļ°":10330,"ê¸°ì¡´":10331,"Entity":10332,"Ġsubs":10333,"ê²¹ìĤ´":10334,"Ġìºłíķĳ":10335,"wner":10336,"ìĭ¤ìĹĲìĦľ":10337,"ìĿ¸íħĮë¦¬ìĸ´":10338,"Dat":10339,"ĠìĿ´ìľłë¡ľ":10340,"Ġì°½ìĹħ":10341,"ìĦľê°Ģ":10342,"Ġattention":10343,"ĠëĤĺìĺ¤ê³ł":10344,"ìĥĿìĿĦ":10345,"Ġskills":10346,"aced":10347,"}}(":10348,"=\"-":10349,"ĠëĤ³":10350,"ansp":10351,"Ġê°Ģë¡ľ":10352,"ias":10353,"ĠWhile":10354,"Ġë¯¸ì¹ĺëĬĶ":10355,"ì²ľíŀĪ":10356,"ulated":10357,"Ġë³´ìĭľë©´":10358,"êµ¬ìĹĲ":10359,"Ġconcept":10360,"Ġpackage":10361,"Ġbasic":10362,"Ġwanted":10363,"ìļ´ìĺģ":10364,"Ġë°°ê°Ģ":10365,"ĠíĶĦë¦¬ë¯¸ìĹĦ":10366,"Ġìĸ´ë¥¸":10367,"patch":10368,"ëĮĢíļĮ":10369,"Ġê±°ìķ¼":10370,"ĠìĥĿê°ģíķľëĭ¤":10371,"Ġmen":10372,"ìĿ¸ëıĦ":10373,"Ġexcell":10374,"Ġìłľê¸°":10375,"Ġrights":10376,"ìĭľìĿĺ":10377,"ë¥Ļ":10378,"ĠRed":10379,"eloc":10380,"71":10381,"Ġë²¨":10382,"Ġsettings":10383,"ì¸µìĹĲ":10384,"ĠìĹ¬ê¸°ìĹĲ":10385,"atically":10386,"Ġëª¸ìĹĲ":10387,"duc":10388,"ë½ķ":10389,"Ġgen":10390,"ootstrap":10391,"ë³´ëĵľ":10392,"ë°ĺì°¬":10393,"Ġê°Ħíİ¸":10394,"ĠìłĲê²Ģ":10395,"ë²Ħë¦°":10396,"ìĿ¼ëŁ¬":10397,"thon":10398,"Ġexcept":10399,"êµ¬ë¡ľ":10400,"ë°°ìļ°":10401,"Ġë§ŀìĿ´":10402,"ìĿ¼ë³´":10403,"vas":10404,"Control":10405,"cache":10406,"Ġìļ°ìĪĺ":10407,"íŀĪê³ł":10408,"Ġì´Īê¸°":10409,"Ġsupported":10410,"Ġyield":10411,"ë¦İ":10412,"Ġëĭĺ":10413,"ìķĦë¦¬":10414,"arp":10415,"Ġclosed":10416,"ĠOut":10417,"BA":10418,"ĠìĹ¬íĸīìĿĦ":10419,"Ġë§ĲìĿ´ëĭ¤":10420,"ĠìĿ½ìĸ´":10421,"ĠArt":10422,"Ġê²ĥë§Į":10423,"Ġbutton":10424,":(":10425,"íĶ¼ìķĦ":10426,"Ġë°©ì§Ģ":10427,"ĠRead":10428,"76":10429,"Ġfilm":10430,"ìĦľìĹĲ":10431,"hest":10432,"ìĿ¸ìĹĲê²Į":10433,"Ġseg":10434,"âĹĨ":10435,"ãĤĴ":10436,"ìĹĪëĭ¤ê³ł":10437,"weet":10438,"resource":10439,"augh":10440,"Ġprinc":10441,"ĠëĤ´ìļ©ìĿ´":10442,"ëĦ¤ìĿ´ë²Ħ":10443,"ë¬´ìĹĩ":10444,"Ġê°ľë´ī":10445,"Ġë°©ë²ķìĿĢ":10446,"AND":10447,"gn":10448,"ĠCenter":10449,"classes":10450,"Ġquickly":10451,"ë¨¼íĬ¸":10452,"ì§ģíķľ":10453,"arily":10454,"}^{(":10455,"ĠWork":10456,"Ġìĺ¬ëĿ¼ê°Ģ":10457,"Ġìĭłì²´":10458,"ĠApr":10459,"Ġsil":10460,"rad":10461,"ĠÃ":10462,"ìľłë¥¼":10463,"ìĭľìĬ¤":10464,"Ġpresented":10465,"ĠĠĠĠĠĠĠĠĠĠĠĠĠĠĠĠĠĠĠĠĠ":10466,"Ġì¤ĳìĨĮ":10467,"ĠíħĮìĬ¤íĬ¸":10468,"ìļ©íĴĪ":10469,"Ġë§ĲìĹĲ":10470,"Ġheld":10471,"mes":10472,"Ġincreasing":10473,"Ġrepresentation":10474,"cur":10475,"edia":10476,"ìĿ´ìĤ¬":10477,"erved":10478,"íļĮìĽĲ":10479,"Thread":10480,"íĸ¥ìĿĦ":10481,"ĠìĥģíĻ©ìĿ´":10482,"Ġblue":10483,"âľ":10484,"Ġ..":10485,"Ġcommit":10486,"rule":10487,"ãģ¨":10488,"ĠìĿ´ìļ©íķĺìĹ¬":10489,"ĠìĬĪíį¼":10490,"Ġì¡±":10491,"íĺ¼ìŀĲ":10492,"ĠëģĦ":10493,"ìĦľê´Ģ":10494,"ê´Ħ":10495,"Ġê±°ìĺĪìļĶ":10496,"Ġëª»íķł":10497,"ĠìĿ¸íĦ°ë·°":10498,"Ġcredit":10499,"ê¶ĮìĿ´":10500,"ĠìĨĲìĹĲ":10501,"Ġdecision":10502,"EM":10503,"Ġê°ĢëĬ¥íķĺëĭ¤":10504,"ìĿ´ì¦Ī":10505,"ê°ĢìĬ¤":10506,"images":10507,"uth":10508,"oles":10509,"ĠìķĦëĤ´":10510,"ì¢ħìĿĺ":10511,"Empty":10512,"Position":10513,"Ġcharge":10514,"artifact":10515,"Ġëĸłìĺ¤":10516,"ëĮĢì²´":10517,"ĠPlease":10518,"Ġëĭ¹ìĹ°":10519,"ëĭ«":10520,"Ġvariables":10521,"Ð»":10522,"ĠíķĺëĬĶëį°ìļĶ":10523,"ĠìĺĪë»Ĳ":10524,"ìķĦëıĦ":10525,"ê²½ìĺģ":10526,"Ġround":10527,"Ġê³°":10528,"ĠíĻķìłķ":10529,"ëĵĢ":10530,"ĠPre":10531,"ëļĿ":10532,"ecause":10533,"ĠìĿ¸ê°ĦìĿĺ":10534,"ĠíĻĺìŀĲ":10535,"Ġball":10536,"Ġë¬´ìĹĩë³´ëĭ¤":10537,"Ġreturned":10538,"Ġdog":10539,"etime":10540,"Ġë°©ìĭĿ":10541,"SK":10542,"Ġë°°ëĭ¬":10543,"ìĦ±ë¹Ħ":10544,"Ġë³µìŀ¡":10545,"Ġê°ľë³Ħ":10546,"ĠIP":10547,"Ġ>=":10548,"Ġê³łë§Ī":10549,"Ġë©´ìłĳ":10550,"ìĹī":10551,"Ġìķ¨ë²Ķ":10552,"Ġrelation":10553,"123":10554,"Ġdemonstr":10555,"Ġwood":10556,"ĠìĿ´ëŁ¬":10557,"Ġê³¼ìĹ°":10558,"ìķĪìĿ´":10559,"umin":10560,"Ġê³µê¸°":10561,"Ġíĺĳëł¥":10562,"Ġì°¨ê°Ģ":10563,"ĠìķĦìĭľìķĦ":10564,"Ġprefer":10565,"plete":10566,"ĠíĬ¹ìłķ":10567,"ĠëĤ´ëħĦ":10568,"Ġê·ĢìĹ¬ìļ´":10569,"Ġìĸ¸ìĸ´":10570,"ĠëĶĶìŀĲ":10571,"ĠìĥģíĻ©ìĿĦ":10572,"Ġì²ŃëħĦ":10573,"Ġdeveloped":10574,"ao":10575,"ì¤ĳìĿ¸":10576,"&=":10577,"levant":10578,"Ġê³µê°Ĳ":10579,"Ġsmaller":10580,"ëĬ¥ëł¥":10581,"Ġcompletely":10582,"Ġì£¼ìĨĮ":10583,"Ġmodern":10584,"ĠìĨĮíĨµ":10585,"74":10586,"ìŀĪëĬĶëį°":10587,"Ġì°¸ì¡°":10588,"ULT":10589,"Ġê±°ì§ĵ":10590,"Ġíķľì°¸":10591,"Ġì¤ĳê³ł":10592,"ë¥´ê¸°":10593,"Ġkids":10594,"íĳľë¥¼":10595,"}:":10596,"ĠFirst":10597,"ë¬¸íķĻ":10598,"ëŀĺìļĶ":10599,"Ġallowed":10600,"VAL":10601,"Ġëħ¸íĬ¸":10602,"ìļ©ìľ¼ë¡ľ":10603,"Ġachieve":10604,"ëĮĢìĹĲìĦľ":10605,"ĠìķĪíĥĢ":10606,"´íĳ¸":10607,"Ġang":10608,"ì¹ĺíĤ¨":10609,"ê°Ĳëıħ":10610,"Ġìĥģì§ķ":10611,"Ġì²łìłĢ":10612,"ëĮĢë¹Ħ":10613,"ëĤ¨ëıĦ":10614,"Ġêµ½":10615,"ë¥´ì§Ģ":10616,"rupt":10617,"Ġdark":10618,"êµŃìĿ´":10619,"Ġë¹ĦíĮĲ":10620,"ĠëĦī":10621,"Ġlock":10622,"ĠThus":10623,"Ġë°©ë²ķìĿ´":10624,"Search":10625,"IF":10626,"Ġëª¨ìŀĦ":10627,"ë°ĸ":10628,"Ġëħ¸ì¶ľ":10629,"73":10630,"ìĪĺìĪł":10631,"Ġattribute":10632,"Ġaud":10633,"ìŀ¥ëıĦ":10634,"bound":10635,"Ġê³¼ìĿ¼":10636,"Const":10637,"íİĻ":10638,"Ġgreen":10639,"Ġ$(\\":10640,"ores":10641,"Ġholds":10642,"íķ¨ê³¼":10643,"Enc":10644,"Ġsafe":10645,"ãĢİ":10646,"ĠëĤ´ëĤ´":10647,"íģ¬ë¡ľ":10648,"anger":10649,"ĠìķĮìķĺ":10650,"Ġìĸ´ëĶĶìĦľ":10651,"ĠíķĺìŀĲ":10652,"ëĵ¯íķľ":10653,"ìĹĦì²Ń":10654,"ëĳĳ":10655,"Ġëĵľë¦´":10656,"ê²¼ëĭ¤":10657,"ĠìĿµìĪĻ":10658,"Ġerrors":10659,"\\\"":10660,"imately":10661,"{{\\":10662,"Ġlimited":10663,"íĺ¸ë¥¼":10664,"ì¤ĳê³ł":10665,"Me":10666,"Ġê¹ĶëģĶíķĺê²Į":10667,"Ġcosts":10668,"structor":10669,"ìĥģê³¼":10670,"Ġì¢ĭìķĺëĭ¤":10671,"ĠìķĦë²Ħì§Ģ":10672,"ĠìĽĲì¹Ļ":10673,"íķĺëł¤ëĬĶ":10674,"Ġíļį":10675,"Ġì³Ĳ":10676,"Ġcharg":10677,"Ġê¸°ë¦Ħ":10678,"ĠLO":10679,"ĠìĥĪìļ°":10680,"Ġëª¨ìĹ¬":10681,"ì¡°íķ©":10682,"ĠìķĦìĭľ":10683,"Ġìļ°ìĬ¹":10684,"ĠEl":10685,"Ġlif":10686,"TER":10687,"clusion":10688,"Ġë©į":10689,"ĠìĹ´ìĸ´":10690,"ê²½ìļ°":10691,"pa":10692,"ĠëķĮê¹Įì§Ģ":10693,"late":10694,"Ġëħ¼ìĿĺ":10695,"ĠìĿĺìĽĲ":10696,"Ġë°Ľì§Ģ":10697,"íĬ¸ìĽĮíģ¬":10698,"Dec":10699,"Ġë³´ìĦ¸ìļĶ":10700,"eli":10701,"ĠWill":10702,"dule":10703,"izont":10704,"BO":10705,"ë°©ìĹĲ":10706,"ðŁĴ":10707,"sets":10708,"Ġofficial":10709,"ĠíķĺëĤĺìĶ©":10710,"ĠAlso":10711,"ëļľ":10712,"utils":10713,"Ġìī¬ìļ´":10714,"avy":10715,"ëŀ«íı¼":10716,"itation":10717,"ë¯¸ë¦¬":10718,"Ġê±´ê°ķíķľ":10719,"but":10720,"Ġë¶Ħë¥ĺ":10721,"ìŀĲëıĦ":10722,"Ġê·¸ëĵ¤ìĿĢ":10723,"94":10724,"ĠìĺĢ":10725,"íķĺê²łëĭ¤":10726,"Json":10727,"Ġë³´ëŁ¬":10728,"ĠìĤ¬ê³¼":10729,"reet":10730,"Ġë¶Īê³¼":10731,"Since":10732,"Ġëĸłìĺ¬":10733,"ìĽłëįĺ":10734,"çĽ":10735,"êµŃê°Ģ":10736,"Ġdatabase":10737,"Ġê°Ģë²¼":10738,"íķ´ìł¸":10739,"Ġbroad":10740,"Ġëª¨ìķĦ":10741,"Ġhon":10742,"íĬľëĶĶìĺ¤":10743,"ëĭ¤ìĿ´":10744,"band":10745,"Ġship":10746,"ĠìķĪëħķ":10747,"ìķŀìľ¼ë¡ľ":10748,"mathsf":10749,"íĺ¸ìĦł":10750,"Vari":10751,"ë°ĳ":10752,"íģ´ëŀĺ":10753,"Ġì§ĳìĿĦ":10754,"81":10755,"ĠìķĪìĭ¬":10756,"ë§ĪìĿ´":10757,"Settings":10758,"Ġmobile":10759,"={":10760,"ëĭ¬ëĿ¼ê³ł":10761,"Ġprograms":10762,"Ġconnected":10763,"91":10764,"ê¸°ìŀĲ":10765,"Ġnodes":10766,"ĠëĤłìĶ¨ê°Ģ":10767,"anges":10768,"Ġtrust":10769,"ĠëĲĺê¸°":10770,"Module":10771,"ì§ĪíĻĺ":10772,"Params":10773,"Ġdetermine":10774,"uel":10775,"ĠíĸĪê³ł":10776,"Hash":10777,"Ġign":10778,"Ġunc":10779,"Ġforce":10780,"ë®¤ëĭĪ":10781,"Net":10782,"Ġê°ľìĿ¸ìłģìľ¼ë¡ľ":10783,"âĺŀ":10784,"clos":10785,"ĠHis":10786,"92":10787,"}\\\\":10788,"Ġë§ĲìĿĢ":10789,"Ġlooks":10790,"ëĨ¨":10791,"ĠìĤ¬ì§ĦìĿĢ":10792,"Ġupper":10793,"Ġìĭ¤íĸī":10794,"xx":10795,"Ġì¦Ĳê²¨":10796,"ëĲľëĭ¤ê³ł":10797,"Ġë©ĶìĿ¸":10798,"Ġtouch":10799,"FC":10800,"ĠìĿ´ìļ©íķľ":10801,"ìľ¨ìĿĦ":10802,"Ġë¬¸ìłľëĬĶ":10803,"ĠìĨĮë¦¬ê°Ģ":10804,"ocation":10805,"Ġhit":10806,"Ġë°ĺë©´":10807,"ades":10808,"Ġë°Ķê¿Ķ":10809,"Ġquantum":10810,"ota":10811,"ëĤ®":10812,"ë°°ë¥¼":10813,"LS":10814,"ament":10815,"ĠíĻķì§Ħ":10816,"ëĵ±ìĿ´":10817,"Script":10818,"erve":10819,"oz":10820,"ĠìĿ¸ë¬¼":10821,"Ġmount":10822,"ĠAssert":10823,"ìĭ¬ìľ¼ë¡ľ":10824,"ĠíĨµìĭł":10825,"?'":10826,"ĠëĤ´ìĿ¼":10827,"Ġsteps":10828,"íĴĪìĿ´":10829,"crete":10830,"001":10831,"íĥĢê²½":10832,"Ġê¸°ê³Ħ":10833,"ifi":10834,"ëª©ìĿ´":10835,"Ġìĭľì¼°":10836,"Ġìĸ´ì©Ķ":10837,"Ġelectron":10838,"Ġê³ĦíļįìĿ´ëĭ¤":10839,"ì°¨ëĬĶ":10840,"Ġì§ĳìľ¼ë¡ľ":10841,"irth":10842,"Ġscen":10843,"ìĭľìŀĳ":10844,"Note":10845,"Ġì¶©ìłĦ":10846,"ìĮĪ":10847,"Ġcore":10848,"ĠìĬ¤íĬ¸ëłĪìĬ¤":10849,"ìĹŃìĿĦ":10850,"rate":10851,"ĠìĪĺë¦¬":10852,"ĠëģĪ":10853,"ĠìĥģíĻ©ìĹĲìĦľ":10854,"ìķĦëĬĶ":10855,"íĻĶë¡ľ":10856,"ĠíĽĮë¥Ń":10857,"ìĭľì¼°":10858,"íķ¨ìĹĲ":10859,"ĠâĢ¦":10860,"Ġì»¤íĶĮ":10861,"ê°Ģìŀħ":10862,"ĠìĤ¬ìŀ¥":10863,"Ġì²ŃìĨĮëħĦ":10864,"Ġax":10865,"border":10866,"ĠíļĮìĿĺ":10867,"\"))":10868,"NN":10869,"ì¡ĮìĬµëĭĪëĭ¤":10870,"Http":10871,"ì¢ħë¥ĺ":10872,"ae":10873,"force":10874,"íĹ¬":10875,"lebr":10876,"Ġë²Ĺìĸ´ëĤĺ":10877,"ifying":10878,"Ġê²ī":10879,"ĠStates":10880,"Ġconduct":10881,"Ġëĭ¿":10882,"ëĮĢì¶ľ":10883,"Ġinvolved":10884,"Ġmer":10885,"Ġë°©ë²ķìľ¼ë¡ľ":10886,"reement":10887,"ĠNe":10888,"Ġstrategy":10889,"Ġparams":10890,"íĶĦë¡ľê·¸ëŀ¨":10891,"ulate":10892,"ĠëĤŃ":10893,"ĠOff":10894,"Ġë©°":10895,"íĻķìĭ¤":10896,"Ġë§Īì£¼":10897,"ĠìłĢìĿĺ":10898,"None":10899,"ìŀĲì¹ĺ":10900,"ëĶĶìħĺ":10901,"Ġíķľìłķ":10902,"Ġì§Ħëĭ¨":10903,"Ġë°°ì¶ľ":10904,"íķĻìłģ":10905,"Â·Â·Â·Â·Â·Â·Â·Â·Â·Â·Â·Â·Â·Â·Â·Â·":10906,"ìķĦìķĦ":10907,"Ġíķĺìĭł":10908,"unt":10909,"Ġì½ĺíħĲì¸ł":10910,"Ġì¥Ĳ":10911,"Ġcreating":10912,"ìĿ´ë¦Ħ":10913,"Ġsources":10914,"350":10915,"Option":10916,"linear":10917,"Ġmarketing":10918,"ìĭľì¦Į":10919,"ê¶ĮìĿĺ":10920,"Ġweeks":10921,"Ġì¦Ŀê±°":10922,"sv":10923,"íĶ¼ìĬ¤íħĶ":10924,"INE":10925,"make":10926,"83":10927,"íĻĶìĹĲ":10928,"ëį°ìĿ´íĬ¸":10929,"ĠìĤ¬ì§ĦìĿ´":10930,"ìĽĶëĵľ":10931,"bon":10932,"icol":10933,"ĠìĿĺë¬´":10934,"Ġscope":10935,"Ġnice":10936,"ĠLemma":10937,"Ġíĸ¥íĽĦ":10938,"Ġìį°":10939,"debug":10940,"ĠíĻķìĿ¸íķł":10941,"ë¶Ħìķ¼":10942,"ĠPe":10943,"ìĭ¤ë¡ľ":10944,"ì¿Ħ":10945,"ĠìķłíĶĮ":10946,"rees":10947,"ĠUse":10948,"ĠëĮĢë°ķ":10949,"izations":10950,"Description":10951,"dimension":10952,"Ġê¸°íļĮë¥¼":10953,"ĠìłľìķĪ":10954,"Ġthread":10955,"ĠNS":10956,"ë£¬":10957,"Ġtold":10958,"ĠìŀĲê°Ģ":10959,"ì´¬ìĺģ":10960,"Ġpatients":10961,"ì§ģìłĳ":10962,"ĠìķĦë¦Ħëĭ¤":10963,"Ġìĭłëŀĳ":10964,"íĮĲìĹĲ":10965,"ĠMc":10966,"het":10967,"Ġìŀ¥ë©´":10968,"Ġíĥľìĸĳ":10969,"isions":10970,"ĠëĤĺë¨¸ì§Ģ":10971,"ìľłê°Ģ":10972,"foo":10973,"ĠìĿ´ê²ĥìĿĢ":10974,"ĠìķĬìķĦìļĶ":10975,"oul":10976,"Ġvac":10977,"Ġë¶ĻìĹ¬":10978,"Ġë§Īì¹ĺê³ł":10979,"PECT":10980,"êµ°ìĿĺ":10981,"ê¸°íĥĢ":10982,"Ġminimum":10983,"Ġmedical":10984,"Ġannoun":10985,"ê²¸":10986,"vector":10987,"Ġstock":10988,"ë§ĲìĿĦ":10989,"Ġëĵ¤ìĹ¬":10990,"Ġsell":10991,"ìĪĺìĪĺ":10992,"ê¹Įì§ĢëıĦ":10993,"Ġgalax":10994,"ĠAir":10995,"Ġcas":10996,"ĠêµĲíļĮ":10997,"ìºĶ":10998,"Ġnature":10999,"Ġcontainer":11000,"Ġë²ĦíĬ¼":11001,"Ġì§Īë³ĳ":11002,"ìĽĲíķľ":11003,"Ġamazing":11004,"ĠPres":11005,"ìĭľë¡ľ":11006,"Ġactivity":11007,"entity":11008,"Ġreduce":11009,"ëıĦìļ°":11010,"Ġë§Įíķľ":11011,"udget":11012,"asons":11013,"Ġì±ĦìĽĮ":11014,"Ġëıķ":11015,"ĠStud":11016,"íİĢ":11017,"íķĻìĿĦ":11018,"ĠìĪ«":11019,"ĠìŃī":11020,"Ġê°Ģêµ¬":11021,"ĠìĹĳ":11022,"ĠìĪĻìĨĮ":11023,"íĻĶìŀĲ":11024,"Change":11025,"usiness":11026,"íĥĢìļ´":11027,"'.":11028,"ê¸°ê¸°":11029,"Ġundefined":11030,"Ġhttps":11031,"ë¶Ħëĵ¤ìĿĢ":11032,"Ġìĭľìŀĳíķľ":11033,"æ³":11034,"ìĭľê¹Įì§Ģ":11035,"ĠìĺĪìģĺê²Į":11036,"Ġíķ¸ëĵľíı°":11037,"Ġë°ĿíĺĢ":11038,"Ġë§ŀìķĦ":11039,"Ġxml":11040,"Ġrequirements":11041,"enge":11042,"ĠíĶĦëłĪ":11043,"íģ´ëŁ½":11044,"191":11045,"ëĵľëĶĶìĸ´":11046,"pop":11047,"Ġë°©ìĭĿìľ¼ë¡ľ":11048,"matrix":11049,"Ġìĭ¶ìĸ´ìļĶ":11050,"Location":11051,"ĠMod":11052,"ìĺ´":11053,"Ġê·¸ê²ĥìĿ´":11054,"Ġcomment":11055,"Ġpanel":11056,"Ġrates":11057,"ĠAc":11058,"ãħħ":11059,"Ġë§¤ìļ´":11060,"Ġíķľëĭ¬":11061,"ë°´":11062,"equal":11063,"DP":11064,"íĺ¸ê°Ģ":11065,"MI":11066,"Ġê°Ĳìĥģ":11067,"ĠëĵĿ":11068,"Ġë¶Ļìĸ´":11069,"ĠìĿĺë¯¸ë¥¼":11070,"msg":11071,"weight":11072,"ë¯¸ëĭĪ":11073,"ìĺ¤ëŀľë§ĮìĹĲ":11074,"aign":11075,"íĥĿë°°":11076,"Ġtown":11077,"ĠìĨĮìļĶ":11078,"Ġtowards":11079,"ĠNA":11080,"]$":11081,"Ġë³´ì§Ģ":11082,"ë¸Įë¦¬":11083,"ìłĢíĿ¬ëĬĶ":11084,"Ġprove":11085,"Ġì¶ľì²ĺ":11086,"ðŁĳ":11087,"ĠìĦľìĦľ":11088,"à¸":11089,"Ġcritical":11090,"ëĭĺëĵ¤ìĿ´":11091,"Ġì²ĺëŁ¼":11092,"Ġstage":11093,"ĉĉĊ":11094,"ĠTherefore":11095,"Ġë§ĲìĶĢìĿĦ":11096,"onic":11097,"Ġíķĳíģ¬":11098,"ì¦Ļ":11099,"ĠíĿ¡ìĪĺ":11100,"bind":11101,"Ġinflu":11102,"Ġpassed":11103,"Ġì§Ģêµ¬":11104,"ĠìĪĺìļ©":11105,"Ġpan":11106,"ĠëĦīëĦī":11107,"scr":11108,"Ġboundary":11109,"Ġê²°íķ©":11110,"Properties":11111,"Ġë§Ĳíķ´":11112,"Ġexpand":11113,"Ġê·¸ë¦ĩ":11114,"Ġbecomes":11115,"ĠDay":11116,"Ġ&\\":11117,"izontal":11118,"ëªħìľ¼ë¡ľ":11119,"Ġpadding":11120,"ĠíķĺëĤĺëĭĺ":11121,"ernel":11122,"âĦ":11123,"rest":11124,"iny":11125,"ĠíĥĢìŀħ":11126,"ìĿ´ëŀįëĭĪëĭ¤":11127,"ì§ģìĽĲ":11128,"Ġì¾Į":11129,"Ġë¬´ê²Į":11130,"ĠíĺĦíĻ©":11131,"Ġê·Ģì°®":11132,"ĠìĿ´íĥĪ":11133,"Ġë¦¬ëįĶ":11134,"Ġbooks":11135,"}\\,":11136,"ĠBuild":11137,"Ġcandid":11138,"urg":11139,"ĠEd":11140,"Ġsymbol":11141,"ìĦ¤ì¹ĺ":11142,"ĠìĥĪë¡Ńê²Į":11143,"Ġstudent":11144,"Ġrule":11145,"ĠëıĮìķĦê°Ģ":11146,"ĠìĿ¸ìĬ¤íĥĢ":11147,"Ġtick":11148,"osen":11149,"ëŁīìĿĢ":11150,"Ġ*)":11151,"Ġìĺ¤ë¥¸ìª½":11152,"usion":11153,"Ġì²´ê²°":11154,"citet":11155,"ëıĻìĥĿ":11156,"Ġrules":11157,"Ġvolume":11158,"ê±°ë¦¬ëĬĶ":11159,"Ġíķłë¨¸ëĭĪ":11160,"Connection":11161,"Ġchanged":11162,"device":11163,"Ġaim":11164,">.":11165,"ìĦ¸íı¬":11166,"éĢ":11167,"'$":11168,"Ġpool":11169,"ios":11170,"ìĥģê°Ģ":11171,"ĵĴ":11172,"Ġíĸ¥ìĥģ":11173,"ë¦ħëĭĪëĭ¤":11174,"è¨":11175,"Are":11176,"Dir":11177,"Ġmeas":11178,"iques":11179,"ĠìĿ¸ì§Ģ":11180,"ĠìĤ¬ìļ©íķ´":11181,"ìĸ´ëĸ»ê²Į":11182,"ĠìĬ¤íĭ°":11183,"Ġíķ©ë¦¬":11184,"ĠíĻľìĦ±íĻĶ":11185,"COLOR":11186,"asic":11187,"artifactId":11188,"Ġìĭłìļ©":11189,"Ġì¶ķíķĺ":11190,"Ġê³łê°ľë¥¼":11191,"Ġresid":11192,"Ġblo":11193,"PG":11194,"Ġíĥĵ":11195,"ìĤ°ë¬¼":11196,"Ġê±°ë¶Ģ":11197,"Local":11198,"ĠìĤ¬ëŀĮëĵ¤ìĹĲê²Į":11199,"Collection":11200,"Ġremember":11201,"Ġtransport":11202,"ĠìĪĺìĪĺ":11203,"Ġsong":11204,"Ġëĭ¤ìĿĮìĹĲ":11205,"hash":11206,"Ġdiscover":11207,"Here":11208,"íķ´ì§Ģê³ł":11209,"ì²´ìľ¡":11210,"ĠëģĿê¹Įì§Ģ":11211,"ĠOpen":11212,"ying":11213,"Ġguarant":11214,"agment":11215,"variant":11216,"ĠSch":11217,"ĠëĤ´ë¦¬":11218,"mitted":11219,"Ġprotect":11220,"Ġadvant":11221,"Ġì§ĳëĭ¨":11222,"ìľłë¦¬":11223,"Ġep":11224,"covery":11225,"íķĺìĺĢê³ł":11226,"ership":11227,"DS":11228,"ĠìłĢëłĩê²Į":11229,"ëĭĪíĦ°":11230,"ë¶Ģìŀ¥":11231,"irectory":11232,"Ġenh":11233,"ìĭłë¬¸":11234,"oe":11235,"ĠìĹĦë§Īê°Ģ":11236,"ĠëıĦìĽĢ":11237,"Ġpurchase":11238,"ursor":11239,"Ġëļ«":11240,"ĠëĲľëĭ¤ëĬĶ":11241,"Ġë¬´íķľ":11242,"Ġëĳĺì§¸":11243,"Ġsubst":11244,"93":11245,"Ġë³´ëĭ¤ëĬĶ":11246,"ĠìĦľë¥ĺ":11247,"Ġappropriate":11248,"Ġì·¨ìĨĮ":11249,"ìĭľíĶ¼":11250,"Ġinf":11251,"Ġë§ĮëĤł":11252,"Ġê²Ģì°°":11253,"Ġworked":11254,"Ġë²Ķì£Ħ":11255,"Ġstudies":11256,"Ġìŀ¬ë°°":11257,"ê³µìĹ°":11258,"aul":11259,"....":11260,"Current":11261,"Ġë¬´ì²Ļ":11262,"ê°ľìłķ":11263,"Font":11264,"ê±±":11265,"Ġgiving":11266,"Ġë¬¶":11267,"approx":11268,"Ġrob":11269,"@***":11270,"Ġlate":11271,"Ġì£¼ê±°":11272,"xspace":11273,"Ġgoes":11274,"ì»¬ëŁ¬":11275,"ĠìĸĳìĿ´":11276,"Ġë¬¼ìĹĲ":11277,"ìĨĮìŀ¬":11278,")+":11279,"omic":11280,"Ġpressure":11281,"before":11282,"ĠInc":11283,"Ġëª¨ë°ĶìĿ¼":11284,"ìķī":11285,"Ġê³µìĤ¬":11286,"ibly":11287,"umerate":11288,"ture":11289,"ãģĮ":11290,"ĠìŀĪìĿĮìĿĦ":11291,"Ġoverride":11292,"ĠìĤŃìłľ":11293,"Ġreported":11294,"Ġë²Įìĸ´":11295,"êµ¬ìĿ´":11296,"ĠìĦ¸íĥģ":11297,"Ġìĸ¼êµ´ìĿĦ":11298,"Serial":11299,"ê²°íĺ¼":11300,"Ġìī½ì§Ģ":11301,"ua":11302,"ĠìĻ¸êµŃìĿ¸":11303,"ĠìĨĮê¸Ī":11304,"ìĺ¨ëĭ¤":11305,"ê·¸ëķĮ":11306,"ë¯¸íĦ°":11307,"iation":11308,"ë´¤ëĭ¤":11309,"ìĦłíĥĿ":11310,"Ġtoken":11311,"ĠNOT":11312,"ê°ķëĤ¨":11313,"%;":11314,"220":11315,"ĠíĶ¼ê³¤":11316,"Ġê¸°ìļ¸":11317,"ponents":11318,"Ġinternational":11319,"Ġpiece":11320,"íĸĩ":11321,"ëĬĲëĤĮ":11322,"ĠìĪĺë¶Ħ":11323,"íħĮìĿ´ë¸Ķ":11324,"Ġê³ĦìłĪ":11325,"ìĤ°ìĹĲ":11326,"ëŃĶê°Ģ":11327,"ìķĦìĽĥ":11328,"ales":11329,"ê³łìļĶ":11330,"ê¸Ģë¡ľ":11331,"Ġpicture":11332,"Then":11333,"ëĺĳ":11334,"ìĸ¼êµ´":11335,"ynch":11336,"car":11337,"ĠCoun":11338,"ê±´ëį°":11339,"cat":11340,"ë§ĲìĿ´":11341,"Ġì¶¤":11342,"Ġëĭ¤ë¦¬":11343,"Ġnet":11344,"ĠìĺĪìłĦ":11345,"vol":11346,"Ġê·¸ëłĩì§Ģ":11347,"Ġì£¼ìĭľ":11348,"ãģ§":11349,"íķĺìĭľê¸°":11350,"Ġss":11351,"Ġì¶ľìĭł":11352,"oph":11353,"êµ¬ìĦ±":11354,"Sign":11355,"ĠGroup":11356,"Ġê¸°ëĭ¤ë¦¬":11357,"itute":11358,"ĠìĿĺìĭ¬":11359,"ĠíĻķìŀ¥":11360,"ìĤ°ëıĻ":11361,"ìķĦê¸°":11362,"íĭ°ì§Ģ":11363,"íķ´ëĭ¹":11364,"Ġreflect":11365,"ë°©ìĿ´":11366,"oted":11367,"Store":11368,"íķłê¹Į":11369,"Ġëĭ¬ìĦ±":11370,"overn":11371,"Ġlives":11372,"ìĽĶë¶ĢíĦ°":11373,"ëĵľëł¸":11374,"ë²ķìĿ¸":11375,"Ġlinks":11376,"mode":11377,"ìļĶë¦¬":11378,"ë³´ìĿ´ëĬĶ":11379,"Ġë¨¸ë¦¬ë¥¼":11380,"Ġì¤Ģëĭ¤":11381,"}}{\\":11382,"Ġê·¸ëħĢìĿĺ":11383,"ì§Ģíķĺ":11384,"ëĤĺìĻĢ":11385,"-_-":11386,"fit":11387,"ĠCr":11388,"ì¹ĺê²Į":11389,"Ġnegative":11390,"copy":11391,"ìľ¼ìĭľ":11392,"Ġê°ĲëıĻ":11393,"íĮĲìĿ´":11394,"Ġefficient":11395,"Ġequipment":11396,"ĠìĨĮë¦¬ë¥¼":11397,"Ġdecre":11398,"Ġoperations":11399,"Ġê¸°íļĮ":11400,"Ġsituation":11401,"åĽ":11402,"Ġë°´":11403,"ë¦¬ìĬ¤íĬ¸":11404,"ancy":11405,"Ġë©Ķìĭľ":11406,"STR":11407,"ĠìĦ¸ìĥģìĿĦ":11408,"ship":11409,"HP":11410,"ĠDO":11411,"Ġìłķê¸°":11412,"Ġord":11413,"ĠìĸĳíĮĮ":11414,"Ġëª¨ë¥´ê³ł":11415,"Ġë¬´ìĭľ":11416,"ĠìĥģíĻ©ìĹĲ":11417,"ëĶ°ëĿ¼ìĦľ":11418,"ĠìķĦìĿ´íı°":11419,"ì§Ģë©´ìĦľ":11420,"Ġpurpose":11421,"ìłľìĹĲ":11422,"ì§ĪìĿĺ":11423,"Ġíķ´ì£¼ëĬĶ":11424,"ĠìıŁìķĦ":11425,"Ġì°¨ëĭ¨":11426,"ĠìłģìĿĳ":11427,"Ġì°¨ë³Ħ":11428,"Ġë§ĪìĿ´":11429,"operatorname":11430,"ĠDi":11431,"Ġfinally":11432,"cp":11433,"ìĿ¸ì¹ĺ":11434,"ĠëģĿìĹĲ":11435,"ĠUK":11436,"Kind":11437,"Ġê°Ħëĭ¨íķľ":11438,"emp":11439,"ì§ĢëĭĪ":11440,"abilities":11441,"íĿĶ":11442,"cribe":11443,"Ġë§ĪëĬĺ":11444,"atur":11445,"Po":11446,"arks":11447,"ĠëĨĢëŁ¬":11448,"ë§Ļ":11449,"Ġanyone":11450,"Ġê·¸ë§Įíģ¼":11451,"ama":11452,"ì²©":11453,"ictionary":11454,"Ġweak":11455,"Ġë¼Ī":11456,"ãģ¯":11457,"ario":11458,"Ġìľłê¸°":11459,"Port":11460,"Use":11461,"íĺĳíļĮ":11462,"íĨłì§Ģ":11463,"à¤":11464,"ìŀ¡ê³ł":11465,"Ġhair":11466,"Ġê°Ģê²©ìĿĢ":11467,"åº":11468,"ìĪĺìĻĢ":11469,"ĠìķĦê¹Į":11470,"ìīĲ":11471,"ê³łìĿĺ":11472,"la":11473,"ĠOb":11474,"groupId":11475,"Ġìĥĺ":11476,"ugins":11477,"Ġlov":11478,"Ġfresh":11479,"DC":11480,"ĠìŀĪìľ¼ëĤĺ":11481,"Ġë¯¼ê°Ħ":11482,"ë§Īë£¨":11483,"Ġasked":11484,"rect":11485,"spect":11486,"Ġì¡°ê°ģ":11487,"TC":11488,"ëĭµê²Į":11489,"Ġëķ¡":11490,"ny":11491,"():":11492,"Ġì¶ľê·¼":11493,"Ġgets":11494,"Ġexcellent":11495,"íĥĢìĿ´":11496,"íĶĮëŁ¬ìĬ¤":11497,"ĠìķĦë¬´ëŀĺëıĦ":11498,"íĺ¸ìĻĢ":11499,"Mult":11500,"ë¹ĦìĹĲ":11501,"íĬ¸ìĹĲ":11502,"hspace":11503,")|":11504,"Ġsites":11505,"ê±¸ìĿ´":11506,"ĠWest":11507,"gest":11508,"EQ":11509,"Ġë¯¸êµŃìĿĺ":11510,"ìĸ´ìļ©":11511,"Host":11512,"Ġcounter":11513,"128":11514,"ĠëªħìĿĺ":11515,"ĠëıħíĬ¹":11516,"ĠìĤ¬ëŀĮëĵ¤ìĿĦ":11517,"pret":11518,"Ġcluster":11519,"Down":11520,"Ġgir":11521,"ĠException":11522,"Document":11523,"ëł¥ìĿĺ":11524,"background":11525,"Ġhelps":11526,"!)":11527,"ë¸Ķë£¨":11528,"Ġë¬´ìĹĩìĿĦ":11529,"ĠëĲĺê²Į":11530,"Mon":11531,"ĠDon":11532,"\"));":11533,"docs":11534,"ìĦľìĿĺ":11535,"NG":11536,"Ġheat":11537,"}+\\":11538,"ĠìķĦëıĻ":11539,"kind":11540,"Ġê³µíı¬":11541,"ker":11542,"Ġìĺ·ìĿĦ":11543,"Ġì§Ģíķĺì²ł":11544,"Ġë¹Ħìĭ¼":11545,"ëįĺì§Ģ":11546,"ĠìĤ¬ëŀĮëıĦ":11547,"ĠíķĺëĤĺë¡ľ":11548,"ìĿ´íĶĦ":11549,"ĠìĥĿìĿ¼":11550,"ĠBG":11551,"Ġì²Ńêµ¬":11552,"tim":11553,"ë²Ħê±°":11554,"ĠApril":11555,"ĠëĤĺë©´":11556,"Right":11557,"Ġexpert":11558,"lier":11559,"Ge":11560,"ĠìķĪëĲĺëĬĶ":11561,"ĠOct":11562,"Ġbenefits":11563,"yntax":11564,"Expression":11565,"Ġmeeting":11566,"coming":11567,"ìĪ²":11568,"ociety":11569,"ê³ĦìĹĲ":11570,"ĠìŀĲìĹ°ìĬ¤ëŁ½ê²Į":11571,"Ġdigital":11572,"ìĤ¬ìĹĲìĦľ":11573,"ìĥīìĿĦ":11574,"ê»ĳ":11575,"Ġprofile":11576,"Ġprimary":11577,"Ġstatement":11578,"Ġìļ´ëıĻìĿĦ":11579,"Ġextension":11580,"ussian":11581,"ëľ©":11582,"ëĬ¦":11583,"ìłľìĿ¼":11584,"ê¹ĶëģĶ":11585,"ĠAm":11586,"ĠëĽ°ìĸ´ëĤľ":11587,"Ġê¸°ëĭ¤ëł¤":11588,"Ñĥ":11589,"Ġê°Ĳê°ģ":11590,"Project":11591,"ê°ĢìĿĦ":11592,"Ġíĺ¸íĿ¡":11593,"ĠëĤ¸":11594,"ĠíĬ¹ìĪĺ":11595,"ëĬĶê²Į":11596,"Ġbath":11597,"ĠëĨĪ":11598,"Ptr":11599,"ì§ĢëĤĺ":11600,"ë³¼ê¹Į":11601,"Ġrank":11602,"ĠíıīìĥĿ":11603,"ĠíĤ¤ìĽĮ":11604,"Ġloop":11605,"ëĿ¼ê°Ģ":11606,"ê°ĲìĤ¬íķ©ëĭĪëĭ¤":11607,"Ġë©¸":11608,"Impl":11609,"Ġthemselves":11610,"Ġinterested":11611,"after":11612,"ì£¼ë¯¼":11613,"Ġìĸ´ìļ¸ë¦¬ëĬĶ":11614,"Ġkitchen":11615,"gu":11616,"ê°ĸ":11617,"internal":11618,"===":11619,"Ġëĵ±ìĿĢ":11620,"Ġê°ľìĿĺ":11621,"Ġgenerate":11622,"ëıĦì²´":11623,"êµ¿":11624,"Async":11625,"ê¸°ëĭ¤":11626,"ì¼ĢìĿ´íģ¬":11627,"=\"../../../../../../":11628,"Ġinj":11629,"ĠìŀĲë¦¬ìĹĲ":11630,"DIR":11631,"Ġíı¬íĨł":11632,"ìĤ°ìĿĢ":11633,"ĠìĭľìĽĲíķľ":11634,"Ke":11635,"Ġdenote":11636,"ĠChe":11637,"step":11638,"ëŁīìĿĺ":11639,"Ġê±¸ì³Ĳ":11640,"Ġstress":11641,"ĠëĬĲê¼":11642,"Ġsafety":11643,"íĹ¤ìĸ´":11644,"ĠEnglish":11645,"connect":11646,"ĠOf":11647,"Ġproduce":11648,"agger":11649,"ë²ķìĽĲ":11650,"ë°©íĸ¥":11651,"ì°Įê°ľ":11652,"Ġencour":11653,"tex":11654,"Ġë¯¼ì¡±":11655,"Ġassist":11656,"Session":11657,"íĶĮëĿ¼":11658,"Prot":11659,"Ġfine":11660,"Ġì¤Ģë¹Ħë¥¼":11661,"ì¶ľíĮĲ":11662,"neq":11663,"ĠìĿ´ë¦ĦìĿ´":11664,"ĠíķĺëĤĺê°Ģ":11665,"plet":11666,"Ġìĸ»ìĿĦ":11667,"=\"_":11668,"ĠìĦ¸ìĽĮ":11669,"ì§ĳìĿ´":11670,"ympt":11671,"ëĭ¹ìĿ´":11672,"dim":11673,"íħĮìĿ¼":11674,"render":11675,"ief":11676,"LG":11677,"ĠChar":11678,"Ġë§ĮëĤ¨":11679,"ĠìĹ°ì£¼":11680,"Ġë©ĺ":11681,"ĠCounty":11682,"íķĺëįĶëĿ¼êµ¬ìļĶ":11683,"éĽ":11684,"Ġplant":11685,"ë³´ë©°":11686,"ìĦ¤ëªħ":11687,"ĠëĦĺëĬĶ":11688,"ĠAustral":11689,"ĠInternational":11690,"Ġëª¨ë¥´ê²ł":11691,"Ġëĭ®":11692,"Ġë¹Ļ":11693,"Ġcentral":11694,"ĠëĬĲëĤĢ":11695,"iber":11696,"ATA":11697,"acters":11698,"ĠìłĲìĿĢ":11699,"Ġoverall":11700,"Ġchance":11701,"range":11702,"Te":11703,"Ġê³łì¶Ķ":11704,"ka":11705,"Ġì²ľì²ľíŀĪ":11706,"arden":11707,"Ġlost":11708,"(*":11709,"Match":11710,"Ġfilename":11711,"Ġdoor":11712,"Ġhash":11713,"Ġë¶Ģì¡±íķľ":11714,"Ġfair":11715,"å¸":11716,"ê°ĲëıĦ":11717,"ìĸ´ì©":11718,"105":11719,"ê²½ìĿ´":11720,"Ġê¿ĪìĿĦ":11721,"Menu":11722,"elcome":11723,"ĠTime":11724,"ìķĦìĿĺ":11725,"Ġdescribe":11726,"Ġëª¨ìŀĲ":11727,"Ġê²°ë¡ł":11728,"click":11729,"Ġìĩ":11730,"ĠSO":11731,"ĠìĤ°íĸī":11732,"Click":11733,"ëĵľë¦¬ëĬĶ":11734,"Ġdelete":11735,"TA":11736,"ì§Ģì»¬":11737,"Ġëľ¯":11738,"Ġë¨¹ìĸ´ìķ¼":11739,"ĠíĭĪ":11740,"ĠWindows":11741,"join":11742,"endar":11743,"Ġì£½ìĿĮ":11744,"Ġremov":11745,"Ġíĳ¹":11746,"Ġequations":11747,"ìłķë¦¬":11748,"ĠLED":11749,"íĻĶëĬĶ":11750,"({\\":11751,"Ġìĸ´ëĸłíķľ":11752,"íĤ¤ëĬĶ":11753,"Ġaffect":11754,"ĠìķĦê°Ģ":11755,"Ġë³´ê²Į":11756,"Ġraise":11757,"ĠíĮ¨íĦ´":11758,"Ġsummer":11759,"delete":11760,"CTION":11761,"types":11762,"ê°Ħëĭ¨":11763,"ë©Ķë¦¬ì¹´":11764,"Ġfra":11765,"Ġìļ°ìļ¸":11766,"Ġtraditional":11767,"IA":11768,"ĠìŁ":11769,"Ġë§Ĳíķł":11770,"river":11771,"ĠHam":11772,"____":11773,"ëıĻë¬¼":11774,"Operation":11775,"ĠìĤ¬ëŀĮìĹĲê²Į":11776,"Ġì¢ĭê²łëĭ¤":11777,"ĠìĿ´ìĻ¸":11778,"ìĺ¤ëĭĪ":11779,"king":11780,"MW":11781,"ì£¼ìĿ¸":11782,"åĬ":11783,"ĠìłĦíĪ¬":11784,"Ġë³´ìĭ¤":11785,"Ġë¯¿ìĿĮ":11786,"Ġtests":11787,"Ġwrong":11788,"ĠìĺĪë¥¼":11789,"Ġìłľëª©":11790,"íĤ¤ì§Ģ":11791,"aight":11792,"ighest":11793,"etimes":11794,"ë¥¨":11795,"ĠìĥĲëŁ¬ëĵľ":11796,"Ġimm":11797,"ĠëĤ¼":11798,"Ġveloc":11799,"second":11800,"Ġìļ¸ìĤ°":11801,"Ġwave":11802,"ĠDesign":11803,"ìłľê³µ":11804,"Ġê·¹ë³µ":11805,"ë§Įìľ¼ë¡ľ":11806,"Ġfailed":11807,"ì¤ĺìĦľ":11808,"ĠìµľìĦłìĿĦ":11809,"ìķŀìĹĲ":11810,"Ġë¯¸ìĦ¸":11811,"Ġë¶ĢëĵľëŁ¬ìļ´":11812,"Ġcategory":11813,"ĠëĳĺìĿ´":11814,"interface":11815,"inder":11816,"Op":11817,"illed":11818,"ĠëĤĺìģľ":11819,"ĠìĨĲìľ¼ë¡ľ":11820,"Ġperformed":11821,"Ġìĺ¤ë©´":11822,"ĠEm":11823,"Parameters":11824,"ĠìĻ¼ìª½":11825,"Ġíİ´":11826,"ĠìĺĽëĤł":11827,"Ġë©´ìĹŃ":11828,"ilies":11829,"ĠíķĺëĤĺíķĺëĤĺ":11830,"ĠìĿ¼ìļĶìĿ¼":11831,"ĠëĮĢë¶Ģë¶ĦìĿĺ":11832,"ë¶ģëıĦ":11833,"ç¾":11834,"ctors":11835,"rive":11836,"Sl":11837,"ê³ĦìĨį":11838,"ography":11839,"ìľłë¡ľ":11840,"âĨĵ":11841,"Ġinvestig":11842,"ì°¨ë¡ľ":11843,"Ġmoving":11844,"Ġdim":11845,"ĠíĮĮëĬĶ":11846,"ì¤ĳê°Ħ":11847,"ìķĪëĤ´":11848,"ê¸°ê¹Įì§Ģ":11849,"tog":11850,"Ġì¹´ì¹´ìĺ¤":11851,"ë°¥ìĿĦ":11852,"íĸīìłķ":11853,"ë¿į":11854,"Ġdevices":11855,"Ġê¸°ìŀ¬":11856,"aly":11857,"ìłģìĿ´ëĭ¤":11858,"ìĭłìĿĢ":11859,"Ġunderstanding":11860,"Ġë¥ĺ":11861,"Ġì·¨íĸ¥":11862,"PR":11863,"ests":11864,"Ġê¹ĶëģĶíķľ":11865,"ĠHealth":11866,"Ħë¦¬íĭ°":11867,"Ġëª¨ëĳĲê°Ģ":11868,"Ġëª»íķ´":11869,"ìĨĮìĦľ":11870,"ĠÎ":11871,"ieved":11872,"ĠìķĻ":11873,"Ġëį§ë¶Ļ":11874,"íķ´ì£¼ê³ł":11875,"ĠìĹ°ìŀ¥":11876,"Ġmid":11877,"Ġ(-":11878,"Ġì¤įëĭĪëĭ¤":11879,"Ġadjust":11880,"actor":11881,"ĠìĿĺíķĺìĹ¬":11882,"ì¥Ĳ":11883,"ĠëĬ¦ê²Į":11884,"ìĺ¹":11885,"ĠíĨłìļĶìĿ¼":11886,"ĠìŀĳëħĦ":11887,"Ġrelevant":11888,"GE":11889,"Ġdaily":11890,"Ġnotice":11891,"ìĬ¤íĥĢìĿ¼":11892,"Ġideal":11893,"Ġìŀİ":11894,"Ġplayers":11895,"ìŀĲëĵ¤":11896,"ĠëĿ¼ìĿ¸":11897,"Ġbank":11898,"Ġëĭ¹ì²¨":11899,"Ġplayer":11900,"Ġìŀħì°°":11901,"ĠìĨĮëħĢ":11902,"ĠíĥĦìĥĿ":11903,"ê³°":11904,"These":11905,"Ġìĺ®ê²¨":11906,"Ġê²ĢìĿĢ":11907,"ê°¤":11908,"Ġê°Ģë³įê²Į":11909,"ORD":11910,"010":11911,"Ġdetail":11912,"ĠìķłëĭĪ":11913,"Ġëį°ëł¤":11914,"ĠìĿĳìĽĲ":11915,"Ġëī´ìļķ":11916,"req":11917,"ì½Ķë¦¬ìķĦ":11918,"Go":11919,"iles":11920,"ĠìłľíĴĪìĿ´":11921,"Ġaspect":11922,"ëĭ¨ìĿĢ":11923,"Ġstars":11924,"Ġestimate":11925,"tail":11926,"ĠìŀĲë³¸":11927,"Helper":11928,"ĠìłĦê³µ":11929,"ĠìĻ¸ìĹĲëıĦ":11930,"ĠíķĺëįĶëĿ¼êµ¬ìļĶ":11931,"ĠëĤļ":11932,"ëĵľë¦´ê²ĮìļĶ":11933,"Ġë¶Īë²ķ":11934,"ìĦłìĿĺ":11935,"oms":11936,"ĠĠĠĠĠĠĠĠĠĠĠĠĠĠĠĠĠĠĠĠ":11937,"Ġcountries":11938,"íı¬íĬ¸":11939,"ondon":11940,"Ġê²ĥìĿ¸ê°Ģ":11941,"card":11942,"Ġëª°ëĿ¼":11943,"Ġì¤ĺ":11944,"ĠMarch":11945,"Ġtrain":11946,"Ġnational":11947,"isation":11948,"allel":11949,"Ġëĵ¤ìĸ´ê°ĢìĦľ":11950,"ë¶ĢìĻĢ":11951,"Ġíķľëĭ¤ë©´":11952,"yond":11953,"ĠìĦłìĥĿëĭĺ":11954,"otion":11955,"cf":11956,"ë°Ķë¥¸":11957,"Ġviol":11958,"parameter":11959,"Ġê²½íĹĺìĿĦ":11960,"resents":11961,"Ġìŀ¥ìłĲ":11962,"ì¹ĺìĿĺ":11963,"Ġì°½ì¡°":11964,"ìĤ¬ìŀ¥":11965,"ĠìĨĮì¤ĳíķľ":11966,"Ġì¸µ":11967,"pict":11968,"ĠìĻĢìĿ¸":11969,"Ġtransaction":11970,"Ġsale":11971,"ê²łì§ĢìļĶ":11972,"ê°ĢìĬ´":11973,"Ġìĸ´ëĸ¨":11974,"Ġì°¨ë¡Ģ":11975,"ĠìķĪëĤĺ":11976,"Pass":11977,"256":11978,"ĠêµĲê³¼":11979,"Ġplans":11980,"Ġimplementation":11981,"Ġfavorite":11982,"ìĨįëıĦë¡ľ":11983,"Ġcache":11984,"ìĦ±ëıĦ":11985,"Ġíļ¨ëĬ¥":11986,"pers":11987,"ë§Īì¼ĵ":11988,"ĠëıĻìŀĳ":11989,"ĠìĺĪì¸¡":11990,"ìĥĪìļ°":11991,"Ġì±ĦëĦĲ":11992,"Ġê´Ģì°°":11993,"ĠëģĿëĤĺê³ł":11994,"stylesheet":11995,"Ġvan":11996,"ĠìĿ´ìĬ¤ëĿ¼":11997,"Ġë¨¹ìľ¼ëŁ¬":11998,"íĳ¼":11999,"ĠCON":12000,"global":12001,"Ġì§Ģíĺľ":12002,"osing":12003,"}-\\":12004,"ĠEXPECT":12005,"Ġì¢ħëª©":12006,"Ġgreater":12007,"env":12008,"ĠURL":12009,"Ġê²ĥìĿ´ëĿ¼ëĬĶ":12010,"ĠëķĮìĹĲ":12011,"ìľĹ":12012,"ercial":12013,"Ġê°ĪìķĦ":12014,"Ġë¬¼ë¦¬":12015,"enses":12016,"Ġë¬´ë¦¬":12017,"istory":12018,"ĠëĦĪë¬´ëĦĪë¬´":12019,"Left":12020,"romise":12021,"ê³łì¶Ķ":12022,"Ġcelebr":12023,"ĠìĿ´ìĬ¤ëĿ¼ìĹĺ":12024,"Ġscript":12025,"ìĿ¸ëĵ¤ìĿĺ":12026,"graph":12027,"oes":12028,"Ã¡":12029,"Ġpages":12030,"SM":12031,"ìī½ê²Į":12032,"Ġë¨¹ìĹĪëĭ¤":12033,"PU":12034,"íĺ¸ìĿĺ":12035,"Ġìłľê³µíķĺëĬĶ":12036,"Ġshared":12037,"ê²ģëĭĪëĭ¤":12038,"Rel":12039,"coin":12040,"īĺ":12041,"iency":12042,"Ġì²´ê³Ħ":12043,"modal":12044,"Ġë¬´ë¦İ":12045,"ĠìłľëıĦ":12046,"Ġëĵ¬":12047,"theorem":12048,"ERROR":12049,"Ġìĭ¶ìĬµëĭĪëĭ¤":12050,"Ġê·¸ëĵ¤ìĿ´":12051,"Ø§":12052,"haps":12053,"Ġìłģìĸ´":12054,"ëłĪìĿ´íģ¬":12055,"ìĿ´íĽĦ":12056,"Ġfloor":12057,"Ġë©ľ":12058,"ëĤĺë¥¼":12059,"ĠRun":12060,"ani":12061,"Ġë§¹":12062,"ë¹¼":12063,"ĠìľĦë°ĺ":12064,"ĠíĶĮëŀ«íı¼":12065,"Ġplanning":12066,"ìłĲìĭ¬":12067,"Ġratio":12068,"ĠìĦ¼íĦ°":12069,"omial":12070,"Ġëĭ¹ìĭłìĿĺ":12071,"ìĺĢê³ł":12072,"Ġê½ī":12073,"ì¢ħìĿ´":12074,"Ġê°ĲìŀĲ":12075,"Ðº":12076,"Ġimplies":12077,"ĠíĮĮíĭ°":12078,"Ġë¯¸ì¹ľ":12079,"ĠíĥĿë°°":12080,"Sk":12081,"Ġìľłìļ©":12082,"Ġflat":12083,"ĠëķĢ":12084,"ëĤ¸ëĭ¤":12085,"170":12086,")}{":12087,"ìĸ´ìĿĺ":12088,"Ġsurpr":12089,"cil":12090,"Ġdise":12091,"Ġorganization":12092,"Ġsus":12093,"Ġê²ĥìĿ´ê³ł":12094,"Ġprocesses":12095,"ses":12096,"vents":12097,"Ġê·ľì¹Ļ":12098,"ĠìĺĪë¹Ħ":12099,"Ġëĭ¹ìĿ¼":12100,"Ġë¬´ì§Ģ":12101,"ë¡ľê°Ģ":12102,"ĠëĨĢëĿ¼":12103,"idge":12104,"Ġrent":12105,"wood":12106,"]\\":12107,"ĠëĨĴìĿ´":12108,";->":12109,"íľ":12110,"Integer":12111,"ëĵ±ìĿĺ":12112,"PRE":12113,"Ġstrict":12114,"ĠìķĦë¬´ê²ĥëıĦ":12115,"ìŀĪëįĺ":12116,"================================":12117,"Device":12118,"ê°ľë¡ľ":12119,"Iter":12120,"Ġë§¤ìĪĺ":12121,"Ġwish":12122,"icker":12123,"íķı":12124,"ĠìĪĺê°ķ":12125,"Ġìĺ¤ëĬĺëıĦ":12126,"Ġimmediately":12127,"Ġíķ©ìĿĺ":12128,"Ġstrength":12129,"Ġìĺ¤ëŀ«":12130,"111":12131,"ĠëłĪëĵľ":12132,"ĠìĭĿë¬¼":12133,"Core":12134,"ì£¼ë³Ģ":12135,"ĠìĿ´ë¥¸":12136,"Ġinc":12137,"Ġarchitect":12138,"ĠFace":12139,"Ġë´Ĳìķ¼":12140,"ĠëĬĲê»´ì§ĢëĬĶ":12141,"Ġëĭ¤ìĸĳíķĺê²Į":12142,"transform":12143,"Ġstraight":12144,"rome":12145,"itemize":12146,"ìĦ±ìľ¼ë¡ľ":12147,"ìłĢê²ĥ":12148,"ìĻ¸ë¡ľ":12149,"system":12150,"125":12151,"ê³¨íĶĦ":12152,"Ġëĭ¨ëıħ":12153,"ìĭľê°ĦìĿĦ":12154,"ç¥":12155,"byte":12156,"Ġindu":12157,"Ġì¹ĺë£Įë¥¼":12158,"ëĵľëĿ¼ë§Ī":12159,"ë¯¸ëĦĲ":12160,"icated":12161,"enumerate":12162,"Reference":12163,"auth":12164,"ë¥´íĬ¸":12165,"ĠëĮĢë¦¬":12166,"Ġmeaning":12167,"ĠìŀĪëįĶëĿ¼êµ¬ìļĶ":12168,"çĦ":12169,"ëĤ¨íİ¸":12170,"Ġassess":12171,"ĠìĤ¬ìĹħìĿĦ":12172,"ĠìķĦì¹¨ìĹĲ":12173,"ëª¨ë¥¼":12174,"Ġëĭ¨ë°±":12175,"ê³³ìĹĲìĦľ":12176,"Gl":12177,"=(":12178,"Ġsaw":12179,"Ġë°ľìĥĿíķĺëĬĶ":12180,"Ġì´Īë°ĺ":12181,"ĠëŃĶ":12182,"ê´ĳìĹŃìĭľ":12183,"ĠìĹĲìĸ´ì»¨":12184,"ìĨĮëĬĶ":12185,"ĠëĬĲëģ¼ëĬĶ":12186,"Ġphotos":12187,"ë¬´ë£Į":12188,"'>":12189,"Ġcoe":12190,"ĠAug":12191,"ë²łë¦¬":12192,"ë§Ĳê³ł":12193,"ê°Ĳê³¼":12194,"ĠâĻ¥":12195,"Ġ-\\":12196,"åŃĲ":12197,"Ġnamespace":12198,"ìķĦìĭľìķĦ":12199,"ë¯¸ëĬĶ":12200,"ëĦ¬":12201,"Ġframework":12202,"Ġsav":12203,"Ġemerg":12204,"íģ´ë¦Ń":12205,"Each":12206,"fully":12207,"Ġìĸ´ëĳĲ":12208,"ãĢĳ":12209,"Ġìª¼":12210,"Ġnorm":12211,"Ġì¶Ķìłķ":12212,"apan":12213,"ĠìĹĶì§Ħ":12214,"_;":12215,"Ġíı°":12216,"hr":12217,"Ġë³ĢíĻĶë¥¼":12218,"Ġdetermined":12219,"Ġfactors":12220,"ë¯¸ìļ©":12221,"ë²ķìĹĲ":12222,"ëĲĺìĸ´ìķ¼":12223,"ê¶ģê¸Ī":12224,"ĠìŀĬì§Ģ":12225,"Ġprices":12226,"high":12227,"Ġtesting":12228,"Record":12229,"ĠHouse":12230,"Ġê³łê³ł":12231,"dimensional":12232,"è¦":12233,"Definition":12234,"ĠìľłëĭĪ":12235,"İĦ":12236,"Ġ\"\\":12237,"ĠíķľêµŃìĿĺ":12238,"NavBar":12239,"Ġì¢ĭê²Į":12240,"special":12241,"allow":12242,"Ġíģ¬ê³ł":12243,"Ġdecor":12244,"ê²Ł":12245,"ĠMap":12246,"ìħĶì¸ł":12247,"ë¦¬ë·°":12248,"ìľ¨ìĿĢ":12249,"ĠìķīìķĦìĦľ":12250,"Ġëĵ¤ìĸ´ê°Ķ":12251,"Ġë¶ĦìľĦê¸°ë¥¼":12252,".*":12253,"ĠíķĺëĤĺëıĦ":12254,"ĠíĿī":12255,"ìĬ¤ë§ĪíĬ¸":12256,"legate":12257,"Ġíķ´ëĭ¹íķĺëĬĶ":12258,"ĠìĿ¸ê³µ":12259,"vspace":12260,"Ġlegal":12261,"ĠEach":12262,"ĠìĨĲê°ĢëĿ½":12263,"nes":12264,"ìŀĦìĿ´":12265,"Ġê³µê°ĦìĿ´":12266,"Ġìľłë°ľ":12267,"ìĭĿìĤ¬":12268,"ê°ķìĿĺ":12269,"Ġparents":12270,"Ġì¹Ńì°¬":12271,"ĠAssoci":12272,"Ġdeath":12273,"Ġinform":12274,"íķĺëĭĪê¹Į":12275,"ĠíĬ¼":12276,"ĠìĦ±ë¶Ħ":12277,"Ġëĵ¤ìĹĪ":12278,"noindent":12279,"Ġmorning":12280,"SU":12281,"oundation":12282,"ëĪĪìĹĲ":12283,"Names":12284,"ĠëĮĢì¶©":12285,"ë¶ĢíĦ°ëĬĶ":12286,"Ġbeyond":12287,"ìĦ¸ìĥģ":12288,"Ġacqu":12289,"íĺķìľ¼ë¡ľ":12290,"Ġë§¤ìŀħ":12291,"ìĬĲ":12292,"Ġë¶Ģíĥģëĵľë¦½ëĭĪëĭ¤":12293,"Ġrout":12294,"íķĺëĬĶê²Į":12295,"){\\":12296,"ros":12297,"ëŀĢìĿ´":12298,"Previous":12299,"Order":12300,"och":12301,"address":12302,"ê¸°ë¦Ħ":12303,"Ġmicro":12304,"ãĥ¼":12305,"ìłķëıĦë¡ľ":12306,"Ġten":12307,"ëĬ¬":12308,"ì§ĢìĹĲìĦľ":12309,"Ġcarry":12310,"Ġexplicit":12311,"ĠAND":12312,"Ġãħĭãħĭãħĭ":12313,"Ġê·¸ìĹĲ":12314,"èĩ":12315,"ìĦ±ìŀ¥":12316,"icip":12317,"exports":12318,"ë©´ìĿĺ":12319,"ëĭĪê°Ģ":12320,"ĠìĽĶëĵľ":12321,"âĪĻ":12322,"ĠëĤĺê°Ī":12323,"ë³¶ìĿ´":12324,"ĠíŀĲë§ģ":12325,"ĠëĤ«":12326,"DR":12327,"ê³µë¶Ģ":12328,"Ġì»¤ë²Ħ":12329,"Ġëĭµëĭµ":12330,"ë§Įëĵ¤":12331,"widget":12332,"ë¹ĦìĿĺ":12333,"Ġchain":12334,"ë°ľìĿĦ":12335,"ë§ĿìĿĦ":12336,"ìĦ°ëĭ¤":12337,"Ġfigure":12338,"ì§ľë¦¬":12339,"Ġâĸ¶":12340,"Ġê°ĢìĪĺ":12341,"orig":12342,"ĠíĽĦíļĮ":12343,"ĠëĤ´ê³ł":12344,"toString":12345,"ë´ĲëıĦ":12346,"ëĵ¤ìĹ¬":12347,"ĠForm":12348,"ìĤ¬ëŀĮìĿ´":12349,"WE":12350,"Ġcloud":12351,"(:":12352,"ê¸°ëħĲ":12353,"ëĤĺë¬¼":12354,"Ġslight":12355,"ì¹ĺìĹĲ":12356,"ĠìķŀëĳĲê³ł":12357,"ê´ľ":12358,"ĠíĮĿ":12359,"ĠìĹ´ê³ł":12360,"Ġinnov":12361,"ĠëĤĺìģĺ":12362,"Ġremain":12363,"ëĭ¤ëŀĢ":12364,"inated":12365,"ĠìĦ¸ìĽĶ":12366,"Ġdirectory":12367,"Ġformer":12368,"Ġextrem":12369,"prec":12370,"ìĦľëıĦ":12371,"etailed":12372,"had":12373,"faces":12374,"ĠìĦ¸ìĥģìĹĲ":12375,"ĠìĹ°ìĺĪ":12376,"Ġìŀħë§Ľ":12377,"êµĲíļĮ":12378,"Ġìłľì£¼ëıĦ":12379,"ĠTechn":12380,"ĠìłĦìĦ¸":12381,"Ġê³łìĸĳ":12382,"ë³µìĿĦ":12383,"ãģĭ":12384,"ìĿ¸ë¶Ħ":12385,"_*":12386,"ĠíĮĮíĬ¸":12387,"icons":12388,"Ġparse":12389,"Ġì£¼ê´Ģ":12390,"inct":12391,"Ġì¶ĺ":12392,"vm":12393,"Ġì§Ħìłķ":12394,"ìĦłìĪĺ":12395,"ĠëĬ¥ëł¥ìĿĦ":12396,"íĶĦë¦¬ì¹´":12397,"ì§Ģê¸ĪìĿĢ":12398,"Ġìķ¤":12399,"éĸ":12400,"Ġê°ķëł¥íķľ":12401,"clear":12402,"êµ°ìĿ´":12403,"ĠíĬ¹ìĿ´":12404,"tw":12405,"Ġillust":12406,"Invalid":12407,"Ġcareer":12408,"focus":12409,"ORM":12410,"ĠíĹĪìļ©":12411,"ìĻĶìĸ´ìļĶ":12412,"ëłĪìĿ¸":12413,"Ġë²łíĬ¸ëĤ¨":12414,"Ġroll":12415,"ë°ľìłĦ":12416,"thern":12417,"Ġê¸¸ìĹĲ":12418,"Ġhighest":12419,"Ġplaying":12420,"Ġëį°ë¦¬ê³ł":12421,"ĠìĨĮìĭĿ":12422,"Ġëĸ¨ìĸ´ìł¸":12423,"ìĤ¬ìļ©ìŀĲ":12424,"ìľ¼ìĭ¤":12425,"ìľ¼ëł¤ê³ł":12426,"WS":12427,"ĠFree":12428,"jo":12429,"ìľ¼ë¯Ģë¡ľ":12430,"Ġë°¥ìĿĦ":12431,")}$":12432,"Ġíı¬ìĬ¤íĮħìĿĢ":12433,"Ġì¹ľíĻĺê²½":12434,"ì¡°ì§ģ":12435,"ãħģ":12436,"ëŀ´":12437,"Ġequivalent":12438,"æī":12439,"handle":12440,"ìĹ¬ëŁ¬ë¶Ħ":12441,"ĠìĿ¸ê¸°ê°Ģ":12442,"GET":12443,"íķ´ì§Ī":12444,"Ġëĭ¤ìĦ¯":12445,"åĮ":12446,"Ġë°Ľê²Į":12447,"Ġpublished":12448,"sql":12449,"Ġauth":12450,"ìĺ¤ë©´":12451,"Ġìĥģëĭ´ìĿĦ":12452,"ëłĢëĭ¤":12453,"ìĭľê°ĦìĹĲ":12454,"ìľłëŁ½":12455,"Ġcop":12456,"phere":12457,"ĠCall":12458,"ĠMus":12459,"ĠBlack":12460,"ìµľìłĢ":12461,"Ġforms":12462,"ĠìķĪë³´":12463,"Ġapi":12464,"ìĨĮìĬ¤":12465,"ë¶Ģë¡ľ":12466,"Ġrestaur":12467,"Ġëĭ¤ë£¨":12468,"enum":12469,"ĠHome":12470,"ìĬ¤ëŁ°":12471,"æĹ¥":12472,"Ġimag":12473,"Ġì³Ĳëĭ¤":12474,"Ġë¹¨ê°Ħ":12475,"ëłĮì§Ģ":12476,"ĠìłĲìĹĲìĦľ":12477,"Handle":12478,"Tool":12479,"ëĳł":12480,"Ag":12481,"ìłĢìĶ¨":12482,"ĠName":12483,"ìŁģìĿ´":12484,"ĠìĤ¬ìĦľ":12485,"ĠìĹĲëĦĪ":12486,"ëħ¸ëŀĺ":12487,"Ġ---":12488,"SET":12489,"Ġë°ĶëĶĶ":12490,"Ġhuge":12491,"Ġë¨¸ë¬¼":12492,"Ġsometimes":12493,"ĠìĨĮìĬ¤":12494,"Ġphoto":12495,"ëĵ£":12496,"ifies":12497,"Ġ['":12498,"ìĺĪìłķ":12499,"send":12500,"ĠìĻłì§Ģ":12501,"Ġdecided":12502,"ë£Įê°Ģ":12503,"ìĺ¤ëŀĺ":12504,"Ġë¹Ħë¡¯íķľ":12505,"ĠìŀĺëĿ¼":12506,"Ġì»µ":12507,"æĻ":12508,"phone":12509,"ws":12510,"Ġëĵľë¦¬ê³ł":12511,"ìĨĮìĿĺ":12512,"ìĹŃìĹĲìĦľ":12513,"Ġìĺ¤ëĬĺìĿĺ":12514,"hover":12515,"Ġ('":12516,"EC":12517,"ĠìķĦìĿ´ìĬ¤íģ¬ë¦¼":12518,"ì¹ĺë¡ľ":12519,"ĠìĦ±ìĿ¸":12520,"Ġflex":12521,"ëĭĪëĿ¼":12522,"êµĲìĤ¬":12523,"Ġë§¤ëħĦ":12524,"Schema":12525,"Ġaware":12526,"Any":12527,"ĠAmerica":12528,"ìļ¸ìĤ°":12529,"ĠíĻĶìŀ¥íĴĪ":12530,"Ġfrequency":12531,"aser":12532,"Ġspectrum":12533,"ĠìŀĲìķĦ":12534,"Ġspeak":12535,"Ġvehicle":12536,"Ġglass":12537,"ìłľê±°":12538,"Ġë³´ëĤ´ê³ł":12539,"ĠìĿ´ê²ĥìĿ´":12540,"ìłķìĥģ":12541,"Ġfurn":12542,"ĠAny":12543,"ìıĺ":12544,"ĠëĦĺëĤĺ":12545,"Ġnoise":12546,"Ġrev":12547,"Ġê¼¼ê¼¼íķĺê²Į":12548,"DL":12549,"Ġtast":12550,"ĠAR":12551,"fn":12552,"rial":12553,"ëĿ¼ìĿ´íĬ¸":12554,"Template":12555,"Ġcommercial":12556,"ëĮĢë¬¸":12557,"gan":12558,"export":12559,"Ġì¢ħì¢ħ":12560,"Ġconven":12561,"ì£¼ê¸°":12562,"Ġmiddle":12563,"Rect":12564,"Ġê³µìŀ¥":12565,"ixel":12566,"ĠíĮ©":12567,"ìĬ¤íĤ¤":12568,"Ġhour":12569,"arter":12570,"initely":12571,"ĠëĮĢíĳľìłģìĿ¸":12572,"Ġê°Ģëł¤":12573,"ĠíĻķìĤ°":12574,"\\,\\":12575,"ë¯¿":12576,"ĠìķĦìĺĪ":12577,"Ġlibrary":12578,"ĠRef":12579,"Ġë¬¸ìŀĲ":12580,"Ġlargest":12581,"uations":12582,"íĸīìĤ¬":12583,"Ġì£¼ìĸ´":12584,"ĠíĶ¼ë¶ĢìĹĲ":12585,"Ġê¸°ëĭ¤ë¦¬ê³ł":12586,"super":12587,"Ġë©ĶìĿ´":12588,"ë§Įìķ½":12589,"Ġradi":12590,"Ġextract":12591,"ëı¼ì§Ģ":12592,"ëĭĪê¹Ĳ":12593,"ëħ¸ëıĻ":12594,"media":12595,"access":12596,"Ġê¸°íļĮê°Ģ":12597,"ĠíĪ¬ìŀħ":12598,"lap":12599,"illa":12600,"Ġì§Ħìŀħ":12601,"False":12602,"ãĦ´":12603,"íĪ¬ìĸ´":12604,"Ġëĥīìŀ¥ê³ł":12605,"Vector":12606,"ĠíĮĮìĽĮ":12607,"ĠìĶ¹":12608,"ĠEnd":12609,"Ġíľ´ëĮĢíı°":12610,"ĠìĿ´ëĵ¤":12611,"Ġê²°ìłľ":12612,"ester":12613,"Ġgold":12614,"ĠíķĺëĤĺëĬĶ":12615,"cles":12616,"ocal":12617,"ëĮĢìĻĢ":12618,"Ġmagnetic":12619,"Ġê³łìĨĮ":12620,"ë¸Įëŀľëĵľ":12621,"Ġíı¬ìĬ¤íĮħìĿĦ":12622,"ë¹ĦêµĲ":12623,"Ġë§Įëĵ¤ìĸ´ì§Ħ":12624,"ATH":12625,"Ġì¢ĢëįĶ":12626,"asc":12627,"ĠíĨ¡":12628,"exception":12629,"ĠìıĻ":12630,"road":12631,"component":12632,"win":12633,"ĠDirect":12634,"BR":12635,"Ġdiagram":12636,"Ġled":12637,"ìŀ¬ìĥĿ":12638,"íĽĪëł¨":12639,"Ġconvert":12640,"ĠSept":12641,"Ġneut":12642,"ĠêµŃë¦½":12643,"íĨłë¦¬":12644,"ë¶Ģëĭ´":12645,"ĠIsl":12646,"equals":12647,"ë¹ħ":12648,"Ġìĭ¤ìłģ":12649,"ĠíĺĪìķ¡":12650,"ê´ĢìĿĺ":12651,"ê°ĲìĿĢ":12652,"}}_":12653,"Ġìĺģíĺ¼":12654,"Ġê¸°ìļ´":12655,"ëħĦìĥĿ":12656,"'d":12657,"norm":12658,"Pi":12659,"ìĭłê³ł":12660,"Tim":12661,"ĠTrue":12662,"ĠìŀĪìĹĪì§Ģë§Į":12663,"ìŀĳê°Ģ":12664,"Ġsplit":12665,"Ġtrip":12666,"ê¸°êµ¬":12667,"Ġsamples":12668,"Ġìĥīê¹Ķ":12669,"ynchron":12670,"Ġì°¾ìĿĦ":12671,"GS":12672,"ëł¥ìĹĲ":12673,"ë£°":12674,"ĠSan":12675,"$}":12676,"Long":12677,"ê²Įëĭ¤ê°Ģ":12678,"-->":12679,"Ġë¶īìĿĢ":12680,"ë¡¯ëį°":12681,"'],":12682,"Ġì¼ľ":12683,"íĻĶìĻĢ":12684,"ìłģìľ¼ë¡ľëĬĶ":12685,"Ġìĭ¹":12686,"ì¡°íĬ¸":12687,"Ġì¶ķêµ¬":12688,"Ġheader":12689,"Ġì°¾ê³ł":12690,"bo":12691,"ĠíķĻìĽĲ":12692,"Ġpartial":12693,"360":12694,"Ġì¤ĳëĭ¨":12695,"âĢĿ.":12696,"Ġë³´ì¡°":12697,"Icon":12698,"ìĻ¼":12699,"Body":12700,"uple":12701,"nce":12702,"ĠìĿ´ìļ©íķł":12703,"bootstrap":12704,"Ġë¿Įëł¤":12705,"Ġíķľê°Ģ":12706,"ìŀĪìĿĦ":12707,"ĠìĭľëĤ´":12708,"Ġ_{":12709,"Ġê·¸ê±´":12710,"Ġê³µë¶Ģë¥¼":12711,"Ġê·¸ëĤł":12712,"ĠìŀĪêµ¬ìļĶ":12713,"Ġupdated":12714,"ĠíĨłë¡ł":12715,"Ġplaces":12716,"enty":12717,"porary":12718,"plugin":12719,"Ġê²°ì½Ķ":12720,"ĠìĿ¸ìĹ°":12721,"ĠìĹ°ê³Ħ":12722,"ìĸĳìĿĺ":12723,"scal":12724,"íĺķìĿĢ":12725,"Ġëĸ¨ìĸ´ì§Ħ":12726,"ë¥ľ":12727,"Ġbudget":12728,"ansion":12729,"ê¸¸ìĹĲ":12730,"ìĿ¼ìĿĺ":12731,"ëĪĪìį¹":12732,"ê³³ìĿ´":12733,"Ġexamples":12734,"ìĻĦë£Į":12735,"Ġconsult":12736,"ìĭľë¯¼":12737,"iture":12738,"ìłķìĭł":12739,"Ġìĭľê°ĦìĿĢ":12740,"ologies":12741,"ìĪĺìŀħ":12742,"Ġë°ľê¸ī":12743,"ìĦ¤íĮħ":12744,"âĶĢâĶĢâĶĢâĶĢâĶĢâĶĢâĶĢâĶĢ":12745,"Ġê¸´ìŀ¥":12746,"ëł¥ìľ¼ë¡ľ":12747,"Ġmyself":12748,"Ġrestrict":12749,"Ġëľ¨ê±°ìļ´":12750,"Ġcompleted":12751,"ĠHTML":12752,"Ġbeginning":12753,"ĠChina":12754,"ê±°ìĿĺ":12755,"ĠìĬ¤ì¼Ģ":12756,"ĠìĤ¬íĥľ":12757,"Ġì§ĢëĤ´":12758,"Ġì£¼ëıĦ":12759,"mathscr":12760,"Values":12761,"ĠìľłíĬľë¸Į":12762,"ĠìķĮëł¤ìł¸":12763,"ì»´íĵ¨íĦ°":12764,"Ġincor":12765,"ìĿ´ì§ĢìļĶ":12766,"ì£¼ìĭĿ":12767,"Ġë§İìĿĢëį°":12768,"ìį¬":12769,"webkit":12770,"Err":12771,"Ġëĭ¬ëĭ¬":12772,"ford":12773,"ĠìŀĪìľ¼ë¯Ģë¡ľ":12774,"ìľĦìĹĲìĦľ":12775,"Ġê°Ļê³ł":12776,"ĠOver":12777,"ĠJune":12778,"Ġë§Ĳë¡ľ":12779,"alysis":12780,"Ġshift":12781,"estamp":12782,"ĠDav":12783,"ĠìĥģíĥľìĹĲìĦľ":12784,"ĠëıĻìĿĺ":12785,"ĠìĸĳëıĦ":12786,"ëĦĵ":12787,"ĠDate":12788,"ìŀĪìĹĪëĭ¤":12789,"Ġwar":12790,"Ġguide":12791,"ĠMA":12792,"Ġê·¸ëŁ¬ë©´":12793,"ë§Īì§Ģë§īìľ¼ë¡ľ":12794,"ìķĦë¬´ëŀĺëıĦ":12795,"Ġëľ»ìĿĦ":12796,"ĠìħĪ":12797,"ì¨Į":12798,"Ġrepe":12799,"URE":12800,"Ġvisual":12801,"session":12802,"Ġindividuals":12803,"ĠíĮĮìĬ¤íĥĢ":12804,"multicol":12805,"Ġì§Ģë°°":12806,"erry":12807,"Ġë³´ì¦Ŀ":12808,"ìĻĶìĬµëĭĪëĭ¤":12809,"Ġêº":12810,"Ġserious":12811,"Ġprem":12812,"Ġì»¤ë®¤ëĭĪ":12813,"ìļ°ë¦¬ëĤĺëĿ¼":12814,"fram":12815,"ìĦĿìĿĦ":12816,"ĠëĬĺìĸ´ëĤĺ":12817,"240":12818,"ãħİãħİ":12819,"callback":12820,"Ġì½ľëĿ¼":12821,"Que":12822,"ê³µìŀ¥":12823,"ĠKe":12824,"Ġë°©íĸ¥ìľ¼ë¡ľ":12825,"Ġë§Īì°¬ê°Ģì§Ģë¡ľ":12826,"Ġevolution":12827,"ìĤ°íĻĶ":12828,"Ġexhib":12829,"Ġê°Ħëĭ¨íķĺê²Į":12830,"ë©ĭ":12831,"Ġê¹¨ëĭ¬":12832,"Ġmaster":12833,"Ġì£¼íĸī":12834,"dx":12835,"ĠíİĺìĿ´ìĬ¤":12836,"Ġê´Ģê°Ŀ":12837,"ĠìĤ¬ìļ©íķĺìĹ¬":12838,"Ġdrink":12839,"èª":12840,"custom":12841,"Ġmenu":12842,"Ġwarm":12843,"ìłķê³¼":12844,"ì¹ĺê¸°":12845,"ì¦Īë¥¼":12846,"gs":12847,"Ġbul":12848,"Ġpresence":12849,"Ġì¶Ķì¶ľ":12850,"ĠíĶĦë¡ľê·¸ëŀ¨ìĿĦ":12851,"Ġíĳľì¤Ģ":12852,"Ġsupply":12853,"Ġë¯¸ìļ©":12854,"&#":12855,"Ġê²ĥë³´ëĭ¤":12856,"Ġëĵ¤ìĸ´ê°Ī":12857,"Ġhands":12858,"Ġì¶Ķêµ¬":12859,"Ġê²½ìļ°ìĹĲ":12860,"Ġê²ĥëĵ¤ìĿ´":12861,"acket":12862,"Ġë©Ķëª¨":12863,"ĠíķĺëįĶëĿ¼ëıĦ":12864,"âĢ§":12865,"Ġtechniques":12866,"Assert":12867,"ucture":12868,"Ġcontaining":12869,"ĠìħĶ":12870,"ĠëŃī":12871,"ìłĦìļ©":12872,"íķĺê¸´":12873,"ĠíĺĳìĿĺ":12874,"Ġê¸°ìĹ¬":12875,"Dom":12876,"ìĦ¤ë¹Ħ":12877,"Parser":12878,"ëĵ±íķĻìĥĿ":12879,"uri":12880,"Ġcharacters":12881,"Ġì§ĢìĨįìłģìľ¼ë¡ľ":12882,"ëĵľìĹĲ":12883,"Ġìĺ¤íĨł":12884,"ìŀĲìľł":12885,"Ġ++":12886,"íı¬ìŀ¥":12887,"íķĺê¸°ë¥¼":12888,"|^":12889,"Ġê°Ħëĭ¤":12890,"ë§¤ìŀ¥":12891,"Ġê´Ģê³Ħë¥¼":12892,"Ġsufficient":12893,"ìĿ´ìĽĥ":12894,"ì¡Įìĸ´ìļĶ":12895,"ìĿ¸ê°Ħ":12896,"ements":12897,"LED":12898,"Ġecho":12899,"Ġëĳ¥":12900,"multicolumn":12901,"Ġrelax":12902,"ëıħêµĲ":12903,"auge":12904,"Ġscheme":12905,"Ġíĸ¥ìĿ´":12906,"ĠRequ":12907,"ìĹħë¬´":12908,"ë²Ħëł¸":12909,"ìĭ¹":12910,"otic":12911,"ë°°ëĭ¬":12912,"Ġë§ĲëıĦ":12913,"Reader":12914,"ëķĮë§Īëĭ¤":12915,"ê¿Ģ":12916,"Render":12917,"Ġë¬´ëł¤":12918,"bal":12919,"ìĭ¤ìĿĢ":12920,"ĠìĤ´íİ´ë³´":12921,"Ġíŀĺëĵ¤ìĸ´":12922,"ë©´ìľ¼ë¡ľ":12923,"Ġexternal":12924,"ĠAfr":12925,"Ġìľµ":12926,"Ġìŀ¥ë¹Ħ":12927,"ĠìĦ¸íı¬":12928,"inate":12929,"Ġleads":12930,"ĠìľĪ":12931,"Ġëĭ¹íĻ©":12932,"aws":12933,"Ġ{};":12934,"ê¸ĪìĿĺ":12935,"ë§ĮëĳĲ":12936,"Ġë¶Ģì²ĺ":12937,"Ġê·¸ëħĢëĬĶ":12938,"íķľê±°":12939,"íĻľìļ©":12940,"oday":12941,"Ġíģ¬ë¡ľ":12942,"ĠìĹĨëĬĶëį°":12943,"íıīê·ł":12944,"Ġëĭ´ê²¨":12945,"ington":12946,"disabled":12947,"look":12948,"ĠíħĮë§Ī":12949,"ĠìĿĳëĭµ":12950,"Ġìĥģíĥľë¡ľ":12951,"íħĢ":12952,"ĠLondon":12953,"Ġpopulation":12954,"Ġtasks":12955,"Ġê°Ģì£½":12956,"annels":12957,"Ġìļ°ìľł":12958,"Ġincreased":12959,"ìłĦëŀµ":12960,"###":12961,"ìłĢíĬ¸":12962,"ĠĠĠĠĠĠĠĠĠĠĠĠĠĠĠĠĠĠĠĠĠĠĠĠĠĠĠĠĠĠĠĠĠĠĠĠĠĠĠ":12963,"ìĬ¤íĭ±":12964,"Ġì´ĪëĮĢ":12965,"Ġinteger":12966,"ĠJanuary":12967,"vention":12968,"ĠModel":12969,"ĠíĴĪì§Ī":12970,"Ġì§Ħíĸīíķĺê³ł":12971,"Ġìĺ¤ê³ł":12972,"(@":12973,"ë¸ĮëĿ¼":12974,"Ġdry":12975,"Parent":12976,"ëłĺ":12977,"ìŀħêµ¬":12978,"ĠëĤ´ëĬĶ":12979,"Ġanaly":12980,"Ġreve":12981,"PP":12982,"ìĨįìĹĲìĦľ":12983,"Ġdepart":12984,"íĥł":12985,"ìķĪìĿĺ":12986,"Ġonto":12987,"ĠHar":12988,"Ġë³´ê±´":12989,"Ġfirm":12990,"ĠìĻĶìĸ´ìļĶ":12991,"ĠìĿĺê²¬ìĿĦ":12992,"Ġgenerally":12993,"ëĭ¤ë³´ë©´":12994,"ìĬ¤íĶ¼":12995,"Ġíķłê¹Į":12996,"Ġhear":12997,"ida":12998,"Ħê¹ĥ":12999,"Ġresolution":13000,"Non":13001,"virt":13002,"Ġìľ¨":13003,"rd":13004,"Ġmetric":13005,"ëį°ìĿ¼ë¦¬":13006,"Ġcompare":13007,"ëŃĩ":13008,"`.":13009,"ìĦĿìĿĢ":13010,"íĤ·":13011,"ì§ĦìĿĢ":13012,"ĠíİĺìĿ´ì§Ģ":13013,"reshold":13014,"shift":13015,"Dr":13016,"ìĿ´ë²¤íĬ¸":13017,"ĠOther":13018,"Ġëĭ¤ìĿĮëĤł":13019,"ĠëĲĺìĸ´ìĦľ":13020,"ìĬ¤íĨłëŀĳ":13021,"íķľê²Į":13022,"Ġëª¨ìĬµìŀħëĭĪëĭ¤":13023,"Ġë¶ĦìĿĢ":13024,"å±±":13025,"Ġdistributed":13026,"Ġë¶ĦìľĦê¸°ê°Ģ":13027,"\\}$":13028,"ĠTH":13029,"tn":13030,"ìĿ´ìĺĪìļĶ":13031,"¬ë½ķ":13032,"ëĤĺíĥĢ":13033,"ëģĦëŁ¬":13034,"Ġstack":13035,"ĠAng":13036,"Ġ})":13037,"Ġcalls":13038,"ĠUs":13039,"Ġcampaign":13040,"ĠBrit":13041,"Ġpi":13042,"ëħĶ":13043,"ĠAre":13044,"ĠValue":13045,"ĠëıĪìĿ´":13046,"Ġbyte":13047,"Api":13048,"Ġìļ°ë¦¬ë¥¼":13049,"replace":13050,"ĠìŀĪê²ł":13051,"ëĮĦ":13052,"Ġëª©ìłģìľ¼ë¡ľ":13053,"Ġpartners":13054,"Ġëį°ìĿ´íĬ¸":13055,"iment":13056,"ĠìĪĺìĤ¬":13057,"Ġì¦Ŀëªħ":13058,"Ġìļ°ë¦¬ìĹĲê²Į":13059,"Ġìłķë¶ĢìĿĺ":13060,"Ġchem":13061,"Ġeasier":13062,"ìĭ¤ìłľë¡ľ":13063,"Ġëĭ´ìĿĢ":13064,"æĢ":13065,"ĠGerm":13066,"Ġíı¬íķ¨íķľ":13067,"ague":13068,"ĠìīĲ":13069,"Ġì°¾ê¸°":13070,"Mark":13071,"Ġê·ľìłķìĹĲ":13072,"ë³´ë¥¼":13073,"eces":13074,"Ġsmart":13075,"Ġë¶Ģë¶ĦìĹĲ":13076,"Ġgrowing":13077,"Ġcommunication":13078,"rot":13079,"Policy":13080,"pet":13081,"ëĬĶê±°":13082,"ë¥łìĿĦ":13083,"Ġalthough":13084,"ĠíĽĦë°ĺ":13085,"Ġíĺģìĭł":13086,"Ġë§ĽìĿĢ":13087,"Ġut":13088,"uy":13089,"ìĬ¤íı¬":13090,"ĠìķĦìĿ´ë¥¼":13091,"ëĭ¨ìľ¼ë¡ľ":13092,"Ġë¶ĵ":13093,"ìĸ´ë¦°ìĿ´":13094,"Ġattack":13095,"ĠìķĦìļ°":13096,"ĠìĺģíĻĶë¥¼":13097,"Ġë³´ëĭĪê¹Į":13098,"Ġì§ģë¬´":13099,"rought":13100,"108":13101,"Ġíķĺëįĺ":13102,"ĠìĥģíĴĪìĿĦ":13103,"ĠìĦ±ìłģ":13104,"Ġ$.":13105,"Ġprocedure":13106,"Ġdepends":13107,"serve":13108,"Ġthinking":13109,"pite":13110,"Ġì¤ĳìĿ´ëĭ¤":13111,"ìĥģëıĦ":13112,"Ġ${":13113,"Ġê³łìĸĳìĿ´":13114,"boolean":13115,"ĠCD":13116,"ĠíĺĦê¸Ī":13117,"Br":13118,"Ver":13119,"Ġcells":13120,"Ġëªħëł¹":13121,"Ġremoved":13122,"Ġíĺķíĥľë¡ľ":13123,"Ġintroduced":13124,"Has":13125,"dict":13126,"Ġsleep":13127,"Ġbecame":13128,"å¼":13129,"Ġspend":13130,"ĠBGCOLOR":13131,"ĠíķĺìĸĢ":13132,"Title":13133,"ĠëıĻë°ĺ":13134,"ìĭ¬íķľ":13135,"\\'":13136,"Ġì¢ĭëįĶëĿ¼êµ¬ìļĶ":13137,"ê³½":13138,"ìĪĺì¤Ģ":13139,"Ġì¤Ģë¹Ħíķ´":13140,"ĠMake":13141,"ĠíķĢ":13142,"ëĦĽ":13143,"gar":13144,"$_":13145,"ë°ľìĿ´":13146,"ê³µìĿ¸":13147,"ìķĺì§Ģë§Į":13148,"=-":13149,"ifications":13150,"SR":13151,"OK":13152,"Ġing":13153,"Ġëŀľ":13154,"zer":13155,"Ġinteraction":13156,"ĠLa":13157,"Argument":13158,"Ġì«ĵ":13159,"Ġsimpl":13160,"ĠProgram":13161,"ëħĦê¹Įì§Ģ":13162,"ĠëĤĺìķĦê°Ģ":13163,"ĠìĥĿê¸°ëĬĶ":13164,"holder":13165,"çĻ":13166,"-)":13167,"Ġì¢ħë£Į":13168,"ĠëıĻìĿ¼íķľ":13169,"êµ°ìĿĢ":13170,"Ġcos":13171,"ĠíķĺëĬĲ":13172,"atalog":13173,"Ġìĥģê°Ģ":13174,"register":13175,"Ġowner":13176,"Meta":13177,"Ġìĥ¤ìĽĮ":13178,"ĠìĥĿìĦ±":13179,"ê²°ìłķ":13180,"Ġë¶Ģë¶Ģ":13181,"settings":13182,">();":13183,"ĠìķĦìĿ´ëĶĶìĸ´":13184,"ìĬ¤íĦ´":13185,"Ġelectric":13186,"real":13187,"AGE":13188,"ĠUser":13189,"ĠíķĺìĺĢìĬµëĭĪëĭ¤":13190,"Ġì¡°ë¦¬":13191,"bing":13192,"Ġrepresents":13193,"ë²Ħë¦¬":13194,"ĠíĽĦê¸°ë¥¼":13195,"ìļĶê±´":13196,"ë°ĶìĿ´ìĺ¤":13197,"Ġbenefit":13198,"Ġê½Ĥ":13199,"ëĿ½ìĿĦ":13200,"ë°©ìĿĺ":13201,"ĠëļĿ":13202,"ĠMath":13203,"ĠResearch":13204,"anging":13205,"plements":13206,"ìŀĲëĵ¤ìĹĲê²Į":13207,"uated":13208,"Ġfamilies":13209,"Ġíģ´ëŁ½":13210,"eters":13211,"inet":13212,"Ġplus":13213,"Ġêµ³ìĿ´":13214,"Ġreleased":13215,"ĠëĦ¤ê°Ģ":13216,"Ġcomparison":13217,"underline":13218,"Ġproduced":13219,"ĠIndia":13220,"Ġresulting":13221,"ëļ±":13222,"ĠìķĬê¸°":13223,"Ġì¡°ëªħ":13224,"Ġdemand":13225,"ë²ķìĿ´":13226,"ê·¸ëħĢ":13227,"Ġprocessing":13228,"ë¹¨ë¦¬":13229,"lines":13230,"Num":13231,"Ġë°ľíĸī":13232,"Red":13233,"here":13234,"Ġcombination":13235,"care":13236,"Ġappre":13237,"definition":13238,"êµŃìĿĦ":13239,"ìº¡":13240,"eler":13241,"ë§ĮìĿĢ":13242,"ĠCour":13243,"Ġunits":13244,"ì½ķ":13245,"ĠIO":13246,"while":13247,"ëĥĦìĥĪ":13248,"Ġë¹Ĺ":13249,"Ġë§Īì¹¨":13250,"ĠAL":13251,"ico":13252,"ĠëĤ´ìĹĲ":13253,"ĠìłĦëĤł":13254,"Ġjav":13255,"Ġëĵłëĭ¤":13256,"ca":13257,"Ġë³¶ìĿĮ":13258,"Ġexerc":13259,"attle":13260,"Ġbytes":13261,"ĠCommun":13262,"}}}":13263,"Ġpush":13264,"ìĦ¼íĬ¸":13265,"Application":13266,"ĠFin":13267,"cut":13268,"ìŃī":13269,"Ġíķľëį°":13270,"ashion":13271,"Ġtrend":13272,"minus":13273,"Ġmis":13274,"ĠBook":13275,"illing":13276,"Ġfab":13277,"ìĦłê±°":13278,"----------------------------------------------------------------":13279,"ipeline":13280,"Args":13281,"Ġgar":13282,"ĠìĻĦíĻĶ":13283,"Ġê°ķì¡°íĸĪëĭ¤":13284,"Ġdataset":13285,"ìĭľë¶ĢíĦ°":13286,"ĠëĨĵìĿĢ":13287,"Ġsurround":13288,"Ġë°ĸìľ¼ë¡ľ":13289,"Ġthank":13290,"Ġìķ¼ìĻ¸":13291,"vest":13292,"Ġchosen":13293,"Post":13294,"Ġê²¨ìļ°":13295,"Ġìļ°ì£¼":13296,"ado":13297,"Bytes":13298,"ìĦ¸ìĿĺ":13299,"ë¥´ë¥´":13300,"ificate":13301,"aling":13302,"Ġìĺ¤ìĿ¼":13303,"ĠìĪĺìĹħìĿĦ":13304,"ëĤ´ê¸°":13305,"ìĬ¤íĮĮ":13306,"Ġê°Ģë¦¬":13307,"ĠìĪĺëĤ©":13308,"Ġrock":13309,"Ġê°ĸì¶ĺ":13310,"Ġmut":13311,"iam":13312,"ara":13313,"Ġspaces":13314,"Ġvelocity":13315,"Ġì¶Ķê°Ģë¡ľ":13316,"ĠëªħíĻķ":13317,"ë³´ê±´":13318,"ĠError":13319,"ìĹĲìĿ´":13320,"cloud":13321,"ĠJSON":13322,"apsh":13323,"ĠFacebook":13324,"Ġëı¼ì§Ģ":13325,"Ġserve":13326,"Ġë³´ìĹ¬ì£¼ëĬĶ":13327,"ë°ĶëĿ¼":13328,"íĬĢê¹Ģ":13329,"Ġëħ¸ëŀĺë¥¼":13330,"ìĽ¨ëĶ©":13331,"ĠMr":13332,"othing":13333,"ĠìĽĲìĿ¸":13334,"ê·¸ë¦°":13335,"IE":13336,"Ġê°ķìķĦì§Ģ":13337,"Ġcamera":13338,"ĠìŀĲëĿ¼":13339,"Ġpul":13340,"ìĨĮìĹĲìĦľ":13341,"ìŀ¬ê°Ģ":13342,"ĠìľĦìĿĺ":13343,"ĠìĦ¤íĥķ":13344,"ìĬ¤íİĺ":13345,"ìłĦìĭľ":13346,"ì§Ģë°©ë²ķ":13347,"Ġharm":13348,"Stack":13349,"Ġì¦Ĳê¸°ëĬĶ":13350,"Ġì£¼ìĭľë©´":13351,"ëł·":13352,"ynamic":13353,"ĠíİĢ":13354,"Ġë³µíķ©":13355,"ëĦĮ":13356,"ĠìĿ¸ìĪĺ":13357,"Ġparticularly":13358,"ĠìĤ¬ìļ©íķľ":13359,"Ġdrug":13360,"ëĭ¨ëĭ¤":13361,"Ġalgebra":13362,"ìĤ¬ê±´ë²Īíĺ¸":13363,"Ġbusinesses":13364,"ê»į":13365,"ëĦ¥":13366,"ĠíĿ¥ë¯¸":13367,"fields":13368,"Ġcompact":13369,"iforn":13370,"ĠíĬ¸ëłĪìĿ´":13371,"ITY":13372,"~~~~":13373,"Ġunless":13374,"ĠíĶ¼ìŀĲ":13375,"Ġë§ĽëıĦ":13376,"dest":13377,"ĠëłĪìĬ¤íĨłëŀĳ":13378,"Ġemployees":13379,"ë½Ģ":13380,"êµ¬ë¦¬":13381,"ĠPort":13382,"TEST":13383,"Ġregarding":13384,"ìĪłìĿĦ":13385,"Ġíģ¬ê¸°":13386,"ìķĪìĹĲìĦľ":13387,"Ġëĵ¤ìĿĦ":13388,"full":13389,"ìļ°ê¸°":13390,"double":13391,"Ġëį©":13392,"Ġê°Ģì¹ĺë¥¼":13393,"ì§ķìĸ´":13394,"Ġë°±ìĭł":13395,"Ġë¬´ëĦĪ":13396,"ĠHer":13397,"framework":13398,"Ġë¡¤":13399,"Ġê³¨ëĿ¼":13400,"Ġê³¨ëª©":13401,"Ġunsigned":13402,"Ġregions":13403,"Ġfinish":13404,"ë°ķìĿ´":13405,"Custom":13406,"Ġìłķë¹Ħ":13407,"Ġbegan":13408,"models":13409,"ë¶ĦìľĦ":13410,"ilton":13411,"product":13412,"Ġidentify":13413,"Ġmotion":13414,"ìĻ¸êµŃ":13415,"ĠEvery":13416,"ìłĦêµŃ":13417,"Ġìłķë¶Ģê°Ģ":13418,"íķłì§Ģ":13419,"ìĿ´ëĵł":13420,"Decl":13421,"Gr":13422,"Ġê²ĥìĿ´ë©°":13423,"ãģ£":13424,"ê¸°ë¡Ŀ":13425,"success":13426,"Ġê³µìłķ":13427,"esome":13428,"ĠMost":13429,"Ġdream":13430,"Ġë§ĪëĿ¼":13431,"porate":13432,"Ġos":13433,"ĠíĮĮìĿ¼":13434,"Ġìľłíĸī":13435,"Ġë§ĽìŀĪìĸ´ìļĶ":13436,"Ġrespond":13437,"Ġadding":13438,"ìĭĿê³¼":13439,"sive":13440,"ĠëĳĲë²Īì§¸":13441,"Ġinner":13442,"eries":13443,"olved":13444,"ë¯¸ëĶĶìĸ´":13445,"ì½Ķëĵľ":13446,"While":13447,"inger":13448,"ĠAN":13449,"ëª¨ê°Ģ":13450,"ĠEvent":13451,"Ġremains":13452,"Ġnuc":13453,"ĠëĦ¤íĬ¸ìĽĮíģ¬":13454,"ìĪľíĻĺ":13455,"ĠìľĦìĹĲìĦľ":13456,"Ġminim":13457,"ĠìŃĪ":13458,"Ġì§ĢëĤľëĭ¬":13459,"ĠíĺĲìĿĺ":13460,"^^*":13461,"Ġwind":13462,"ĠìºĶ":13463,"íķĳíģ¬":13464,"Ġgoals":13465,"Sw":13466,"help":13467,"ĠìĺĪìĤ°":13468,"ifically":13469,"panel":13470,"ĠíĮĲê²°":13471,"=\"/":13472,"Ġë°ĶëŀĮìĹĲ":13473,"Ġëĭ¹ìŀ¥":13474,"âĢ¤âĢ¤":13475,"white":13476,"ê·¸ë¦ĩ":13477,"Ġìĭ¤íĺĦ":13478,"ë°°ê°Ģ":13479,"Ġê·¸ê±¸":13480,"antic":13481,"Ġë°ĶëŀĮìĿ´":13482,"ê¹¥":13483,"ĠìĿ´ìķ¼ê¸°ê°Ģ":13484,"ìĥĪë¡ľìļ´":13485,"âĸ¡":13486,"ëĸł":13487,"æĸĩ":13488,"Ġearn":13489,"ĠWar":13490,"Ġê¹ľì§Ŀ":13491,"Ġê°Ģê²©ìĹĲ":13492,"Ġtrade":13493,"Ġíķľë§ĪëĶĶ":13494,"ëħ¸íĬ¸":13495,"Ġìĸ´ëĬĲìłķëıĦ":13496,"Ġevidence":13497,"ĠëĤĺíĥĢëĤĺëĬĶ":13498,"ë¹ĦìķĦ":13499,"Ġnamed":13500,"Ġpriv":13501,"atial":13502,"ACE":13503,"produ":13504,"Ġëª¨ë¥´ê²łì§Ģë§Į":13505,"Ġactions":13506,"ĠìĿĺë¢°":13507,"Ġconv":13508,"ëĿ¼ë¦¬":13509,"ĠìĬ¹ë¦¬":13510,"ĠìłĦìĽĲ":13511,"Ġêµ¬ìĦ±ëĲĺìĸ´":13512,"Ġë¶Ħëĵ¤ìĹĲê²Į":13513,"ĠêµŃë¯¼ìĿĺ":13514,"Ġìĺģê´ĳ":13515,"ĠìłķíĻķíŀĪ":13516,"ĠëĤĺìķĦ":13517,"Ġë²łìĬ¤íĬ¸":13518,"ãģĻ":13519,"Ġdiscussed":13520,"ĠìĿ´ë¦¬":13521,"del":13522,"More":13523,"ĠìĬ¤íĮĮ":13524,"ĠMet":13525,"`,":13526,"Ġ\\|":13527,"ì¹´ìĿ´":13528,"Ġ<=":13529,"ĠìĿ¸íķĺìĹ¬":13530,"bul":13531,"103":13532,"ĠìĿ¼ìĹĲ":13533,"ì·":13534,"íĥĢìŀħ":13535,"Ġeye":13536,"365":13537,"}\"":13538,"ë¹Ĺ":13539,"ĠâĹĭ":13540,"hold":13541,"fast":13542,"ĠPy":13543,"ĠĠĠĠĠĠĠĠĠĠĠĠĠĠĠĠĠĠ":13544,"Ġê³µê°ĦìĿĦ":13545,"ìĿ´ìķ¼ê¸°":13546,"Ġë§Īì§Ģë§īìľ¼ë¡ľ":13547,"Ġë§ŀìĿĢ":13548,"ĠPost":13549,"ĠìĽĶìļĶìĿ¼":13550,"Ġmaps":13551,"ĠìķĦë¥´":13552,"Ġê¸°ìģ¨":13553,"Ġìŀ¬ìłķ":13554,"Metadata":13555,"ìĶ¨ìĿĺ":13556,"Ġspent":13557,"Byte":13558,"Ġë²ĪìĹŃ":13559,"ê³§":13560,"ĠìŀħíķĻ":13561,"ĠíĦ±":13562,"home":13563,"ĠII":13564,"Ġanim":13565,"ĠìķĮìķĺëĬĶëį°":13566,"Ġëĵ±ê¸ī":13567,"Ġìĺ¤ìĹ¼":13568,"Ġì¢ħìĿ´":13569,"deg":13570,"êµŃìĿĢ":13571,"Hz":13572,"Ġëª¬":13573,"ìĦ±íķľ":13574,"Ġëĭ¨ìĸ´":13575,"initial":13576,"Ġì¦ĿìĥģìĿ´":13577,"ìĦ¸ìļ©":13578,"ĠServices":13579,".<":13580,"Ġhous":13581,"ì¢ħìĿĦ":13582,"ĠìĦ¤ëªħìĿĦ":13583,"Ass":13584,"HD":13585,"Ġê²ĥìĿ´ëĿ¼":13586,"ĠìĭłìķĻ":13587,"Ġhop":13588,"ĠìĿ´ìłł":13589,"ĠìĹł":13590,"Ġëį°ë·Ķ":13591,"Ġinline":13592,"Ġìĩ¼íķĳëª°":13593,"Ġautomatically":13594,"Ġopportunities":13595,"Ġhighlight":13596,"Ġdriver":13597,"lor":13598,"Ġ(*":13599,"ëĭ¤íĸī":13600,"íķĺìħĶìķ¼":13601,"Ġê¸°ì¡´ìĿĺ":13602,"bitr":13603,"rip":13604,"iced":13605,"Ġreasons":13606,"Ġìļ´íĸī":13607,"ĠìĿĺë¯¸ê°Ģ":13608,"Ġdepth":13609,"ĠëĮĢíļĮ":13610,"Ġìĺµìħĺ":13611,"Ġpull":13612,"ifornia":13613,"Ġ),":13614,"HTML":13615,"Ġìĸ¼êµ´ìĿ´":13616,"ìŀĲë©´":13617,"ĠíĶĦë¡ľìłĿíĬ¸":13618,"Ġeigen":13619,"ê´ĢìĹĲ":13620,"Ġìį¬":13621,"Ġhealthy":13622,"Boolean":13623,"Ġscore":13624,"ĠSNS":13625,"footer":13626,"SION":13627,"omb":13628,"ìĥĿê°ģë³´ëĭ¤":13629,"Ġreduced":13630,"padding":13631,"ìĺ¤íĽĦ":13632,"aught":13633,"Ġìĥģíĥľë¥¼":13634,"ĠDet":13635,"agnost":13636,"ê³µëıĻ":13637,"Ġì£¼ê¸°":13638,"Ġjud":13639,"Ġwonderful":13640,"Ġê°ĶëĬĶëį°":13641,"Ġresponsible":13642,"Ġëĵ¬ë¿į":13643,"Ġkeys":13644,"Debug":13645,"ĠíĻľë°ľ":13646,"ĠëĤłìķĦ":13647,"Ġìŀī":13648,"ĠDec":13649,"ĠìĹĨìĹĪëįĺ":13650,"Ġê¸°ìĪłìĿĦ":13651,"ìĦ¸ë¡ľ":13652,"Ġearlier":13653,"ìĬ¤ìĹĲìĦľ":13654,"ê°Ģì§Ģê³ł":13655,"ìĨĮë¹Ħ":13656,"Ġì¼ĢìĿ´íģ¬":13657,"ĠìŀĲê²©ì¦Ŀ":13658,"clusive":13659,"ìĽĲê³¼":13660,"Ġoperators":13661,"Ġdamage":13662,"ĠìĽ¨ëĶ©":13663,"æĽ":13664,"Ġê´Ģë¦¬ë¥¼":13665,"ê·¸ëıĻìķĪ":13666,"ê²©ìĿĦ":13667,"ä¿":13668,"ìĪĺìĿµ":13669,"ĠìĿ´ëĵ¤ìĿĢ":13670,"Param":13671,"Ġê¹ĬìĿ´":13672,"ëĭ¹ìĿĢ":13673,"Classes":13674,"Ġíĳ¸ì§Ĳ":13675,"CI":13676,"ìĿ½":13677,"hell":13678,"ë¬¼ê³¼":13679,"Ġicon":13680,"bum":13681,"ìĤ¬ë¦¬":13682,"Cal":13683,"ìĿ¼ê¹ĮìļĶ":13684,"ĠìĦ±ê²½":13685,"Ġì§Ħìłķíķľ":13686,"Ġê°Ģë³´":13687,"íķŃìĹĲ":13688,"orge":13689,"ĠìķĦë¬´ëıĦ":13690,"Ġíķłì§Ģ":13691,"ìĿ´ëıĻ":13692,"Ġê°ĢìĿ´ëĵľ":13693,"olar":13694,"íĺĦì§Ģ":13695,"ìĤ°ìĭľ":13696,"ëĭ¤ìĿ´ìĸ´íĬ¸":13697,"ĠTw":13698,"Ġë³¼ìĪĺ":13699,"ë¼Ī":13700,"__(":13701,"ì²ľìĭľ":13702,"Ġ'/":13703,"ĠìŀħìĿĢ":13704,"Ġstuff":13705,"ĠJapan":13706,"ãĤĮ":13707,"ĠíĨµì¦Ŀ":13708,"Ġuncertain":13709,"avity":13710,"ëĮĢìĭł":13711,"Ġtransp":13712,"ECT":13713,"house":13714,"dro":13715,"Ġposted":13716,"ìĿĺë£Į":13717,"Ġë¦½":13718,"ë²ķìĿĢ":13719,"íĿĺ":13720,"Storage":13721,"edd":13722,"ĠêµĲìĤ¬":13723,"210":13724,"ìĥīìľ¼ë¡ľ":13725,",.":13726,"ĠìĽħ":13727,"ìĿ¸ì¦Ŀ":13728,"ìķĶíĬ¼":13729,"Ġdetailed":13730,"ãĥ³":13731,"cember":13732,"However":13733,"ìĸ¸ìĿĦ":13734,"Ġê¾¸ë©°":13735,"Ġëħ¸íķĺìļ°":13736,"ĠëĦ£ìĸ´ìĦľ":13737,"ì¹´ëį°":13738,"ì°¨ìĹĲ":13739,"ffee":13740,"DU":13741,"íĻĶìĿ´íĬ¸":13742,"ĠìĹĨìķł":13743,"ĠProject":13744,"ê±´ì¡°":13745,"Ġdefinitely":13746,"ĠíĿł":13747,"íĨ¨":13748,"ëĮĢì§Ģ":13749,"ìłģìĿĺ":13750,"ëĭ¹ìĿĺ":13751,"Ġsold":13752,"Ġìŀ¬ìĤ°":13753,"Ġì¦Ĳê²ģê²Į":13754,"ì³ĲìĦľ":13755,"prod":13756,"CM":13757,"Ġê³ĦíļįìĿĦ":13758,"ĠìĿ´ëŀĺ":13759,"ë¹Ħë¡ľ":13760,"ĠìĿ´ë¯¸ì§Ģë¥¼":13761,"Ġhistor":13762,"ëħĦìĹĲëĬĶ":13763,"Ġê°Ļìķĺëĭ¤":13764,"112":13765,"ĠíĮĮê´´":13766,"esh":13767,"ìĺĪë¥¼":13768,"Ġenable":13769,"ĠChristmas":13770,"ëĵľë¦°":13771,"Ġë¬´ìĸ¸":13772,"Ġê°ĢëĵĿíķľ":13773,"Ġê±°ìĭ¤":13774,"Ġmonitor":13775,"ĠìĿ´ìĬĪ":13776,"Ġìľłíĺķ":13777,"olic":13778,"Ġattract":13779,"Ġë»Ķ":13780,"ĠëįĶë³´ê¸°":13781,"rench":13782,"Ġuniform":13783,"ìĥīìĿĺ":13784,"ĠíĶ½":13785,"}},":13786,"Ġë³´ìĥģ":13787,"Ġëª¨ë¥¸ëĭ¤":13788,"Ġestablished":13789,"Delete":13790,"Ġê°ĦìĿĺ":13791,"Ġlack":13792,"Ġadvantage":13793,"Ġalt":13794,"Ġëª¨ë¥´ê²łëĭ¤":13795,"éĿ":13796,"ìĿ¼ê°Ħ":13797,"ãģĨ":13798,"Ġinvestment":13799,"ģëĭĪëĭ¤":13800,"ëĦ¤ìĿ¼":13801,"Ġnetworks":13802,"dependency":13803,"ini":13804,"Ġjson":13805,"ader":13806,"annotation":13807,"Ġvertex":13808,"Ġíĩ´ê·¼":13809,"ìĿ¸ëĵ¤":13810,"Ġformula":13811,"Ġconsistent":13812,"auto":13813,"ìļ¤":13814,"ì¹´ë©ĶëĿ¼":13815,"ĠíĹĪë¦¬":13816,"Ġbirth":13817,"riday":13818,"Ġfollowed":13819,"results":13820,"ìĪľìľĦ":13821,"ì°¨ê²Į":13822,"Ġpayment":13823,"íķ«":13824,"Ġê²ĥìĿ¸ì§Ģ":13825,"Writer":13826,"Ġëĭ¤ëĭĪëĬĶ":13827,"ë¬¼ì§Ī":13828,"ups":13829,"104":13830,"ë³´ìĿ´":13831,"Ġëª¨ëĭĪíĦ°":13832,"ĠìĨĮìĨ¡":13833,"Ġë³´ìĿ¼":13834,"Ġë°ľíľĺ":13835,"Ġcontinuous":13836,"Rule":13837,"Ð°Ð":13838,"Doc":13839,"black":13840,"Ġholid":13841,"ĠGreen":13842,"Ġìĭ¤ìĭľê°Ħ":13843,"ìĿ´ìľł":13844,"ĠìĨĮíĶĦíĬ¸":13845,"ì¤ĳê°ľ":13846,"ë©´ìĿĢ":13847,"attribute":13848,"Ġì¶Ķì²ľíķ´":13849,"Ġë£¸":13850,"Ġìĸ»ìĸ´":13851,"Exp":13852,"ĠìĭĿìĤ¬ë¥¼":13853,"Ġë¬´ë£Įë¡ľ":13854,"Theta":13855,"Ġ$\\{":13856,"ë¶Ħê°Ħ":13857,"ê¶ĮìĿĢ":13858,"Ġìŀ¬ìĥĿ":13859,"Ġíķ´ìĨĮ":13860,"ìĺµìħĺ":13861,"Ġhyper":13862,"Ġbelong":13863,"ĠìŀĲê³ł":13864,"Ġsquare":13865,"ĠìĬ¤íĤ¨":13866,"Ġê¸°ìĹħìĿĺ":13867,"ĠìĦ¸ì¢ħ":13868,"ancing":13869,"Ġmessages":13870,"Ġinternet":13871,"ë¡ľìĽĮ":13872,"ë°Ķì§Ģ":13873,"Ġë©Ģíĭ°":13874,"Ġì§Ŀ":13875,"]]":13876,"ĠMac":13877,"admin":13878,"Ġtherm":13879,"ĠêµĲìľ¡ìĿĦ":13880,"ìĤ¬ì§ĦìĿĦ":13881,"El":13882,"ê¸°íķľ":13883,"Ġíģ¬ë¦¬ìĬ¤ë§ĪìĬ¤":13884,"WD":13885,"Ġmill":13886,"Enabled":13887,"Ġë¬´ìĹĩìĿ¸ê°Ģ":13888,"Ġìª½ìľ¼ë¡ľ":13889,"ļê½ĥ":13890,"ovember":13891,"Ġdead":13892,"ĠìłģìłĪíķľ":13893,"ĠëŃĲê°Ģ":13894,"ĠJuly":13895,"Only":13896,"Ġê³µíĨµ":13897,"ĠìĨĲìĿ´":13898,"ìĹĪëĭ¤ëĬĶ":13899,"Ġìŀ¥ìĭĿ":13900,"ìķĦë¦Ħ":13901,"Ġë¹ļ":13902,"ê°Ģê²©ìĿĢ":13903,"@***.***":13904,"Tests":13905,"ĠìĬ¤ìľĦ":13906,"Mock":13907,"category":13908,"ìĿĺëıĦ":13909,"Ġìĭ¶ìĹĪëĬĶëį°":13910,"íĥĢê³ł":13911,"çĶŁ":13912,"Ġìĺ¬ë¦¬ê³ł":13913,"Ġcash":13914,"Ġì¦īìĭľ":13915,"ĠãĢĬ":13916,"Ġë¬¼ì§Ī":13917,"ê°ĳìŀĲê¸°":13918,"ĠĠĠĠĠĠĠĠĠĠĠĠĠĠĠĠĠĠĠĠĠĠĠĠĠ":13919,"Ġmanager":13920,"ĠëĪĪìľ¼ë¡ľ":13921,"ĠìĹĨìľ¼ë©´":13922,"Ġagreement":13923,"ĠìłĪë°ĺ":13924,"ĠíĨµìĿ¼":13925,"ĠCopy":13926,"tee":13927,"ĠìĥĿíĻľìĿĦ":13928,"texttt":13929,"Ġcurve":13930,"Ġëĵ£ëĬĶ":13931,"Ġprim":13932,"gence":13933,"urt":13934,"ë°©ìļ¸":13935,"ë¡ľìĿĺ":13936,"Ġbalance":13937,"insert":13938,"poses":13939,"olf":13940,"ì²´ìĹĲ":13941,"ĠìķĬìķĺì§Ģë§Į":13942,"ishes":13943,"ë°¸":13944,"ĠìłĢìŀĳ":13945,"ĠKing":13946,"Ġdeli":13947,"Ġoccur":13948,"Ġê±¸ëł¤":13949,"íĬ¸ëĿ¼":13950,"Ġadapt":13951,"rey":13952,"êµ¬ëĭĪ":13953,"PM":13954,"TF":13955,"ë°ķë¬¼ê´Ģ":13956,"ĠìĦ±ê³¼":13957,"âĸ·":13958,"Ġëĭ¹ìĭłìĿ´":13959,"Ġíĭ°ì¼ĵ":13960,"IB":13961,"ĠìĪĺë¡Ŀ":13962,"ingle":13963,"ĠSeptember":13964,"Ġblood":13965,"Draw":13966,"ĠSM":13967,"ategories":13968,"Ġcolors":13969,"íİ¸ìĿĺ":13970,"ìĦłìĹĲ":13971,"Ġì§Ģê¸ĪëıĦ":13972,"Ġíıīë²Ķ":13973,"apos":13974,"ìĦ¼ìĬ¤":13975,"ĠíĬ¸ëłĮ":13976,"none":13977,"ì²´ëĬĶ":13978,"ĠìŀĪìĸ´ëıĦ":13979,"ĠassertEquals":13980,"Ġmagn":13981,"ë³´ëĭ¨":13982,"Ġë§ĮëĤ¬":13983,"Ġhosp":13984,"ĠDepartment":13985,"Ġfinding":13986,"Ġë¹Ħë¡¯íķ´":13987,"Ġìĵ°ëłĪ":13988,"Ġìĭłì¶ķ":13989,"ederal":13990,"raz":13991,"ĠëĤĺê°ĢëĬĶ":13992,"Ġidentity":13993,"{$":13994,"ĠìĻĶìĬµëĭĪëĭ¤":13995,"mazon":13996,"íķĺìĺĢìľ¼ë©°":13997,"ĠìĤ½":13998,"íĺķíĥľ":13999,"ë²Įìį¨":14000,"ëĤ©ëĭĪëĭ¤":14001,"cons":14002,"ê³µê¸ī":14003,"ashed":14004,"Ġpictures":14005,"ette":14006,"ëĿ¼íħĮ":14007,"Ġë©°ì¹ł":14008,"riend":14009,"íĴĢìĿ´":14010,"ë¥ĺê°Ģ":14011,"ĠCons":14012,"ĠKore":14013,"Ġì¡°ë¡Ģ":14014,"ĠìĥĿê°ģìĹĲ":14015,"Root":14016,"ĠìĪĺë¦½":14017,"~$":14018,"ëĮĢìļĶ":14019,"ëĬĦ":14020,"ê²ĮëıĦ":14021,"ì´Īëĵ±íķĻêµĲ":14022,"ĠìĹĺë¦¬":14023,"ë§ĪëĬĺ":14024,"Ġgave":14025,"ìĭľê°ĦìĿĢ":14026,"íķĺê¸°ê°Ģ":14027,"ĠEven":14028,"ĠKey":14029,"Ġì¶©ë¶Ħíķľ":14030,"ìĿ´ëķĮ":14031,"ì½ľë¦¿":14032,"íı¬íĨł":14033,"ëĴ·":14034,"ìĹĲê²ĮëıĦ":14035,"ìĸĳìĿĦ":14036,"Ġì£½ìĿĢ":14037,"Ġmanif":14038,"Ġë¹ĦêµĲìłģ":14039,"Ġê³łë§Ļ":14040,"ìłľìĻĢ":14041,"ìĿ¸ìĽĲ":14042,"Ġagent":14043,"Ġì¤Ģë¹ĦëĲĺìĸ´":14044,"Ġë°Ķë¡ľê°Ģê¸°":14045,"Ġpeak":14046,"Ġsetup":14047,"ĠCode":14048,"ville":14049,"ëĤłìĿ´":14050,"Execut":14051,";<":14052,"Ġgeneration":14053,"ested":14054,"ìŀĲê¸Ī":14055,"Ġmentioned":14056,"íĥĢìĿ´ìĸ´":14057,"Ġëĭ¥":14058,"Ġë°ľìĥĿíķľ":14059,"ë°±íĻĶìłĲ":14060,"Ġê°¤ëŁŃìĭľ":14061,"ĠìłĦê°ľ":14062,"Ġviews":14063,"íķľêµŃìĸ´":14064,"Ġê³µëª¨":14065,"TX":14066,"ĠìŀĳëıĻ":14067,"ĠíĬ¹ìľłìĿĺ":14068,"íĤ¤ë¡ľ":14069,"ìĭľíĬ¸":14070,"ãģ¾":14071,"KEY":14072,"ynomial":14073,"@****":14074,"ê¶ĮìĹĲ":14075,"Ġinvoke":14076,"Ġíİ¸ì§ĳ":14077,"greg":14078,"Ġ(\"":14079,"ë§Īê°Ģ":14080,".>":14081,"íķ´ìĦľëĬĶ":14082,"ĠAS":14083,"Ġì´Īê³¼":14084,"ĠâĹĢ":14085,"Ġbaby":14086,"ĠìľłëıĦ":14087,"ĠëģĿëĤľ":14088,"ë¶ģíķľ":14089,"ìĦľíĬ¸":14090,"Ġë¬¸íķĻ":14091,"Ġbur":14092,"íİľìħĺ":14093,"Track":14094,"nections":14095,"Ġë§Įëĵľ":14096,"Widget":14097,"ĠDevelop":14098,"ëł¸ëįĺ":14099,"ìĤ´ìĿĦ":14100,"Ġseparate":14101,"Ġì¹¸":14102,"ëĭ´ëĭ¹":14103,"ĠíĸīìľĦ":14104,"Ġeat":14105,"ĠKBS":14106,"ĠOctober":14107,"Ġjour":14108,"íĮĮíĭ°":14109,"Ġbinary":14110,"ĠíĬ¼íĬ¼":14111,"ìĦłìĿĢ":14112,"Ġì¤¬":14113,"Ġê·¼ì²ĺìĹĲ":14114,"ĠìĦ±ëł¹":14115,"ĠëıĻê¸°":14116,"Ġê´ĢìłĪ":14117,"points":14118,"Ġê³łëĵ±íķĻêµĲ":14119,"@****.***":14120,":\\":14121,"Ġê²Ģì¦Ŀ":14122,"ìŀĲìĽĲ":14123,"urrency":14124,"stop":14125,"Ġinfin":14126,"Ġstation":14127,"legal":14128,"ĠìĻ¸ìĹĲ":14129,"Ġë°Ķë¥¸":14130,"Ġì¤ĳìĨĮê¸°ìĹħ":14131,"Ġì°½ìĿĺ":14132,"aching":14133,"Ġoffering":14134,"íĺ¸ëĬĶ":14135,"Ġë§ĲìĿ´ì£ł":14136,"ëĲľëĭ¤ëĬĶ":14137,"ì¡°ë¥¼":14138,"Ġë°°ëł¤":14139,"Edit":14140,"ëªħìĹĲ":14141,"Ġìĥīìĥģ":14142,"Ġëħ¸ëł¥ìĿĦ":14143,"íķ´ìĻ¸":14144,"Ġbrowser":14145,"Ġdelivery":14146,"ë§Īíģ¬":14147,"ë¬´ìĬ¨":14148,"Ġíķĺìĭľê³ł":14149,"ìĿ¸ëĵ¤ìĿĢ":14150,"othes":14151,"Ġinstalled":14152,"Ġìĸ´íĶĮ":14153,"Ġë§¤ê°ģ":14154,"ĠëĮĢì²ĺ":14155,"íļĮìŀ¥":14156,"Obj":14157,"rated":14158,"ìĹĲìĦľë§Į":14159,"Ġê·¸ëŁ¬íķľ":14160,"Ġë°ĿìĿĢ":14161,"å¥":14162,"ads":14163,"Ġhyp":14164,"ìĺ¤íĶĪ":14165,"ê²łìĸ´":14166,"keys":14167,"Ġêµ¬ë©į":14168,"ĠëĴ¤ì§ĳ":14169,"grade":14170,"sn":14171,"ĠíıŃë°ľ":14172,"ĠëģĿëĤ´":14173,"ìĺ¤ë¥¸":14174,"ĠìĿ´íĺ¼":14175,"ĠSund":14176,"}'":14177,"site":14178,"ĠíļįëĵĿ":14179,"Ġcertainly":14180,"Ġìĺ¤ì§ģ":14181,"ëŀĳìĿ´":14182,"ĠëĤ´ì§Ģ":14183,"ĠìĹ°ëł¹":14184,"Ġchallenge":14185,"Ġìĺ¤íĶĦ":14186,"ëłĮì¦Ī":14187,"ìĤ¬íķĻ":14188,"Ġhence":14189,"ĠíģĲ":14190,"íĦ°ê°Ģ":14191,"ëĵľë¦¼":14192,"ĠëĪĪë¬¼":14193,"mock":14194,"ê³µê°ľ":14195,"ĠVis":14196,"Ġë½Ģ":14197,"Ġëĭ¨ìĪľíŀĪ":14198,"writ":14199,"trm":14200,"Ġdiscussion":14201,"ĠíĬ¹íĹĪ":14202,"Ġê¸ĪìļĶìĿ¼":14203,"Ġcast":14204,"Ġê¶Įë¦¬":14205,"ĠìŀĳíĴĪìĿĦ":14206,"Ġê·¸ëŁ¬ë¯Ģë¡ľ":14207,"zero":14208,"ìłĦìĿĢ":14209,"plex":14210,"<\\":14211,"Dialog":14212,"ĠìķĦëĭĮëį°":14213,"ĠHol":14214,"ĠìĥĿê¸¸":14215,"ĠHot":14216,"ĠëªħíĴĪ":14217,"ĠëĲľëĭ¤ë©´":14218,"ĠìĭłìĨį":14219,"ëĭ¹ìĿĦ":14220,"Ġhidden":14221,"íĮĮìĿ¼":14222,"ĠPublic":14223,"Ġmissing":14224,"Ġfelt":14225,"ì°¨ë¡Ģ":14226,"Ġê±°ëĵŃ":14227,"ì¡°ìĹĲ":14228,"Ġì§Ħë£Į":14229,"ìŀĲìĤ°":14230,"ĠíĨµê³Ħ":14231,"Ġcapacity":14232,"Ġnearly":14233,"ì¸Ħ":14234,"Ġë§ĲëĿ¼":14235,"Ġëĭ´ê¸´":14236,"important":14237,"ĠìĿĢíĺľ":14238,"Ġcomments":14239,"bes":14240,"Ġì§ĢëĭĪ":14241,"ĠìľĦíĺĳ":14242,"ê±°ì§Ģ":14243,"ĠTop":14244,"Ġëĵ¤ìĿ´":14245,"ĠBusiness":14246,"ìŀĲëĵ¤ìĿĦ":14247,"Ġë§Ĳíķĺê³ł":14248,"ìłĵ":14249,"ĠìĽ¨ìĿ´":14250,"Ġabsolute":14251,"Ġì£¼ì§Ģ":14252,"ĠìĿ´ìĥģìĿ´":14253,"Ġë¯¼ê°Ĳ":14254,"Ġthanks":14255,"Ġê³µë¬´ìĽĲ":14256,"Ġextremely":14257,"ë³´ëĭ¤ëıĦ":14258,"Ġë¶ĢíĴĪ":14259,"íĥĢìĽĮ":14260,"ĠíĴįë¶Ģíķľ":14261,"ìĭ¤ëĤ´":14262,"ì¡°ìłĪ":14263,"Ġíķĺìĭľë©´":14264,"Ġê¹¨ëĭ«":14265,"ìŀ¬ë¡ľ":14266,"rames":14267,"ë©ĶìĿ´ìħĺ":14268,"ĠìĻĦë²½íķľ":14269,"ìĿ¸ëĵ¯":14270,"ĠPresident":14271,"Ġê´Ģê´ĳê°Ŀ":14272,"Ġê»į":14273,"Before":14274,"çī":14275,"ë¹ĮëĶ©":14276,"Ġë¹Ħì¦Ī":14277,"íĺĶ":14278,"ĠëĤ¯":14279,"ìĿ¼ìŀĲ":14280,"fony":14281,"Ġcollabor":14282,"Ġë©ĶìĿ´íģ¬ìĹħ":14283,"ĠGreat":14284,"Ġther":14285,")))":14286,"ria":14287,"Ġculture":14288,"blockList":14289,"Ġë¬´ìĦł":14290,"âĳ¤":14291,"://***)":14292,"ĠìĪĺìłľ":14293,"ĠìŀĦìĭł":14294,"ĠìĦ¸ëĮĢ":14295,"ĠìłķëıĦëĬĶ":14296,"sect":14297,"atible":14298,"ìĬ¤ëłĪ":14299,"install":14300,"Ġspread":14301,"Please":14302,"ĠApp":14303,"EXT":14304,"ĠìĥĿê°ģíķĺë©´":14305,"Ġê¾":14306,"apy":14307,"irr":14308,"Ġìĺ¤ëŀ«ëıĻìķĪ":14309,"Ġë§İìķĺëĭ¤":14310,"ĠìĤ¬ìĥģ":14311,"Ġhotel":14312,"ëĿ¼ìĿĺ":14313,"ëłĲ":14314,"}^{-":14315,"ĠìĿ¼ì£¼ìĿ¼":14316,"ì¹´ì¹´ìĺ¤":14317,"ĠëĤ¨ëħĢ":14318,"HA":14319,"ĠëıĻë£Į":14320,"ĠìķĦíĮĮ":14321,"ĠìłĢëł´íķĺê²Į":14322,"subseteq":14323,"ë§Īë¥¼":14324,"ĠëĦĺìĸ´ê°Ģ":14325,"ĠíĢĦë¦¬íĭ°":14326,"ê²ĥìĿ´ëĭ¤":14327,"âĿ¤":14328,"Ġê¸¸ê²Į":14329,"ymfony":14330,"Ġìĭ¬íķľ":14331,"ëĦĪìĬ¤":14332,"Ġì¤ĳìļĶíķĺëĭ¤":14333,"Ġclub":14334,"Ġheavy":14335,"ĠMO":14336,"ĠíĿĶíŀĪ":14337,"ĠíķĺëĤĺëĭĺìĿ´":14338,"ìĺģìĽħ":14339,"ĠíĶ¼ë¶Ģë¥¼":14340,"Ġë³¸ìĿ¸":14341,"ë©ĶìĿ´":14342,"450":14343,"Ġpassword":14344,"Ġfinished":14345,"ìłĦìĹĲìĦľ":14346,"íķ´ë³¼":14347,"Vol":14348,"Ġíķĺëł¤ê³ł":14349,"ìłķì¹ĺ":14350,"za":14351,"Ġpaid":14352,"berg":14353,"ĠCompany":14354,"Ġ\\;":14355,"Ġdu":14356,"Ġdress":14357,"ìĺĢì§Ģë§Į":14358,"íĶĦë¥¼":14359,"ĠInternet":14360,"ê¸°ìĿ¼":14361,"ì°¨íĶ¼":14362,"textrm":14363,"Ġêµ°ìĤ¬":14364,"ĠMich":14365,"den":14366,"ocr":14367,"ìĿĮë£Į":14368,"Ġìĭ¬ìĤ¬":14369,"Display":14370,"ë§ĪìĬ¤íģ¬":14371,"ĠìķĦíĶĪ":14372,"short":14373,"Ġaward":14374,"Ġoptimal":14375,"Ġaccuracy":14376,"Ġê°Ģê¹Ŀ":14377,"Ġìĭ¶ìĿĦ":14378,"íĸĪëĭµëĭĪëĭ¤":14379,"Ġnut":14380,"ĠíĻįì½©":14381,"Ġgift":14382,"ëĳ¥ìĿ´":14383,"Ġok":14384,"Ġcompute":14385,"ë§¥ì£¼":14386,"Ġìµľìĭł":14387,"ĠMBC":14388,"itary":14389,"Ġgrant":14390,"íĺĦíĻ©":14391,"íĺĳìĿĺ":14392,"ĠìĿ¸ê¸°ë¥¼":14393,"Ġìĺ¬ë¦°":14394,"ëį§":14395,"ĠìľĦì¹ĺíķ´":14396,"ĠCalifornia":14397,"Ġspot":14398,"ĠíķĦìļĶíķ©ëĭĪëĭ¤":14399,"ì¹«":14400,"ìĹ°êµ¬ìĨĮ":14401,"Job":14402,"comment":14403,"Ġdisk":14404,"Ġëħ¸íĬ¸ë¶ģ":14405,"ĠCustom":14406,"ĠíıīíĻĶ":14407,"ìĪĺìļķ":14408,"Ġanti":14409,"Ġprovider":14410,"ĠìłķíĻķíķĺê²Į":14411,"ĠíĨµíĻĶ":14412,"ëĤĺì¤ĳìĹĲ":14413,"ìľĻ":14414,"Ġpreviously":14415,"ano":14416,"stat":14417,"ëłīìĬ¤":14418,"Ġbright":14419,"Ġëĭ¬ìķĦ":14420,"Ġ$|":14421,"Ġëª¨ìĬµìľ¼ë¡ľ":14422,"Ġìĺ¤ë¦¬":14423,"Ġpen":14424,"ìĺ¨ëĿ¼ìĿ¸":14425,"Ġattr":14426,"Ġì§Ģìĥģ":14427,"ë§¤ê°ģ":14428,"Ġë³´ìķĺ":14429,"Ġflag":14430,"ìļĶì¦ĺìĿĢ":14431,"ì¤ĳìĿĦ":14432,"Ġtried":14433,"ë¬¸ìĿĢ":14434,"ĠìłĢëŁ°":14435,"Ġì¿¨":14436,"ìĭ¶ëĭ¤":14437,"ê´ĢìĹĲìĦľ":14438,"Ġ\"/":14439,"ĠHD":14440,"ĠëĤĺìĺµëĭĪëĭ¤":14441,"ĠJes":14442,"ĠëıħìĦľ":14443,"ailed":14444,"asy":14445,"Descriptor":14446,"shape":14447,"ìĥĿìĤ°":14448,"ĠMem":14449,"Ġpolitical":14450,"Ġwasn":14451,"Ġafford":14452,"Ġê°ĦìĭĿ":14453,"Var":14454,"Ġë¹łì§Ħ":14455,"Ġë³µì§Ģ":14456,"Ġedges":14457,"Timeout":14458,"pute":14459,"Ġë¶Īë¦¬ëĬĶ":14460,"Ġìĭ¬ì§Ģìĸ´":14461,"ë¡ľìį¨":14462,"Ġë¸ĮëĿ¼":14463,"íķĺìĭľê¸¸":14464,"Ġderiv":14465,"Ġë¶Ģì°©":14466,"Ġë°Ķë³´":14467,"Ġê±±ìłķìĿ´":14468,"Ġadvert":14469,"limits":14470,"ìĸ´ë§Ī":14471,"agraph":14472,"Ġì¹ľêµ¬ëĵ¤":14473,"ë£¨ìħĺ":14474,"hs":14475,"Ġjoint":14476,"Ġexperienced":14477,"ĠíĸĪëįĶëĭĪ":14478,"ê³łë¯¼":14479,"Ġmaybe":14480,"ìĨĮìľł":14481,"īģ":14482,"pay":14483,"aming":14484,"Ġappears":14485,"ìĺĪìłĦ":14486,"çŁ":14487,"ĠìĹ´ë§¤":14488,"ì£¼ë°©":14489,"ivial":14490,"Ġspirit":14491,"ëĮĢê¸°":14492,"Ġmsg":14493,"íģ¬ë¦¬ìĬ¤":14494,"structions":14495,"íķĺëł¤ë©´":14496,"Ġëĭ¤ë¥¼":14497,"ĠMag":14498,"IST":14499,"íĸĪìľ¼ëĤĺ":14500,"Ġì°©íķľ":14501,"êµŃìĹĲ":14502,"Ġruns":14503,"apid":14504,"ìĺ¤ë¦¬":14505,"ĠOper":14506,"enter":14507,"Ġpatient":14508,"ë¦¼ìĿ´":14509,"ĠHand":14510,"ìĮ¤":14511,"ĠThanks":14512,"Ġdepending":14513,"Ġì¤ĳêµŃìĿĺ":14514,"grid":14515,"margin":14516,"Ġshowing":14517,"application":14518,"Ġê²½ëł¥":14519,"ë²ĦìĦ¯":14520,"~!!!":14521,"ë§ĪìłĢ":14522,"ĠâĻ¡":14523,"ĠìłĦíĻĶë¥¼":14524,"Ġoffered":14525,"ë§ĮíŀĪ":14526,"Ġê·¸ë¦¼ìĿĦ":14527,"WA":14528,"Results":14529,"ë³¸ë¶Ģ":14530,"Msg":14531,"íĮŁ":14532,"aled":14533,"åī":14534,"ÃŃ":14535,"íĻľëıĻìĿĦ":14536,"Ġappreci":14537,"Ġul":14538,"inn":14539,"footnote":14540,"virtual":14541,"ë§ĪìĿĺ":14542,"Ġextended":14543,"ĠìĽĲíķĺìĭľëĬĶ":14544,"ĠìĤ¬ë¡ľ":14545,"ĠëĮĢíķĻìĥĿ":14546,"cmd":14547,"ĠëĲĺë©´ìĦľ":14548,"ëĮĢë¶Ģë¶Ħ":14549,"ĠíĻĶíķĻ":14550,"ĠInstagram":14551,"Di":14552,"wrap":14553,"Ġì¢ĭìķĺëįĺ":14554,"ĠíĿĻ":14555,"ìĽĶìĿĺ":14556,"Active":14557,"ì¢ħìĿ¼":14558,"Ġlisten":14559,"ê´ĳê³ł":14560,"END":14561,"\"(":14562,"106":14563,"Ġmedium":14564,
[...]
